{
  "version": "1.0",
  "truncation": null,
  "padding": null,
  "added_tokens": [
    {
      "id": 0,
      "content": "[CLS]",
      "single_word": false,
      "lstrip": false,
      "rstrip": false,
      "normalized": false,
      "special": true
    },
    {
      "id": 1,
      "content": "[SEP]",
      "single_word": false,
      "lstrip": false,
      "rstrip": false,
      "normalized": false,
      "special": true
    },
    {
      "id": 2,
      "content": "[PAD]",
      "single_word": false,
      "lstrip": false,
      "rstrip": false,
      "normalized": false,
      "special": true
    },
    {
      "id": 3,
      "content": "[UNK]",
      "single_word": false,
      "lstrip": false,
      "rstrip": false,
      "normalized": false,
      "special": true
    },
    {
      "id": 4,
      "content": "[MASK]",
      "single_word": false,
      "lstrip": false,
      "rstrip": false,
      "normalized": false,
      "special": true
    }
  ],
  "normalizer": null,
  "pre_tokenizer": {
    "type": "Whitespace"
  },
  "post_processor": null,
  "decoder": null,
  "model": {
    "type": "BPE",
    "dropout": null,
    "unk_token": "[UNK]",
    "continuing_subword_prefix": null,
    "end_of_word_suffix": null,
    "fuse_unk": false,
    "byte_fallback": false,
    "ignore_merges": false,
    "vocab": {
      "[CLS]": 0,
      "[SEP]": 1,
      "[PAD]": 2,
      "[UNK]": 3,
      "[MASK]": 4,
      "!": 5,
      "\"": 6,
      "#": 7,
      "%": 8,
      "&": 9,
      "'": 10,
      "(": 11,
      ")": 12,
      "*": 13,
      "+": 14,
      ",": 15,
      "-": 16,
      ".": 17,
      "/": 18,
      "0": 19,
      "1": 20,
      "2": 21,
      "3": 22,
      "4": 23,
      "5": 24,
      "6": 25,
      "7": 26,
      "8": 27,
      "9": 28,
      ":": 29,
      ";": 30,
      "<": 31,
      "=": 32,
      ">": 33,
      "?": 34,
      "@": 35,
      "A": 36,
      "B": 37,
      "C": 38,
      "D": 39,
      "E": 40,
      "F": 41,
      "G": 42,
      "H": 43,
      "I": 44,
      "K": 45,
      "L": 46,
      "M": 47,
      "N": 48,
      "O": 49,
      "P": 50,
      "R": 51,
      "S": 52,
      "T": 53,
      "U": 54,
      "V": 55,
      "W": 56,
      "X": 57,
      "Y": 58,
      "[": 59,
      "\\": 60,
      "]": 61,
      "^": 62,
      "a": 63,
      "b": 64,
      "c": 65,
      "d": 66,
      "e": 67,
      "f": 68,
      "g": 69,
      "h": 70,
      "i": 71,
      "j": 72,
      "k": 73,
      "l": 74,
      "m": 75,
      "n": 76,
      "o": 77,
      "p": 78,
      "q": 79,
      "r": 80,
      "s": 81,
      "t": 82,
      "u": 83,
      "v": 84,
      "w": 85,
      "x": 86,
      "y": 87,
      "z": 88,
      "{": 89,
      "|": 90,
      "}": 91,
      "~": 92,
      "°": 93,
      "’": 94,
      "一": 95,
      "产": 96,
      "令": 97,
      "何": 98,
      "值": 99,
      "单": 100,
      "发": 101,
      "句": 102,
      "同": 103,
      "块": 104,
      "型": 105,
      "如": 106,
      "并": 107,
      "序": 108,
      "志": 109,
      "执": 110,
      "指": 111,
      "据": 112,
      "数": 113,
      "方": 114,
      "是": 115,
      "有": 116,
      "标": 117,
      "模": 118,
      "步": 119,
      "法": 120,
      "满": 121,
      "生": 122,
      "的": 123,
      "种": 124,
      "程": 125,
      "空": 126,
      "简": 127,
      "类": 128,
      "线": 129,
      "续": 130,
      "编": 131,
      "网": 132,
      "行": 133,
      "译": 134,
      "该": 135,
      "语": 136,
      "赋": 137,
      "还": 138,
      "连": 139,
      "预": 140,
      "﻿": 141,
      "：": 142,
      "AR": 143,
      "VAR": 144,
      "VAR1": 145,
      "VAR2": 146,
      "VAR3": 147,
      "00": 148,
      "),": 149,
      "ut": 150,
      "in": 151,
      "re": 152,
      "VAR4": 153,
      "put": 154,
      "<=": 155,
      "VAR5": 156,
      "VAR6": 157,
      "wi": 158,
      "wire": 159,
      "en": 160,
      "VAR7": 161,
      "end": 162,
      "VAR8": 163,
      "input": 164,
      "eg": 165,
      "VAR9": 166,
      "0000": 167,
      "beg": 168,
      "begin": 169,
      "as": 170,
      "VAR10": 171,
      "out": 172,
      "si": 173,
      "gn": 174,
      "sign": 175,
      ");": 176,
      "VAR11": 177,
      "assign": 178,
      "11": 179,
      "output": 180,
      "VAR12": 181,
      "se": 182,
      "b0": 183,
      "if": 184,
      "VAR13": 185,
      "reg": 186,
      "VAR14": 187,
      "VAR15": 188,
      "==": 189,
      "VAR16": 190,
      "];": 191,
      "VAR17": 192,
      "VAR18": 193,
      "VAR19": 194,
      "VAR22": 195,
      "VAR21": 196,
      "ra": 197,
      "te": 198,
      "lse": 199,
      "VAR20": 200,
      "else": 201,
      "31": 202,
      "pa": 203,
      "ram": 204,
      "param": 205,
      "b1": 206,
      "VAR24": 207,
      "VAR25": 208,
      "VAR23": 209,
      "ul": 210,
      "00000000": 211,
      "al": 212,
      "VAR26": 213,
      "VAR27": 214,
      "10": 215,
      "mo": 216,
      "]),": 217,
      "mod": 218,
      "ule": 219,
      "module": 220,
      "cl": 221,
      "clk": 222,
      "VAR28": 223,
      "32": 224,
      "VAR29": 225,
      "ter": 226,
      "],": 227,
      "]<=": 228,
      "};": 229,
      "15": 230,
      "16": 231,
      "12": 232,
      "eter": 233,
      "parameter": 234,
      "&&": 235,
      "VAR30": 236,
      "VAR32": 237,
      "UL": 238,
      "DUL": 239,
      "MO": 240,
      "DULE": 241,
      "MODULE": 242,
      "ge": 243,
      "dge": 244,
      "VAR34": 245,
      "VAR31": 246,
      "VAR33": 247,
      "ay": 248,
      "way": 249,
      "alway": 250,
      "always": 251,
      "VAR35": 252,
      "VAR36": 253,
      "VAR37": 254,
      "po": 255,
      "sedge": 256,
      "posedge": 257,
      "d0": 258,
      "VAR38": 259,
      "VAR39": 260,
      "MODULE1": 261,
      "VAR40": 262,
      "or": 263,
      "((": 264,
      "))": 265,
      "VAR43": 266,
      "VAR46": 267,
      "VAR42": 268,
      "])": 269,
      "(),": 270,
      "@(": 271,
      "st": 272,
      "endmodule": 273,
      "VAR41": 274,
      "}}": 275,
      "VAR44": 276,
      "VAR45": 277,
      "64": 278,
      "000": 279,
      "VAR47": 280,
      "cas": 281,
      "case": 282,
      "VAR49": 283,
      "VAR50": 284,
      "63": 285,
      "VAR48": 286,
      "lo": 287,
      "VAR51": 288,
      "VAR54": 289,
      "VAR57": 290,
      "h0": 291,
      "VAR52": 292,
      "0000000000000000": 293,
      "VAR53": 294,
      "VAR55": 295,
      "VAR56": 296,
      "d1": 297,
      "]<={": 298,
      "||": 299,
      "VAR60": 300,
      "cal": 301,
      "local": 302,
      "localparam": 303,
      "VAR58": 304,
      "VAR61": 305,
      "VAR59": 306,
      "VAR62": 307,
      "24": 308,
      "VAR67": 309,
      "VAR66": 310,
      "VAR74": 311,
      "VAR65": 312,
      "VAR63": 313,
      "VAR64": 314,
      "VAR70": 315,
      "]};": 316,
      "23": 317,
      "96": 318,
      "(.": 319,
      "??": 320,
      "\",": 321,
      "rst": 322,
      "VAR71": 323,
      "VAR77": 324,
      "13": 325,
      "));": 326,
      "VAR69": 327,
      "VAR68": 328,
      "VAR76": 329,
      "rese": 330,
      "reset": 331,
      "VAR75": 332,
      "su": 333,
      "25": 334,
      "VAR73": 335,
      "14": 336,
      "VAR72": 337,
      "b11": 338,
      "VAR78": 339,
      "127": 340,
      "VAR81": 341,
      "VAR82": 342,
      "pl": 343,
      "ply": 344,
      "pply": 345,
      "supply": 346,
      "20": 347,
      "VAR80": 348,
      "VAR79": 349,
      "b00": 350,
      "VAR86": 351,
      "VAR84": 352,
      "VAR89": 353,
      "!=": 354,
      "VAR83": 355,
      "VAR85": 356,
      "100": 357,
      "VAR92": 358,
      "VAR88": 359,
      "95": 360,
      "}},": 361,
      "VAR91": 362,
      "ate": 363,
      "state": 364,
      "17": 365,
      "endcase": 366,
      "VAR87": 367,
      "ege": 368,
      "#(": 369,
      "18": 370,
      "VAR90": 371,
      "(!": 372,
      "VAR101": 373,
      "(~": 374,
      "VAR95": 375,
      "VAR93": 376,
      "VAR102": 377,
      "VAR104": 378,
      "din": 379,
      "VAR94": 380,
      "48": 381,
      "VAR108": 382,
      "AA": 383,
      "],{": 384,
      "VAR96": 385,
      "VAR97": 386,
      "({": 387,
      "VAR100": 388,
      "VAR99": 389,
      "19": 390,
      "}}};": 391,
      "VAR98": 392,
      "d2": 393,
      "80": 394,
      "47": 395,
      "VAR103": 396,
      "1111": 397,
      "),.": 398,
      "VAR105": 399,
      "gen": 400,
      "VAR119": 401,
      "VAR107": 402,
      "VAR106": 403,
      "VAR110": 404,
      "ad": 405,
      "VAR114": 406,
      "]<={{": 407,
      "FF": 408,
      "VAR112": 409,
      "[(": 410,
      "(\"": 411,
      "30": 412,
      "27": 413,
      "VAR109": 414,
      "VAR113": 415,
      "VAR144": 416,
      "VAR125": 417,
      "111": 418,
      "40": 419,
      "(\\": 420,
      "VAR115": 421,
      "VAR111": 422,
      "VAR117": 423,
      "b0000": 424,
      "][": 425,
      "VAR123": 426,
      "55": 427,
      "VAR116": 428,
      "VAR120": 429,
      "22": 430,
      "]^": 431,
      "b10": 432,
      "era": 433,
      "genera": 434,
      "generate": 435,
      "VAR118": 436,
      "VAR124": 437,
      "h3": 438,
      "]);": 439,
      "add": 440,
      "VAR121": 441,
      "b00000000": 442,
      "VAR126": 443,
      "de": 444,
      "VAR122": 445,
      "fa": 446,
      "ed": 447,
      "]=": 448,
      "00000000000000000000000000000000": 449,
      "79": 450,
      "}};": 451,
      "39": 452,
      "]}},": 453,
      "112": 454,
      "VAR128": 455,
      "VAR153": 456,
      "VAR131": 457,
      "VAR127": 458,
      "28": 459,
      "signed": 460,
      "26": 461,
      "VAR134": 462,
      "VAR136": 463,
      "supply1": 464,
      "VAR145": 465,
      "nege": 466,
      "negedge": 467,
      "VAR142": 468,
      "VAR129": 469,
      "????": 470,
      "VAR130": 471,
      "h1": 472,
      "110": 473,
      "VAR140": 474,
      "supply0": 475,
      "nd": 476,
      "and": 477,
      "ult": 478,
      "defa": 479,
      "default": 480,
      "VAR135": 481,
      "VAR138": 482,
      "inout": 483,
      "VAR133": 484,
      "VAR139": 485,
      "29": 486,
      "VAR132": 487,
      "VAR143": 488,
      "b000": 489,
      "VAR137": 490,
      "dout": 491,
      "d3": 492,
      "VAR170": 493,
      "VAR141": 494,
      ")-": 495,
      "VAR162": 496,
      "VAR155": 497,
      "ff": 498,
      "56": 499,
      "]}": 500,
      "VAR146": 501,
      "VAR156": 502,
      "VAR173": 503,
      "VAR160": 504,
      "VAR151": 505,
      "21": 506,
      "VAR148": 507,
      "VAR184": 508,
      "VAR149": 509,
      "VAR157": 510,
      "VAR147": 511,
      "for": 512,
      "+:": 513,
      "VAR159": 514,
      "VAR163": 515,
      "VAR152": 516,
      "35": 517,
      "VAR161": 518,
      "VAR154": 519,
      "VAR158": 520,
      "b01": 521,
      "):": 522,
      "un": 523,
      "VAR150": 524,
      "\"),": 525,
      "VAR165": 526,
      "76": 527,
      "]==": 528,
      "int": 529,
      "VAR166": 530,
      "VAR167": 531,
      "MODULE2": 532,
      "VAR164": 533,
      "VAR180": 534,
      "eger": 535,
      "integer": 536,
      "h4": 537,
      "88": 538,
      ">>": 539,
      "<<": 540,
      "VAR168": 541,
      "AAAA": 542,
      "d4": 543,
      "61": 544,
      "71": 545,
      "VAR169": 546,
      "VAR178": 547,
      "VAR174": 548,
      "VAR171": 549,
      "33": 550,
      "VAR172": 551,
      "72": 552,
      "no": 553,
      "h2": 554,
      "VAR185": 555,
      "h00": 556,
      "VAR190": 557,
      "VAR176": 558,
      "not": 559,
      "00000": 560,
      "50": 561,
      "VAR188": 562,
      "VAR192": 563,
      "VAR212": 564,
      "VAR181": 565,
      "\")": 566,
      "VAR182": 567,
      "le": 568,
      "87": 569,
      "36": 570,
      "34": 571,
      "#(.": 572,
      "~(": 573,
      "VAR186": 574,
      "VAR177": 575,
      "VAR175": 576,
      "addr": 577,
      ",.": 578,
      "VAR179": 579,
      "VAR183": 580,
      "VAR198": 581,
      "VAR193": 582,
      "VAR187": 583,
      "120": 584,
      "VAR189": 585,
      "256": 586,
      "VAR191": 587,
      "endgenerate": 588,
      "VAR250": 589,
      ">=": 590,
      "101": 591,
      "38": 592,
      "VAR228": 593,
      "VAR217": 594,
      "VAR210": 595,
      "VAR195": 596,
      "\";": 597,
      "VAR220": 598,
      "VAR200": 599,
      "37": 600,
      "VAR194": 601,
      "VAR201": 602,
      "VAR205": 603,
      "VAR196": 604,
      "VAR258": 605,
      "co": 606,
      "d5": 607,
      "VAR203": 608,
      "h6": 609,
      "104": 610,
      "VAR222": 611,
      "000000": 612,
      "VAR206": 613,
      "h7": 614,
      "VAR218": 615,
      "VAR202": 616,
      "VAR197": 617,
      "VAR204": 618,
      "VAR227": 619,
      "h00000000": 620,
      "VAR199": 621,
      "VAR223": 622,
      "bu": 623,
      "d6": 624,
      "ct": 625,
      "ss": 626,
      "ress": 627,
      "address": 628,
      "44": 629,
      "VAR208": 630,
      "{(": 631,
      "d7": 632,
      "unter": 633,
      "counter": 634,
      "VAR207": 635,
      "119": 636,
      "VAR215": 637,
      ")+": 638,
      "VAR219": 639,
      "b100": 640,
      "VAR214": 641,
      "VAR290": 642,
      "103": 643,
      "VAR211": 644,
      "VAR226": 645,
      "VAR225": 646,
      "}),": 647,
      "[((": 648,
      "VAR257": 649,
      "VAR243": 650,
      "VAR216": 651,
      "VAR263": 652,
      "hc": 653,
      "VAR209": 654,
      "buf": 655,
      "VAR231": 656,
      "04": 657,
      "VAR234": 658,
      "b011": 659,
      "].": 660,
      "ab": 661,
      "VAR213": 662,
      "VAR237": 663,
      "VAR224": 664,
      "VAR262": 665,
      "VAR235": 666,
      "VAR240": 667,
      "h0000": 668,
      "06": 669,
      "VAR233": 670,
      "h5": 671,
      "VAR221": 672,
      "VAR232": 673,
      "d8": 674,
      "VAR238": 675,
      "05": 676,
      ")?": 677,
      "VAR239": 678,
      "128": 679,
      "VAR242": 680,
      "]));": 681,
      "able": 682,
      "ri": 683,
      "h8": 684,
      "VAR246": 685,
      "VAR229": 686,
      "VAR236": 687,
      "enable": 688,
      "d9": 689,
      "VAR247": 690,
      "VAR230": 691,
      "FFFF": 692,
      "VAR244": 693,
      "VAR245": 694,
      "VAR270": 695,
      "ic": 696,
      "b001": 697,
      "log": 698,
      ")))": 699,
      "logic": 700,
      "):(": 701,
      "????????": 702,
      "VAR265": 703,
      "d10": 704,
      "VAR252": 705,
      "0001": 706,
      "\");": 707,
      "07": 708,
      "b010": 709,
      "VAR251": 710,
      "VAR253": 711,
      "VAR248": 712,
      "01": 713,
      "VAR241": 714,
      "d15": 715,
      "VAR256": 716,
      "{{": 717,
      "VAR249": 718,
      "VAR254": 719,
      "(((": 720,
      "]>>": 721,
      "]+": 722,
      "VAR278": 723,
      "46": 724,
      "VAR275": 725,
      "VAR259": 726,
      "0000000000000000000000000000000000000000000000000000000000000000": 727,
      "45": 728,
      "VAR272": 729,
      "VAR255": 730,
      "75": 731,
      "99": 732,
      "VAR283": 733,
      "66": 734,
      "VAR260": 735,
      "VAR268": 736,
      "90": 737,
      "255": 738,
      "2000": 739,
      "AAAAAAAA": 740,
      "VAR261": 741,
      "VAR264": 742,
      "*(": 743,
      "VAR291": 744,
      "h0000000000000000000000000000000000000000000000000000000000000000": 745,
      "VAR271": 746,
      "52": 747,
      "VAR277": 748,
      "VAR286": 749,
      "on": 750,
      "1100": 751,
      "08": 752,
      "49": 753,
      "@*": 754,
      "VAR273": 755,
      ")];": 756,
      "VAR299": 757,
      "VAR282": 758,
      "cti": 759,
      "VAR267": 760,
      "fun": 761,
      "ction": 762,
      "function": 763,
      "VAR269": 764,
      "77": 765,
      "VAR292": 766,
      "d12": 767,
      "VAR266": 768,
      "MODULE3": 769,
      "===": 770,
      "d16": 771,
      "0000000": 772,
      "VAR300": 773,
      "59": 774,
      "VAR285": 775,
      "(|": 776,
      "60": 777,
      "VAR284": 778,
      "VAR274": 779,
      "57": 780,
      "b1111": 781,
      "41": 782,
      "VAR302": 783,
      "d11": 784,
      "VAR279": 785,
      "VAR276": 786,
      "ar": 787,
      "var": 788,
      ")*": 789,
      "){": 790,
      "1010": 791,
      "genvar": 792,
      "VAR297": 793,
      "()": 794,
      "VAR303": 795,
      "68": 796,
      "VAR319": 797,
      "VAR313": 798,
      "VAR280": 799,
      "VAR308": 800,
      "320": 801,
      "b110": 802,
      "42": 803,
      "VAR295": 804,
      "VAR287": 805,
      "58": 806,
      "VAR289": 807,
      "b0001": 808,
      "VAR281": 809,
      "VAR293": 810,
      "ffff": 811,
      "70": 812,
      "},": 813,
      "43": 814,
      "51": 815,
      "98": 816,
      ")]": 817,
      "78": 818,
      "VAR311": 819,
      "read": 820,
      "VAR288": 821,
      "65": 822,
      "VAR306": 823,
      "69": 824,
      "11111111": 825,
      "VAR320": 826,
      "53": 827,
      "val": 828,
      "id": 829,
      "wri": 830,
      "write": 831,
      "valid": 832,
      "b00000": 833,
      "54": 834,
      "VAR323": 835,
      "VAR294": 836,
      "VAR309": 837,
      "req": 838,
      "VAR301": 839,
      "62": 840,
      "VAR335": 841,
      "VAR296": 842,
      "67": 843,
      "b1000": 844,
      "VAR310": 845,
      "sele": 846,
      "select": 847,
      "92": 848,
      "d14": 849,
      "VAR298": 850,
      "sel": 851,
      "b0100": 852,
      "97": 853,
      "VAR332": 854,
      "hb": 855,
      "VAR317": 856,
      "VAR359": 857,
      "b111": 858,
      "VAR305": 859,
      "h000000000000": 860,
      "hf": 861,
      "001": 862,
      ",\\": 863,
      "b0011": 864,
      "d13": 865,
      "VAR316": 866,
      ")||": 867,
      "fs": 868,
      "fsm": 869,
      "MODULE5": 870,
      "b101": 871,
      "VAR325": 872,
      "VAR307": 873,
      "})": 874,
      "VAR314": 875,
      "93": 876,
      "b0010": 877,
      "]&": 878,
      "VAR304": 879,
      "~((": 880,
      "VAR322": 881,
      "VAR318": 882,
      "VAR327": 883,
      "VAR315": 884,
      "VAR328": 885,
      "MODULE4": 886,
      "VAR312": 887,
      ".\\": 888,
      "hF": 889,
      "74": 890,
      "<=#": 891,
      "VAR351": 892,
      "VAR321": 893,
      "VAR345": 894,
      "03": 895,
      "VAR334": 896,
      "84": 897,
      "])),": 898,
      "VAR329": 899,
      "VAR326": 900,
      "c5": 901,
      "VAR372": 902,
      "xor": 903,
      "]},": 904,
      "}:": 905,
      "sum": 906,
      "wr": 907,
      "VAR349": 908,
      "rd": 909,
      "]-": 910,
      "02": 911,
      "82": 912,
      ")&&": 913,
      "91": 914,
      "VAR343": 915,
      "*)": 916,
      "h000": 917,
      "]}),": 918,
      "VAR340": 919,
      "VAR331": 920,
      "b0110": 921,
      "VAR337": 922,
      "VAR324": 923,
      "h0000000000000000": 924,
      "VAR330": 925,
      "b111111": 926,
      "h3F": 927,
      "b1100": 928,
      "]))": 929,
      "94": 930,
      "1001": 931,
      "h10": 932,
      "tri": 933,
      "VAR341": 934,
      "b000000": 935,
      "85": 936,
      "VAR336": 937,
      "VAR346": 938,
      "83": 939,
      "VAR333": 940,
      "VAR344": 941,
      "VAR338": 942,
      "81": 943,
      "89": 944,
      "73": 945,
      "hFF": 946,
      "VAR371": 947,
      "VAR339": 948,
      "VAR347": 949,
      "1000": 950,
      ")));": 951,
      "endfunction": 952,
      "d20": 953,
      "b0000000000000000": 954,
      "h9": 955,
      "());": 956,
      "108": 957,
      ")||(": 958,
      "VAR342": 959,
      "VAR354": 960,
      "\"))": 961,
      "511": 962,
      "]|": 963,
      "c5c5": 964,
      "]}}": 965,
      "VAR356": 966,
      "86": 967,
      "VAR370": 968,
      "nand": 969,
      "={": 970,
      "004": 971,
      "b00011": 972,
      "VAR360": 973,
      "VAR350": 974,
      "VAR353": 975,
      "he": 976,
      "+~": 977,
      "VAR348": 978,
      "VAR362": 979,
      "(\"'": 980,
      "1023": 981,
      "@(*)": 982,
      "VAR357": 983,
      "<<(": 984,
      ":(": 985,
      "b01111": 986,
      "ir": 987,
      "irq": 988,
      "d24": 989,
      "b0101": 990,
      "ac": 991,
      "tas": 992,
      "task": 993,
      "VAR355": 994,
      "VAR358": 995,
      "1011": 996,
      "-(": 997,
      "nor": 998,
      "VAR388": 999,
      "VAR386": 1000,
      "FFFFFFFF": 1001,
      "(\",": 1002,
      "125": 1003,
      "VAR368": 1004,
      "VAR363": 1005,
      "VAR352": 1006,
      "VAR361": 1007,
      "VAR375": 1008,
      "????????????????": 1009,
      "VAR384": 1010,
      "ha": 1011,
      "200": 1012,
      "\"\";": 1013,
      "h01": 1014,
      "hff": 1015,
      "d31": 1016,
      "VAR366": 1017,
      "VAR365": 1018,
      "d25": 1019,
      "]<=~": 1020,
      "}}),": 1021,
      "102": 1022,
      "VAR364": 1023,
      "b00001": 1024,
      ")),": 1025,
      "h20": 1026,
      "ready": 1027,
      "VAR387": 1028,
      "5555": 1029,
      "VAR367": 1030,
      "d18": 1031,
      "VAR374": 1032,
      "('": 1033,
      "107": 1034,
      "]:": 1035,
      "105": 1036,
      "VAR377": 1037,
      "h000000000000000000000000": 1038,
      "d23": 1039,
      "VAR373": 1040,
      "b1011": 1041,
      ")+:": 1042,
      "b1110": 1043,
      "(&": 1044,
      "><": 1045,
      "106": 1046,
      "h3f": 1047,
      "AAAAAAAAAAAAAAAA": 1048,
      "**": 1049,
      "116": 1050,
      "VAR378": 1051,
      "121": 1052,
      "|(": 1053,
      "124": 1054,
      "113": 1055,
      "114": 1056,
      "VAR369": 1057,
      "109": 1058,
      "115": 1059,
      "VAR380": 1060,
      "er": 1061,
      "h40": 1062,
      "]),.": 1063,
      "+(": 1064,
      "117": 1065,
      "b1001": 1066,
      "123": 1067,
      "VAR382": 1068,
      "hA": 1069,
      "hC": 1070,
      "b0111": 1071,
      "b01100": 1072,
      "]})": 1073,
      "VAR376": 1074,
      "b1010": 1075,
      "?:": 1076,
      "h18": 1077,
      "b11000": 1078,
      "d17": 1079,
      "((!": 1080,
      "ack": 1081,
      "b00100": 1082,
      "d30": 1083,
      "!(": 1084,
      "VAR402": 1085,
      "VAR385": 1086,
      "ru": 1087,
      "]]": 1088,
      "122": 1089,
      "VAR397": 1090,
      "]];": 1091,
      "b00000001": 1092,
      "1101": 1093,
      "09": 1094,
      "ea": 1095,
      "BFF": 1096,
      "d19": 1097,
      "h0000000000004": 1098,
      "hB": 1099,
      "VAR395": 1100,
      "b10000": 1101,
      "VAR400": 1102,
      "118": 1103,
      "VAR392": 1104,
      "h02": 1105,
      "VAR379": 1106,
      "h000000000000BFF": 1107,
      "126": 1108,
      "VAR401": 1109,
      "VAR403": 1110,
      "VAR424": 1111,
      "VAR389": 1112,
      "VAR394": 1113,
      "d32": 1114,
      "VAR393": 1115,
      "VAR407": 1116,
      "VAR381": 1117,
      "casex": 1118,
      "0x": 1119,
      "h08": 1120,
      "h04": 1121,
      "hE": 1122,
      "b001111": 1123,
      "b00011000": 1124,
      "VAR412": 1125,
      "h80": 1126,
      "016": 1127,
      "b000001": 1128,
      "hffff": 1129,
      ")(": 1130,
      "199": 1131,
      "VAR383": 1132,
      "VAR398": 1133,
      "VAR390": 1134,
      ")&&(": 1135,
      "=(": 1136,
      "512": 1137,
      ")}}": 1138,
      "1024": 1139,
      "135": 1140,
      "VAR391": 1141,
      "]}};": 1142,
      "h30": 1143,
      "h03": 1144,
      "1110": 1145,
      "h00000": 1146,
      "VAR396": 1147,
      "h000000": 1148,
      "VAR399": 1149,
      "VAR415": 1150,
      "tri1": 1151,
      "h11": 1152,
      "b1101": 1153,
      "{~": 1154,
      "015": 1155,
      "129": 1156,
      "h14": 1157,
      "])?": 1158,
      "131": 1159,
      "VAR408": 1160,
      "hbf": 1161,
      "144": 1162,
      "003": 1163,
      "();": 1164,
      "138": 1165,
      "192": 1166,
      "132": 1167,
      "00001": 1168,
      "]+(": 1169,
      "VAR411": 1170,
      "VAR404": 1171,
      "VAR405": 1172,
      "VAR417": 1173,
      "133": 1174,
      "143": 1175,
      "VAR409": 1176,
      "6363": 1177,
      "b00010": 1178,
      "tri0": 1179,
      "024": 1180,
      "VAR406": 1181,
      "hD": 1182,
      "d21": 1183,
      "d28": 1184,
      "d26": 1185,
      "d27": 1186,
      "136": 1187,
      "VAR420": 1188,
      "b0000000": 1189,
      "017": 1190,
      "h12": 1191,
      "191": 1192,
      "h42": 1193,
      "(~(": 1194,
      "MODULE6": 1195,
      "207": 1196,
      "h15": 1197,
      "h17": 1198,
      "VAR410": 1199,
      "h06": 1200,
      "d40": 1201,
      "d22": 1202,
      "c5c5c5c5": 1203,
      "h16": 1204,
      "b11111111": 1205,
      "((~": 1206,
      "is": 1207,
      "]<<": 1208,
      "]?": 1209,
      "VAR416": 1210,
      "endtask": 1211,
      "018": 1212,
      "d29": 1213,
      "-:": 1214,
      "159": 1215,
      "VAR423": 1216,
      "130": 1217,
      "VAR413": 1218,
      "['": 1219,
      "h07": 1220,
      ")/": 1221,
      "032": 1222,
      "137": 1223,
      "casez": 1224,
      "!==": 1225,
      "1022": 1226,
      "inter": 1227,
      "b000000001": 1228,
      "b11000110": 1229,
      "227": 1230,
      "b00110": 1231,
      "h05": 1232,
      "h3F8": 1233,
      "((((": 1234,
      "))||": 1235,
      "hd": 1236,
      "pt": 1237,
      "rupt": 1238,
      "interrupt": 1239,
      "me": 1240,
      "VAR414": 1241,
      "b01000": 1242,
      "048": 1243,
      "047": 1244,
      "040": 1245,
      "hFFFF": 1246,
      "VAR418": 1247,
      "025": 1248,
      "050": 1249,
      "027": 1250,
      "500": 1251,
      "rt": 1252,
      "160": 1253,
      "))))": 1254,
      "080": 1255,
      "206": 1256,
      "031": 1257,
      "355": 1258,
      "028": 1259,
      "056": 1260,
      "real": 1261,
      "~|": 1262,
      "b1111111111": 1263,
      "??????": 1264,
      "h1f": 1265,
      "030": 1266,
      "CC": 1267,
      "11001": 1268,
      "}})": 1269,
      "ffer": 1270,
      "buffer": 1271,
      "{{(": 1272,
      "h09": 1273,
      "h13": 1274,
      "000000000": 1275,
      "039": 1276,
      "11011": 1277,
      "wea": 1278,
      "weak": 1279,
      "regis": 1280,
      "register": 1281,
      "h19": 1282,
      "be": 1283,
      "ty": 1284,
      "VAR422": 1285,
      "false": 1286,
      "o16": 1287,
      "d63": 1288,
      "11110": 1289,
      "023": 1290,
      "014": 1291,
      "VAR419": 1292,
      "055": 1293,
      "asse": 1294,
      "assert": 1295,
      "0004": 1296,
      "035": 1297,
      "139": 1298,
      "10011": 1299,
      "000001": 1300,
      "hc2": 1301,
      "VAR429": 1302,
      "10010": 1303,
      "VAR426": 1304,
      "0002": 1305,
      "VAR433": 1306,
      "036": 1307,
      "))-": 1308,
      "55555555": 1309,
      "FE": 1310,
      "b01100110": 1311,
      "026": 1312,
      "h24": 1313,
      "064": 1314,
      "h0f": 1315,
      "038": 1316,
      "000011": 1317,
      "VAR427": 1318,
      "029": 1319,
      "d39": 1320,
      "h38": 1321,
      "690": 1322,
      "ry": 1323,
      "mory": 1324,
      "b0000001": 1325,
      "memory": 1326,
      "b11111": 1327,
      "--": 1328,
      ")\")": 1329,
      "b10000000": 1330,
      "226": 1331,
      ")&&((": 1332,
      "d48": 1333,
      "pos": 1334,
      "134": 1335,
      "329": 1336,
      "224": 1337,
      "h1c": 1338,
      "0d": 1339,
      "h0000000000004000": 1340,
      "152": 1341,
      "VAR425": 1342,
      "h0000000000004004": 1343,
      "020": 1344,
      "e8": 1345,
      "063": 1346,
      "100000": 1347,
      "CE": 1348,
      "0003": 1349,
      "349": 1350,
      "h000000000000BFF8": 1351,
      "h000000000000BFFC": 1352,
      "h22": 1353,
      "h23": 1354,
      "111111": 1355,
      "d50": 1356,
      "MODULE7": 1357,
      "))),": 1358,
      "&~": 1359,
      "b11000000": 1360,
      "VAR428": 1361,
      "b001000": 1362,
      "11111": 1363,
      "223": 1364,
      "VAR437": 1365,
      "))||((": 1366,
      "155": 1367,
      "6664": 1368,
      "VAR446": 1369,
      "383": 1370,
      "h000000000000000": 1371,
      "],~": 1372,
      "VAR434": 1373,
      "0000000000": 1374,
      "044": 1375,
      "1550": 1376,
      "o1": 1377,
      "VAR447": 1378,
      "h0000000000000004": 1379,
      "d64": 1380,
      "wor": 1381,
      "240": 1382,
      "149": 1383,
      "nc": 1384,
      "ync": 1385,
      "h0e": 1386,
      "MODULE8": 1387,
      "VAR432": 1388,
      "381550": 1389,
      "089": 1390,
      "d16690": 1391,
      "3556664": 1392,
      "3815503556664": 1393,
      "d166903815503556664": 1394,
      "d166903815503556664320": 1395,
      "b10001": 1396,
      "b00000000000000000000000000000000": 1397,
      "VAR436": 1398,
      ")]),": 1399,
      "168": 1400,
      "VAR421": 1401,
      "h3e": 1402,
      "175": 1403,
      "(\"%": 1404,
      "033": 1405,
      "VAR440": 1406,
      "198": 1407,
      "b100000": 1408,
      "ull": 1409,
      "word": 1410,
      "037": 1411,
      "000000000000": 1412,
      "[{": 1413,
      "EE": 1414,
      "h32": 1415,
      "]}})": 1416,
      "800": 1417,
      "sync": 1418,
      "180": 1419,
      "b01110": 1420,
      "==\"": 1421,
      "hFFFFFFFF": 1422,
      "});": 1423,
      "h0c": 1424,
      "11010": 1425,
      "VAR458": 1426,
      "b00111": 1427,
      "o2": 1428,
      "h0F": 1429,
      "b000000000000": 1430,
      "h28": 1431,
      "034": 1432,
      "ag": 1433,
      "fl": 1434,
      "flag": 1435,
      "==(": 1436,
      "h3C": 1437,
      "150": 1438,
      "b00001100": 1439,
      "480": 1440,
      "ef": 1441,
      "b11100": 1442,
      "010": 1443,
      "do": 1444,
      "b01100000": 1445,
      "h8000": 1446,
      "00000000000": 1447,
      "h39": 1448,
      "384": 1449,
      "h31": 1450,
      "147": 1451,
      "VAR430": 1452,
      "239": 1453,
      "h1a": 1454,
      "151": 1455,
      "00011": 1456,
      "00010": 1457,
      "~(|": 1458,
      "]!=": 1459,
      "208": 1460,
      "VAR431": 1461,
      "VAR445": 1462,
      "h1b": 1463,
      "h55": 1464,
      "ro": 1465,
      "156": 1466,
      "b01010": 1467,
      "232": 1468,
      "FFF": 1469,
      "~(((": 1470,
      ",\"": 1471,
      "d36": 1472,
      "0000001": 1473,
      "VAR435": 1474,
      "pro": 1475,
      "h36": 1476,
      "h1e": 1477,
      "!(!": 1478,
      "300": 1479,
      "h0a": 1480,
      "h27": 1481,
      ",{": 1482,
      "140": 1483,
      ">>>": 1484,
      "184": 1485,
      "b10100": 1486,
      "VAR443": 1487,
      "}));": 1488,
      "b10010": 1489,
      "009": 1490,
      "h21": 1491,
      "154": 1492,
      "0000000000000": 1493,
      "h2f": 1494,
      "VAR438": 1495,
      "194": 1496,
      "h41": 1497,
      "878": 1498,
      "(*)": 1499,
      "VAR439": 1500,
      "h0A": 1501,
      "]}==": 1502,
      "190": 1503,
      "163": 1504,
      "179": 1505,
      "b00000110": 1506,
      "h26": 1507,
      "165": 1508,
      "VAR454": 1509,
      "hFFF": 1510,
      "o3": 1511,
      "={{": 1512,
      "142": 1513,
      "it": 1514,
      "222": 1515,
      "='": 1516,
      "=~": 1517,
      "166": 1518,
      "b00000011": 1519,
      "hffffffff": 1520,
      "d255": 1521,
      "193": 1522,
      "d38": 1523,
      "!(|": 1524,
      "pe": 1525,
      "))?": 1526,
      "b0000000000": 1527,
      "({\\": 1528,
      "63636363": 1529,
      "d47": 1530,
      "008": 1531,
      "VAR442": 1532,
      "203": 1533,
      "c7": 1534,
      "h25": 1535,
      "218": 1536,
      "10000": 1537,
      "VAR451": 1538,
      "d34": 1539,
      "bf": 1540,
      "per": 1541,
      "202": 1542,
      "proper": 1543,
      "property": 1544,
      "167": 1545,
      "VAR452": 1546,
      "h34": 1547,
      "b000100": 1548,
      "c6": 1549,
      "o0": 1550,
      "176": 1551,
      ",~": 1552,
      "216": 1553,
      "b000000100": 1554,
      "++": 1555,
      "b4": 1556,
      "148": 1557,
      "h3A": 1558,
      "h001": 1559,
      "637": 1560,
      "d9227": 1561,
      "????????????????????????????????": 1562,
      "427": 1563,
      "AAAAAAAAAAAAAAAAAAAAAAAAAAAAAAAA": 1564,
      "VAR444": 1565,
      "172": 1566,
      "MODULE9": 1567,
      "640": 1568,
      "b00110000": 1569,
      "b10011": 1570,
      "h3E": 1571,
      "lay": 1572,
      "005": 1573,
      "&(": 1574,
      "0C": 1575,
      "tru": 1576,
      "177": 1577,
      "true": 1578,
      "169": 1579,
      "145": 1580,
      "352": 1581,
      "164": 1582,
      "204": 1583,
      "205": 1584,
      "197": 1585,
      "b00111100": 1586,
      "ba": 1587,
      "141": 1588,
      "h29": 1589,
      "161": 1590,
      "237": 1591,
      "h100": 1592,
      "4096": 1593,
      "b10110": 1594,
      "00000000000000": 1595,
      "b01011": 1596,
      "186": 1597,
      "187": 1598,
      "delay": 1599,
      "weak1": 1600,
      "229": 1601,
      "bc": 1602,
      "({(": 1603,
      "153": 1604,
      "!=\"": 1605,
      "228": 1606,
      "7744": 1607,
      "b9": 1608,
      "h3D": 1609,
      "287": 1610,
      "]-(": 1611,
      "VAR449": 1612,
      "000000000000000000000": 1613,
      "2571": 1614,
      "h3B": 1615,
      "++)": 1616,
      "24089": 1617,
      "55329": 1618,
      "d35": 1619,
      "d922755329": 1620,
      "774424089": 1621,
      "d922755329774424089": 1622,
      "d9227553297744240892571": 1623,
      "231": 1624,
      "hi": 1625,
      "hAAAAAAAA": 1626,
      "whi": 1627,
      "b11110": 1628,
      "171": 1629,
      "d37": 1630,
      "while": 1631,
      "002": 1632,
      "162": 1633,
      "aa": 1634,
      "ue": 1635,
      "007": 1636,
      "158": 1637,
      "con": 1638,
      ")):": 1639,
      "d56": 1640,
      "<=(": 1641,
      "250": 1642,
      "157": 1643,
      "MODULE10": 1644,
      "2047": 1645,
      "b01111100": 1646,
      "VAR464": 1647,
      "174": 1648,
      "h0000000": 1649,
      "195": 1650,
      "null": 1651,
      "???": 1652,
      "b00101": 1653,
      "0h": 1654,
      "h44": 1655,
      "b000010": 1656,
      "c5c5c5c5c5c5c5c5": 1657,
      "079": 1658,
      "h0C": 1659,
      "146": 1660,
      "h33": 1661,
      "1111111111111111": 1662,
      "h3F7": 1663,
      "201": 1664,
      "188": 1665,
      "d128": 1666,
      "170": 1667,
      "??:": 1668,
      "225": 1669,
      "o4": 1670,
      "178": 1671,
      "479": 1672,
      "hAA": 1673,
      "b100000000": 1674,
      "183": 1675,
      "211": 1676,
      "&&(": 1677,
      "181": 1678,
      "}==": 1679,
      "VAR448": 1680,
      "]});": 1681,
      "d80": 1682,
      "b010000": 1683,
      "(@(": 1684,
      "d88": 1685,
      "fc": 1686,
      "],!": 1687,
      "215": 1688,
      "VAR441": 1689,
      "011": 1690,
      "2500": 1691,
      "EC": 1692,
      "247": 1693,
      ")?(": 1694,
      "101010": 1695,
      ")|": 1696,
      "012": 1697,
      "VAR453": 1698,
      "h64": 1699,
      "209": 1700,
      "076": 1701,
      "210": 1702,
      "319": 1703,
      "182": 1704,
      "288": 1705,
      "fe": 1706,
      "111100": 1707,
      "xt": 1708,
      "VAR457": 1709,
      "h2000": 1710,
      "h60": 1711,
      "mu": 1712,
      "173": 1713,
      "mux": 1714,
      "236": 1715,
      "h37": 1716,
      "h1d": 1717,
      "233": 1718,
      "189": 1719,
      "221": 1720,
      "196": 1721,
      "351": 1722,
      "FFFFFFFFFFFFFFFF": 1723,
      "b8": 1724,
      "h50": 1725,
      "o5": 1726,
      "o6": 1727,
      "b1000000": 1728,
      "(~|": 1729,
      "1B": 1730,
      "B9": 1731,
      "b001100": 1732,
      "CA": 1733,
      "VAR450": 1734,
      "h0D": 1735,
      "212": 1736,
      "080x": 1737,
      "text": 1738,
      "h3c": 1739,
      "065": 1740,
      "context": 1741,
      "244": 1742,
      "(!(": 1743,
      "dc": 1744,
      "o32": 1745,
      "VAR455": 1746,
      "248": 1747,
      "???:": 1748,
      "b11111110": 1749,
      "h1000": 1750,
      "b00000010": 1751,
      "A8": 1752,
      "h76": 1753,
      "b001000000": 1754,
      "reque": 1755,
      "request": 1756,
      "h0001": 1757,
      "006": 1758,
      "h35": 1759,
      "b01001": 1760,
      "312": 1761,
      "VAR465": 1762,
      "h78": 1763,
      "062": 1764,
      "b10101": 1765,
      "gv": 1766,
      "rgv": 1767,
      "h0b": 1768,
      "d33": 1769,
      "h7c": 1770,
      "344": 1771,
      "..": 1772,
      "h79": 1773,
      "400": 1774,
      "243": 1775,
      "hbe": 1776,
      "415": 1777,
      "]][": 1778,
      "185": 1779,
      "VAR456": 1780,
      "h4000": 1781,
      "h7f": 1782,
      "h3F80000": 1783,
      "h400000": 1784,
      "b11010": 1785,
      "100000000": 1786,
      "b11000011": 1787,
      "CF": 1788,
      "VAR473": 1789,
      "weak0": 1790,
      "h0E": 1791,
      "230": 1792,
      "h1F": 1793,
      "219": 1794,
      "b0000000001": 1795,
      "bufif": 1796,
      "217": 1797,
      "MODULE12": 1798,
      "h1C": 1799,
      "ffffffff": 1800,
      "220": 1801,
      "o7": 1802,
      "253": 1803,
      "fff": 1804,
      "h2a": 1805,
      "h002": 1806,
      "0619": 1807,
      ")]};": 1808,
      "280": 1809,
      "252": 1810,
      "213": 1811,
      "?(": 1812,
      "246": 1813,
      "238": 1814,
      ")+(": 1815,
      "b00010000": 1816,
      "DD": 1817,
      "h0B": 1818,
      "h6c": 1819,
      "088": 1820,
      "249": 1821,
      "h100000": 1822,
      "h2e": 1823,
      "h86": 1824,
      "hFD": 1825,
      "h47": 1826,
      "234": 1827,
      "h66": 1828,
      "1000000": 1829,
      "d55": 1830,
      "alu": 1831,
      "MODULE11": 1832,
      "h3a": 1833,
      "359": 1834,
      "----": 1835,
      "d96": 1836,
      "b110000": 1837,
      "b1111111": 1838,
      "214": 1839,
      "VAR460": 1840,
      "h4a": 1841,
      "h80000": 1842,
      ")>>": 1843,
      "235": 1844,
      "h2c": 1845,
      "b11001100": 1846,
      "b010000000": 1847,
      "hcc": 1848,
      "h48": 1849,
      "h69": 1850,
      "(\"\\": 1851,
      "b11011": 1852,
      "b01101": 1853,
      "3a": 1854,
      "db": 1855,
      "h20000": 1856,
      "5555555555555555": 1857,
      "E0": 1858,
      "110110": 1859,
      "768": 1860,
      "])};": 1861,
      "b0000000000000": 1862,
      "333": 1863,
      "0c": 1864,
      "h1000000": 1865,
      "416": 1866,
      "h10000": 1867,
      ")&": 1868,
      "b000000000": 1869,
      "hde": 1870,
      "ne": 1871,
      "245": 1872,
      "b00000000001": 1873,
      "d127": 1874,
      "h72": 1875,
      "303": 1876,
      "d15637": 1877,
      "d1563795": 1878,
      "b10111": 1879,
      "]&&": 1880,
      "h63": 1881,
      "254": 1882,
      "b11001": 1883,
      "272": 1884,
      "????:": 1885,
      "338": 1886,
      "84383": 1887,
      "3490619": 1888,
      "8783490619": 1889,
      "d156379584383": 1890,
      "d1563795843838783490619": 1891,
      "d97": 1892,
      ")],": 1893,
      "251": 1894,
      "409": 1895,
      "d60": 1896,
      "EF": 1897,
      "242": 1898,
      "2048": 1899,
      "278": 1900,
      "b2": 1901,
      "VAR462": 1902,
      "404": 1903,
      "241": 1904,
      "337": 1905,
      "b0010000": 1906,
      "\":": 1907,
      "VAR459": 1908,
      "277": 1909,
      "h2000000": 1910,
      "head": 1911,
      "364": 1912,
      "448": 1913,
      "h65": 1914,
      ":%": 1915,
      "bb": 1916,
      "ce": 1917,
      "b000000000001": 1918,
      "?????:": 1919,
      "h7e": 1920,
      "b00000100": 1921,
      "095": 1922,
      "d79": 1923,
      "h0d": 1924,
      "372": 1925,
      "}\");": 1926,
      "1110000": 1927,
      "360": 1928,
      "h70": 1929,
      "DB": 1930,
      "~{": 1931,
      "0090": 1932,
      "h43": 1933,
      "h200": 1934,
      "((~(": 1935,
      "h200000": 1936,
      "h7a": 1937,
      "b0001000": 1938,
      "hFE": 1939,
      "655": 1940,
      "368": 1941,
      "h800000": 1942,
      "096": 1943,
      "]),!(!": 1944,
      "297": 1945,
      "]&~": 1946,
      "hAAAAAAAAAAAAAAAA": 1947,
      "o11": 1948,
      "324": 1949,
      "408": 1950,
      "447": 1951,
      "DE": 1952,
      "h1B": 1953,
      "350": 1954,
      "354": 1955,
      "363": 1956,
      "h56": 1957,
      "h1A": 1958,
      "h4c": 1959,
      "673": 1960,
      "<='": 1961,
      "(({": 1962,
      "h49": 1963,
      "h40000": 1964,
      "045": 1965,
      "e5": 1966,
      "100100": 1967,
      "289": 1968,
      "h59": 1969,
      "<={": 1970,
      "VAR461": 1971,
      "b00100000": 1972,
      "d95": 1973,
      "b001010": 1974,
      "]={{": 1975,
      "b01000000": 1976,
      "h45": 1977,
      "304": 1978,
      "308": 1979,
      "h2b": 1980,
      "444": 1981,
      "667": 1982,
      "b01101100": 1983,
      "263": 1984,
      "o10": 1985,
      "b000001000": 1986,
      "0546": 1987,
      "b0000010": 1988,
      "h3f7": 1989,
      "0150": 1990,
      "h61": 1991,
      "276": 1992,
      "356": 1993,
      "635": 1994,
      "h400": 1995,
      "0163": 1996,
      "bit": 1997,
      "258": 1998,
      "357": 1999,
      "rio": 2000,
      "C0": 2001,
      "d00": 2002,
      "323": 2003,
      "b00001000": 2004,
      "375": 2005,
      "???????:": 2006,
      "0CO": 2007,
      "264": 2008,
      "da": 2009,
      "405": 2010,
      "b000010000": 2011,
      "450": 2012,
      "b101010": 2013,
      "268": 2014,
      "h1E": 2015,
      "]}});": 2016,
      "090": 2017,
      "340": 2018,
      "d178": 2019,
      "b11101": 2020,
      "069": 2021,
      "b0010010": 2022,
      "hbf7": 2023,
      "VAR491": 2024,
      "?????": 2025,
      "336": 2026,
      "377": 2027,
      "perio": 2028,
      "period": 2029,
      "376": 2030,
      "ref": 2031,
      "326": 2032,
      "345": 2033,
      "(^": 2034,
      "380": 2035,
      "])))": 2036,
      "df": 2037,
      "ec": 2038,
      "310": 2039,
      "b100011": 2040,
      "0x0CO": 2041,
      "0000000000000000000000": 2042,
      "306": 2043,
      "b101001": 2044,
      "IT": 2045,
      "313": 2046,
      "318": 2047,
      "h800": 2048,
      ":'": 2049,
      "F0": 2050,
      "o12": 2051,
      "o14": 2052,
      "}});": 2053,
      "h46": 2054,
      "h74": 2055,
      "&(~": 2056,
      "cc": 2057,
      "~^": 2058,
      "328": 2059,
      "484": 2060,
      "407": 2061,
      "260": 2062,
      "h54": 2063,
      ")&&(!": 2064,
      "1C": 2065,
      "h00000000000000000000000000000000": 2066,
      "o13": 2067,
      "b00000000000000": 2068,
      "269": 2069,
      "d41": 2070,
      "h6f": 2071,
      "0568": 2072,
      "(?": 2073,
      "+(!": 2074,
      "ver": 2075,
      "10100": 2076,
      "309": 2077,
      "270": 2078,
      "b000011": 2079,
      "369": 2080,
      "h75": 2081,
      "]?(": 2082,
      "h71": 2083,
      "VAR467": 2084,
      "111000": 2085,
      "266": 2086,
      "7777": 2087,
      "ee": 2088,
      "325": 2089,
      "259": 2090,
      ")|(": 2091,
      "327": 2092,
      "MODULE13": 2093,
      "(((!": 2094,
      "VAR463": 2095,
      "257": 2096,
      "d42": 2097,
      "505": 2098,
      "b000000010": 2099,
      "d76": 2100,
      "805": 2101,
      "475": 2102,
      "271": 2103,
      "b101011": 2104,
      "]}:": 2105,
      "h84": 2106,
      "b00000111": 2107,
      "type": 2108,
      "CE01": 2109,
      "b00111000": 2110,
      "TC": 2111,
      "h88": 2112,
      "367": 2113,
      "342": 2114,
      "395": 2115,
      "[%": 2116,
      "315": 2117,
      "321": 2118,
      "265": 2119,
      "h68": 2120,
      "h73": 2121,
      "/(": 2122,
      "AB": 2123,
      "0038": 2124,
      "403": 2125,
      "b0100000": 2126,
      "h5c": 2127,
      "h5f": 2128,
      "7500": 2129,
      "bufif1": 2130,
      ")%": 2131,
      "347": 2132,
      "339": 2133,
      "VAR478": 2134,
      "365": 2135,
      "1010000": 2136,
      "cover": 2137,
      "h58": 2138,
      "078": 2139,
      "-;": 2140,
      "087": 2141,
      ":((": 2142,
      "a3": 2143,
      "MODULE14": 2144,
      "639": 2145,
      "1423": 2146,
      "305": 2147,
      "294": 2148,
      "h4000000": 2149,
      "d782": 2150,
      "b100100": 2151,
      "316": 2152,
      "b001001": 2153,
      "h67": 2154,
      "067": 2155,
      "464": 2156,
      "VAR472": 2157,
      "h3b": 2158,
      "358": 2159,
      "(|(": 2160,
      ")};": 2161,
      "332": 2162,
      "NCA": 2163,
      "d72": 2164,
      "o15": 2165,
      "VAR469": 2166,
      "h77": 2167,
      "h00000001": 2168,
      "b111110": 2169,
      "NCAT": 2170,
      "({{": 2171,
      "275": 2172,
      "4095": 2173,
      "h4f": 2174,
      "??????:": 2175,
      "348": 2176,
      "pri": 2177,
      "314": 2178,
      "646": 2179,
      "VAR470": 2180,
      "261": 2181,
      "346": 2182,
      "b000100000": 2183,
      "h3F800000": 2184,
      "0f": 2185,
      "296": 2186,
      "295": 2187,
      "299": 2188,
      "d46": 2189,
      "d87": 2190,
      "307": 2191,
      "262": 2192,
      "b000110": 2193,
      "343": 2194,
      "b0110000": 2195,
      "417": 2196,
      "110000": 2197,
      "20511": 2198,
      "302": 2199,
      "b101111": 2200,
      "398": 2201,
      "291": 2202,
      "293": 2203,
      "d44": 2204,
      "046": 2205,
      "h81": 2206,
      "465": 2207,
      "64673": 2208,
      "279": 2209,
      "b0000100": 2210,
      "392": 2211,
      "441": 2212,
      "h57": 2213,
      "058": 2214,
      "5220511": 2215,
      "b11110000": 2216,
      "hfe": 2217,
      "6363636363636363": 2218,
      "42764673": 2219,
      "1BIT": 2220,
      "rgv1BIT": 2221,
      "0x0CONCAT": 2222,
      "14235220511": 2223,
      "d78214235220511": 2224,
      "d7821423522051142764673": 2225,
      "361": 2226,
      "}]": 2227,
      "VAR481": 2228,
      "b001101": 2229,
      "d59": 2230,
      "d67": 2231,
      "h5a": 2232,
      "099": 2233,
      "o20": 2234,
      "<=~": 2235,
      "317": 2236,
      "b00001111": 2237,
      "389": 2238,
      "d65": 2239,
      "h52": 2240,
      "459": 2241,
      "DC": 2242,
      "o30": 2243,
      "MODULE15": 2244,
      ")))))": 2245,
      "000100": 2246,
      "808": 2247,
      "301": 2248,
      "406": 2249,
      "267": 2250,
      "382": 2251,
      "h6a": 2252,
      "b11100000": 2253,
      "e6": 2254,
      "o21": 2255,
      "385": 2256,
      "d68": 2257,
      "A820": 2258,
      "hFD75": 2259,
      "600": 2260,
      "=%": 2261,
      "31EC": 2262,
      "MODULE16": 2263,
      "none": 2264,
      "110011": 2265,
      "h3F800004": 2266,
      "335": 2267,
      "423": 2268,
      "1152": 2269,
      "64A820": 2270,
      "d43": 2271,
      "h2C": 2272,
      "B931EC": 2273,
      "hFD75B931EC": 2274,
      "hFD75B931EC64A820": 2275,
      "2X": 2276,
      "E000": 2277,
      "VAR480": 2278,
      "d147": 2279,
      "d197": 2280,
      "||(": 2281,
      "390": 2282,
      "h62": 2283,
      "h7b": 2284,
      "070": 2285,
      "b0000000000000001": 2286,
      "D4": 2287,
      "d45": 2288,
      "d49": 2289,
      "370": 2290,
      "458": 2291,
      "072": 2292,
      "311": 2293,
      "BF": 2294,
      "D6": 2295,
      "VAR476": 2296,
      "286": 2297,
      "290": 2298,
      "298": 2299,
      "353": 2300,
      "h53": 2301,
      "00010001": 2302,
      "098": 2303,
      "440": 2304,
      "o22": 2305,
      "80x": 2306,
      "274": 2307,
      "041": 2308,
      "d83": 2309,
      "331": 2310,
      "ETC": 2311,
      "d256": 2312,
      "e9": 2313,
      "}))": 2314,
      "322": 2315,
      "283": 2316,
      "3333": 2317,
      "366": 2318,
      "110010": 2319,
      "10101010": 2320,
      "b01111110": 2321,
      ")\",": 2322,
      ")>>>": 2323,
      "C6": 2324,
      "VAR474": 2325,
      "391": 2326,
      "284": 2327,
      "h1D": 2328,
      "d51": 2329,
      "d52": 2330,
      "060": 2331,
      "h51": 2332,
      "999": 2333,
      "b00000101": 2334,
      "hBA": 2335,
      "CCC": 2336,
      "396": 2337,
      "496": 2338,
      "426": 2339,
      "o25": 2340,
      "o26": 2341,
      "VAR475": 2342,
      "477": 2343,
      "281": 2344,
      "285": 2345,
      "hFFFFF": 2346,
      "h1f1": 2347,
      "hdead": 2348,
      "A5": 2349,
      "B8": 2350,
      "807": 2351,
      "d73": 2352,
      "d75": 2353,
      "h0e0": 2354,
      "o24": 2355,
      "o23": 2356,
      "o17": 2357,
      "o27": 2358,
      "!((": 2359,
      "f8": 2360,
      "o31": 2361,
      "VAR471": 2362,
      "282": 2363,
      "767": 2364,
      "334": 2365,
      "386": 2366,
      "b100101": 2367,
      "h83": 2368,
      "084": 2369,
      "b000000000000000000000000": 2370,
      "01280x": 2371,
      "\")))": 2372,
      "f7": 2373,
      "pu": 2374,
      "b000101": 2375,
      "445": 2376,
      "pulse": 2377,
      "013": 2378,
      ":-": 2379,
      "EB": 2380,
      "b5": 2381,
      "485": 2382,
      "393": 2383,
      "292": 2384,
      "d54": 2385,
      "057": 2386,
      "(&(~": 2387,
      "h0f0": 2388,
      "ti": 2389,
      "VAR466": 2390,
      "00000000000000000000000": 2391,
      "472": 2392,
      "273": 2393,
      "h4e": 2394,
      "373": 2395,
      "378": 2396,
      "d57": 2397,
      "466": 2398,
      "hfc": 2399,
      "b440": 2400,
      "019": 2401,
      "071": 2402,
      "AE": 2403,
      "362": 2404,
      "[(((": 2405,
      "hc1": 2406,
      "085": 2407,
      "meout": 2408,
      "CE01CE01": 2409,
      "timeout": 2410,
      "431": 2411,
      "433": 2412,
      "=\"": 2413,
      "h90": 2414,
      "MODULE17": 2415,
      "(),.": 2416,
      "636": 2417,
      "397": 2418,
      "399": 2419,
      "d53": 2420,
      "d70": 2421,
      "469": 2422,
      "h2f2": 2423,
      "d120": 2424,
      "394": 2425,
      "h6e": 2426,
      "075": 2427,
      "},{": 2428,
      "b100010": 2429,
      "330": 2430,
      "C7": 2431,
      "DF": 2432,
      "a1": 2433,
      "a4": 2434,
      "488": 2435,
      "d84": 2436,
      "452": 2437,
      "**(": 2438,
      "371": 2439,
      "50000000": 2440,
      "pull": 2441,
      "VAR468": 2442,
      "h2d": 2443,
      "054": 2444,
      "115200": 2445,
      "387": 2446,
      "b3": 2447,
      "0011": 2448,
      "00003a": 2449,
      "000110": 2450,
      "b1100000": 2451,
      "b000111": 2452,
      "hc0": 2453,
      "h5e": 2454,
      "021": 2455,
      "379": 2456,
      "b7": 2457,
      "d112": 2458,
      "f1": 2459,
      "))));": 2460,
      "VAR482": 2461,
      "100110": 2462,
      "401": 2463,
      "059": 2464,
      "074": 2465,
      "b001011": 2466,
      "101110": 2467,
      "hCCCC": 2468,
      "(-": 2469,
      ")*(": 2470,
      "424": 2471,
      "439": 2472,
      "F6": 2473,
      "15000": 2474,
      "489": 2475,
      "402": 2476,
      "501": 2477,
      "052": 2478,
      "h85": 2479,
      "457": 2480,
      "???????": 2481,
      "../": 2482,
      "=-": 2483,
      "E7": 2484,
      "h4d": 2485,
      "341": 2486,
      "381": 2487,
      "d62": 2488,
      "442": 2489,
      "A4": 2490,
      "8080": 2491,
      "b0001111": 2492,
      "d74": 2493,
      "042": 2494,
      "d81": 2495,
      "467": 2496,
      "10000000": 2497,
      "432": 2498,
      "BB": 2499,
      "D5": 2500,
      "F8": 2501,
      "d104": 2502,
      "638": 2503,
      "VAR484": 2504,
      "]+((": 2505,
      "468": 2506,
      "b110100": 2507,
      "411": 2508,
      "429": 2509,
      "607": 2510,
      "]*": 2511,
      "iv": 2512,
      "956": 2513,
      "486": 2514,
      "h3d": 2515,
      "509": 2516,
      "hcb": 2517,
      "0707": 2518,
      "097": 2519,
      "20000": 2520,
      "MODULE18": 2521,
      "])+:": 2522,
      "VAR477": 2523,
      "478": 2524,
      "b00000000000": 2525,
      "d58": 2526,
      "d78": 2527,
      "068": 2528,
      "h82": 2529,
      "022": 2530,
      "AC": 2531,
      "508": 2532,
      "374": 2533,
      "hc6": 2534,
      "081": 2535,
      "086": 2536,
      ")}})": 2537,
      "E8": 2538,
      "d61": 2539,
      "f9": 2540,
      "449": 2541,
      "b11011011": 2542,
      "EE00": 2543,
      ")])": 2544,
      "388": 2545,
      "414": 2546,
      "420": 2547,
      "623": 2548,
      "8192": 2549,
      "A6": 2550,
      "[~": 2551,
      "dis": 2552,
      "d01": 2553,
      "VAR483": 2554,
      "d380": 2555,
      "d66": 2556,
      "d77": 2557,
      "049": 2558,
      "h9009": 2559,
      "????????????????????????": 2560,
      "h42c": 2561,
      "disable": 2562,
      "a2": 2563,
      "h87": 2564,
      "d04": 2565,
      "h0AAAAAAAA": 2566,
      "d191": 2567,
      "799": 2568,
      "043": 2569,
      "051": 2570,
      "083": 2571,
      "]}})}": 2572,
      "094": 2573,
      "425": 2574,
      "455": 2575,
      "428": 2576,
      ":{": 2577,
      "D8": 2578,
      "d71": 2579,
      "h98": 2580,
      "d192": 2581,
      "053": 2582,
      "073": 2583,
      "082": 2584,
      "b01111111": 2585,
      "hae": 2586,
      "3C": 2587,
      "437": 2588,
      "544": 2589,
      "IN": 2590,
      "0056": 2591,
      "000000000000000": 2592,
      "1111111": 2593,
      "]=(": 2594,
      "507": 2595,
      "066": 2596,
      "460": 2597,
      "757": 2598,
      "498": 2599,
      "b001110": 2600,
      "100100000": 2601,
      "435": 2602,
      "438": 2603,
      "EA": 2604,
      "FC": 2605,
      "b0000000000001": 2606,
      "h7d": 2607,
      "b100110": 2608,
      "d165": 2609,
      "b101000": 2610,
      "h000000000000000000000000000": 2611,
      "b100001": 2612,
      ")<<": 2613,
      "430": 2614,
      "5000": 2615,
      "D2": 2616,
      "D7": 2617,
      "]],": 2618,
      "d119": 2619,
      "h99": 2620,
      "d69": 2621,
      "446": 2622,
      "d89": 2623,
      "077": 2624,
      "--------": 2625,
      "INV": 2626,
      "436": 2627,
      "490": 2628,
      "8000": 2629,
      "<(": 2630,
      "B0": 2631,
      "b6": 2632,
      "MODULE21": 2633,
      "968": 2634,
      "d294": 2635,
      "474": 2636,
      "b00001010": 2637,
      "101011": 2638,
      "hc2c": 2639,
      "FFFFFFFFFFFFFFFFFFFFFFFFFFFFFFFF": 2640,
      "ive": 2641,
      "061": 2642,
      "092": 2643,
      "091": 2644,
      "421": 2645,
      "510": 2646,
      "}];": 2647,
      "b0000110": 2648,
      "]={": 2649,
      "454": 2650,
      "574": 2651,
      "b0100100": 2652,
      "=='": 2653,
      "d177": 2654,
      "b110011": 2655,
      "530": 2656,
      "B6": 2657,
      "cd21": 2658,
      "h96": 2659,
      "mit": 2660,
      "|({": 2661,
      "str": 2662,
      "VAR479": 2663,
      "h0100": 2664,
      "481": 2665,
      "d447": 2666,
      "h2AAAAAAAA": 2667,
      "453": 2668,
      "beef": 2669,
      "primit": 2670,
      "primitive": 2671,
      "IF": 2672,
      "d05": 2673,
      "d07": 2674,
      "471": 2675,
      "h1ff": 2676,
      "h008": 2677,
      "443": 2678,
      "rgv108": 2679,
      "+((": 2680,
      "463": 2681,
      "cd2": 2682,
      "}}}": 2683,
      "483": 2684,
      "476": 2685,
      "555": 2686,
      "d85": 2687,
      "462": 2688,
      "11111111111": 2689,
      "b01111000": 2690,
      ")]=": 2691,
      "3000": 2692,
      "410": 2693,
      "495": 2694,
      "50000": 2695,
      "525": 2696,
      "f0": 2697,
      "MODULE19": 2698,
      "000C": 2699,
      "d100": 2700,
      "(\"[%": 2701,
      "h004": 2702,
      "504": 2703,
      "b1001111": 2704,
      "hBC": 2705,
      "456": 2706,
      "514": 2707,
      "EN": 2708,
      "HEN": 2709,
      "THEN": 2710,
      "]<<(": 2711,
      "d110": 2712,
      "d03": 2713,
      "def": 2714,
      "568": 2715,
      "101000": 2716,
      "1010001": 2717,
      "d82": 2718,
      "b1111111111111111": 2719,
      "c5c5c5c5c5c5c5c5c5c5c5c5c5c5c5c5": 2720,
      "635THEN": 2721,
      "rgv1BIT635THEN": 2722,
      "0x0CONCATIF": 2723,
      "hdeadbeef": 2724,
      "INVrgv108": 2725,
      "rgv1BIT635THENINVrgv108": 2726,
      "0x0CONCATIFrgv1BIT635THENINVrgv108": 2727,
      "0x0CONCATIFrgv1BIT635THENINVrgv108ETC": 2728,
      "#\"": 2729,
      "093": 2730,
      "BA": 2731,
      "F000": 2732,
      "a7": 2733,
      "c8": 2734,
      "d02": 2735,
      "b1111001": 2736,
      "(\"\");": 2737,
      "888": 2738,
      "d490": 2739,
      "d109": 2740,
      "451": 2741,
      "hFC": 2742,
      "hFFFE": 2743,
      "1T": 2744,
      "413": 2745,
      "a5": 2746,
      "FFFE": 2747,
      "559": 2748,
      "506": 2749,
      "h8c": 2750,
      "759": 2751,
      "125000": 2752,
      "40000": 2753,
      "461": 2754,
      "434": 2755,
      "E6": 2756,
      "by": 2757,
      "1100000": 2758,
      "MODULE28": 2759,
      "VAR486": 2760,
      "h020": 2761,
      "d176": 2762,
      "d149": 2763,
      "487": 2764,
      "b100111": 2765,
      "b010100": 2766,
      "b1111000": 2767,
      "byte": 2768,
      "\"../": 2769,
      "499": 2770,
      "7S": 2771,
      "A0": 2772,
      "c0": 2773,
      "e7": 2774,
      "554": 2775,
      "558": 2776,
      "567": 2777,
      "b011000": 2778,
      "666": 2779,
      "hf0": 2780,
      "E000E000": 2781,
      "412": 2782,
      "BC": 2783,
      "ES": 2784,
      "lut": 2785,
      "0078": 2786,
      "b00001110": 2787,
      "b11111100": 2788,
      "d504": 2789,
      "0111": 2790,
      "E3": 2791,
      "MODULE24": 2792,
      "MODULE20": 2793,
      "647": 2794,
      "d199": 2795,
      "h2A": 2796,
      "503": 2797,
      "h00000004": 2798,
      "FFFFFF": 2799,
      "1F": 2800,
      "575": 2801,
      "ER": 2802,
      "IES": 2803,
      "c9": 2804,
      "),(": 2805,
      "d09": 2806,
      ")){": 2807,
      "560": 2808,
      "502": 2809,
      "h89": 2810,
      "609": 2811,
      "578": 2812,
      "10010000": 2813,
      "7SER": 2814,
      "7SERIES": 2815,
      "B4": 2816,
      "B7": 2817,
      "D0": 2818,
      "c2": 2819,
      "d06": 2820,
      "b0011111111": 2821,
      "470": 2822,
      "551": 2823,
      "b101100": 2824,
      "b0000011": 2825,
      "])));": 2826,
      "422": 2827,
      "e00": 2828,
      "f2": 2829,
      "{((": 2830,
      "{(~": 2831,
      "d08": 2832,
      "])]": 2833,
      "d212": 2834,
      "473": 2835,
      "11110000": 2836,
      "b010101": 2837,
      "b0110011": 2838,
      "hFFFFFF": 2839,
      "\".": 2840,
      "535": 2841,
      "576": 2842,
      "C001": 2843,
      "a0": 2844,
      "0010": 2845,
      "d179": 2846,
      "809": 2847,
      "b10011001": 2848,
      "h00001": 2849,
      "b111000": 2850,
      "b0010011": 2851,
      "BE": 2852,
      "0008": 2853,
      "VAR489": 2854,
      "000000000000000000": 2855,
      "d195": 2856,
      "h006": 2857,
      "10100000": 2858,
      "d92": 2859,
      "b010110": 2860,
      "492": 2861,
      "597": 2862,
      "b110110": 2863,
      "hF0": 2864,
      "b0001110": 2865,
      ")&(": 2866,
      "518": 2867,
      "543": 2868,
      "B5": 2869,
      "a09": 2870,
      "c1": 2871,
      "h95": 2872,
      "0007": 2873,
      "d139": 2874,
      "b0011001": 2875,
      "482": 2876,
      "806": 2877,
      "111110": 2878,
      "566": 2879,
      "569": 2880,
      "b0100000000000000": 2881,
      "d420": 2882,
      "d157": 2883,
      "b0010100": 2884,
      "]:{": 2885,
      "((((((((": 2886,
      "d481": 2887,
      "hFFFFFFFFFFFFFFFF": 2888,
      "?(-": 2889,
      "::": 2890,
      "F5": 2891,
      "^(": 2892,
      "e2": 2893,
      "{!": 2894,
      "]):": 2895,
      "VAR485": 2896,
      "11100000": 2897,
      "557": 2898,
      "h2E": 2899,
      "752": 2900,
      "493": 2901,
      "h000000000000000000000000000000000000": 2902,
      ",%": 2903,
      "513": 2904,
      "=((": 2905,
      "(~(|": 2906,
      "801": 2907,
      "]}]": 2908,
      "]}));": 2909,
      "d512": 2910,
      "h80000000": 2911,
      "581": 2912,
      "hbc": 2913,
      "b0010110": 2914,
      "519": 2915,
      "DA": 2916,
      "0040": 2917,
      "MODULE26": 2918,
      "b111100": 2919,
      "2020": 2920,
      "561": 2921,
      "h2D": 2922,
      "b011100": 2923,
      "491": 2924,
      "==='": 2925,
      "12500": 2926,
      "AAAAAAAAAAAAAAAAAAAAAAAAAAAAAAAAAAAAAAAAAAAAAAAAAAAAAAAAAAAAAAAA": 2927,
      "8191": 2928,
      "=!": 2929,
      "][(": 2930,
      "dd": 2931,
      "}),.": 2932,
      "MODULE23": 2933,
      "]):(": 2934,
      "d188": 2935,
      "h428": 2936,
      "6666": 2937,
      "497": 2938,
      "hf8": 2939,
      "bufif0": 2940,
      "55555555555555555555555555555555": 2941,
      "418": 2942,
      "419": 2943,
      "E2": 2944,
      "e0": 2945,
      "h92": 2946,
      "d133": 2947,
      "d174": 2948,
      "||((": 2949,
      "d213": 2950,
      "b000000000000000": 2951,
      "h2F": 2952,
      "h6b": 2953,
      "h5be": 2954,
      ")?{": 2955,
      "494": 2956,
      "d168": 2957,
      "h0002": 2958,
      "))||(": 2959,
      "D9": 2960,
      "E4": 2961,
      "]||": 2962,
      "a6": 2963,
      "hd5": 2964,
      "~&": 2965,
      "~(~": 2966,
      "((|": 2967,
      "))+": 2968,
      "h011": 2969,
      "d132": 2970,
      "d196": 2971,
      "d144": 2972,
      "951": 2973,
      "b010111": 2974,
      "b011111": 2975,
      "d319": 2976,
      "EE00EE00": 2977,
      "577": 2978,
      "=((~": 2979,
      "ma": 2980,
      "xnor": 2981,
      "b010001": 2982,
      "769": 2983,
      "<<<": 2984,
      "AAAAAA": 2985,
      "4444": 2986,
      "d90": 2987,
      "{{{{": 2988,
      "589": 2989,
      "hffffff": 2990,
      "512x": 2991,
      "ca": 2992,
      "VAR488": 2993,
      "h041": 2994,
      "d134": 2995,
      "d198": 2996,
      "b111011": 2997,
      "552": 2998,
      "demux": 2999,
      "565": 3000,
      "h2B": 3001,
      "????????:": 3002,
      "67a": 3003,
      "b0011010": 3004,
      "b0000000000000010": 3005,
      "515": 3006,
      "524": 3007,
      "521": 3008,
      "E1": 3009,
      "g0": 3010,
      "MODULE22": 3011,
      "hc8": 3012,
      "d91": 3013,
      "00000000000000000000000000000000000000000000000000000000000000000000000000000000000000000000000000000000000000000000000000000000": 3014,
      "ong0": 3015,
      "686": 3016,
      "b1000110": 3017,
      "strong0": 3018,
      "520": 3019,
      "538": 3020,
      "AF": 3021,
      "^{": 3022,
      "h110": 3023,
      "port": 3024,
      "000000000000000000000000": 3025,
      "h10000000": 3026,
      "5688": 3027,
      "h4b": 3028,
      "notif": 3029,
      "h7F": 3030,
      "d86": 3031,
      "689": 3032,
      "0340": 3033,
      "b110010": 3034,
      "0565": 3035,
      "h00000008": 3036,
      "typedef": 3037,
      "F000F000": 3038,
      "1X": 3039,
      "608": 3040,
      "B2": 3041,
      "d130": 3042,
      "d170": 3043,
      "b00000000000001": 3044,
      "ff53": 3045,
      "h5b": 3046,
      "d93": 3047,
      "d151": 3048,
      "992": 3049,
      "d118": 3050,
      "b010010": 3051,
      "hf5": 3052,
      "00380038": 3053,
      "(%": 3054,
      "517": 3055,
      "540": 3056,
      "529": 3057,
      "C1": 3058,
      "]}}};": 3059,
      "e667": 3060,
      "f6": 3061,
      "h91": 3062,
      "b05688": 3063,
      "10e5": 3064,
      "16384": 3065,
      "648": 3066,
      "0005": 3067,
      "0009": 3068,
      "d131": 3069,
      "d146": 3070,
      "d9ab": 3071,
      "d108": 3072,
      "d150": 3073,
      "758": 3074,
      "b1101111": 3075,
      "584": 3076,
      "54ff53": 3077,
      "83d9ab": 3078,
      "h9c": 3079,
      "b01110110": 3080,
      "ef372": 3081,
      "]!=(": 3082,
      "c6ef372": 3083,
      "h5be0c": 3084,
      "10e527": 3085,
      "532": 3086,
      "516": 3087,
      "c3": 3088,
      "e4": 3089,
      "0050": 3090,
      "0058": 3091,
      "803": 3092,
      "b0000101": 3093,
      "d99": 3094,
      "777": 3095,
      "570": 3096,
      "d115": 3097,
      "785": 3098,
      "11111111111111": 3099,
      "hb5": 3100,
      "h9b": 3101,
      "0324": 3102,
      "0252": 3103,
      "77777777": 3104,
      ")}": 3105,
      "522": 3106,
      "533": 3107,
      "536": 3108,
      "e1": 3109,
      "im": 3110,
      "0039": 3111,
      "1599": 3112,
      "VAR490": 3113,
      "h012": 3114,
      "950": 3115,
      "(~(~": 3116,
      "562": 3117,
      "b01100011": 3118,
      "d98": 3119,
      "b0010000000000000": 3120,
      "d129": 3121,
      "1010100": 3122,
      "h0008": 3123,
      "b0000100000000000": 3124,
      "b11100110": 3125,
      "import": 3126,
      ",(": 3127,
      "0100": 3128,
      "868": 3129,
      "E9": 3130,
      "F7": 3131,
      "f3": 3132,
      "x240": 3133,
      "0041": 3134,
      "&&!": 3135,
      "])&": 3136,
      "h010": 3137,
      "(.*": 3138,
      "959": 3139,
      "3030": 3140,
      "550": 3141,
      "?????????": 3142,
      "d160": 3143,
      "603": 3144,
      "320x240": 3145,
      "b1100111": 3146,
      "b0111111": 3147,
      "h3f6": 3148,
      "b00111111": 3149,
      "b0000000001000000": 3150,
      "0110": 3151,
      "579": 3152,
      "A7": 3153,
      "((&": 3154,
      "])},": 3155,
      "969": 3156,
      "111101": 3157,
      "b10101010": 3158,
      "797": 3159,
      "b10011111": 3160,
      "d153": 3161,
      "d161": 3162,
      "d167": 3163,
      "586": 3164,
      "b010011": 3165,
      "b0011000": 3166,
      "d208": 3167,
      "b101110": 3168,
      "b01110000": 3169,
      "1111010": 3170,
      "b11111000": 3171,
      "531": 3172,
      "528": 3173,
      ":;": 3174,
      "A3": 3175,
      "C8": 3176,
      "C9": 3177,
      "b10000001": 3178,
      "MODULE27": 3179,
      "d187": 3180,
      "958": 3181,
      "804": 3182,
      "556": 3183,
      "b0100001": 3184,
      "h000000000": 3185,
      "h00000002": 3186,
      "d107": 3187,
      "08h": 3188,
      "594": 3189,
      "0299": 3190,
      "1000000000": 3191,
      "523": 3192,
      "526": 3193,
      "546": 3194,
      "545": 3195,
      "F9": 3196,
      "FB": 3197,
      "FD": 3198,
      "fb": 3199,
      "hac": 3200,
      "0064": 3201,
      "0087": 3202,
      "MODULE25": 3203,
      "h040": 3204,
      "(!(|": 3205,
      "d200": 3206,
      "1111000": 3207,
      "d94": 3208,
      "592": 3209,
      "598": 3210,
      "b00011100": 3211,
      "ha8": 3212,
      "b1000010": 3213,
      "hE00000": 3214,
      "b0000000010000000": 3215,
      "67ae8": 3216,
      "\"\",": 3217,
      "*((": 3218,
      "580": 3219,
      "527": 3220,
      "590": 3221,
      "?'": 3222,
      "up": 3223,
      "0018": 3224,
      "0067": 3225,
      "d140": 3226,
      "d137": 3227,
      "d173": 3228,
      "20100": 3229,
      "(~((": 3230,
      "b0001100": 3231,
      "b00011111": 3232,
      "b1110000": 3233,
      "b10100000": 3234,
      "b01101000": 3235,
      "heb": 3236,
      "b10110000": 3237,
      "0000000000000001": 3238,
      "b11100111": 3239,
      "&!": 3240,
      ",-": 3241,
      "547": 3242,
      "534": 3243,
      "713": 3244,
      "720": 3245,
      "913": 3246,
      "af": 3247,
      "hab": 3248,
      "}=": 3249,
      "00000001": 3250,
      "MODULE32": 3251,
      "(({(": 3252,
      "00000000000000000000": 3253,
      "952": 3254,
      "}},{": 3255,
      "b000000000000001": 3256,
      "der": 3257,
      "h00000000000000": 3258,
      "0416": 3259,
      "h8e": 3260,
      "FFFFF": 3261,
      "582": 3262,
      "784": 3263,
      "0504": 3264,
      "h44D4": 3265,
      "0120": 3266,
      "2T": 3267,
      "a9": 3268,
      "ait": 3269,
      "d111": 3270,
      "d101": 3271,
      "hd6": 3272,
      "wait": 3273,
      "{!(!": 3274,
      "1021": 3275,
      "VAR487": 3276,
      "d148": 3277,
      "802": 3278,
      "1111100": 3279,
      ")-:": 3280,
      "h429": 3281,
      "~(&": 3282,
      "h7ff": 3283,
      "h5d": 3284,
      "d102": 3285,
      "d106": 3286,
      "908": 3287,
      "11001100": 3288,
      "d125": 3289,
      "593": 3290,
      "b1100110": 3291,
      "h3F7FF": 3292,
      "(.*);": 3293,
      ")}};": 3294,
      "539": 3295,
      "587": 3296,
      "537": 3297,
      "549": 3298,
      "541": 3299,
      "9b05688": 3300,
      "CD": 3301,
      "ED": 3302,
      "F2": 3303,
      "]])": 3304,
      "d103": 3305,
      "&&((": 3306,
      "}}},": 3307,
      "649": 3308,
      "h030": 3309,
      "d135": 3310,
      "d136": 3311,
      "d287": 3312,
      "fa54ff53": 3313,
      "b00011110": 3314,
      "56a09": 3315,
      "h6d": 3316,
      "0500": 3317,
      "d105": 3318,
      "d123": 3319,
      "b0011100": 3320,
      "b1010000": 3321,
      "c510e527": 3322,
      "0200": 3323,
      "he0": 3324,
      "he9": 3325,
      "b0111000": 3326,
      "b00100010": 3327,
      "b0000000000000100": 3328,
      "bb67ae8": 3329,
      "b0000000000010000": 3330,
      "a3c6ef372": 3331,
      "83d9ab9b05688": 3332,
      "fa54ff53a3c6ef372": 3333,
      "56a09e667": 3334,
      "c510e527fa54ff53a3c6ef372": 3335,
      "bb67ae856a09e667": 3336,
      "83d9ab9b05688c510e527fa54ff53a3c6ef372": 3337,
      "83d9ab9b05688c510e527fa54ff53a3c6ef372bb67ae856a09e667": 3338,
      "\"%": 3339,
      "599": 3340,
      "656": 3341,
      "eb": 3342,
      "f83d9ab9b05688c510e527fa54ff53a3c6ef372bb67ae856a09e667": 3343,
      "0013": 3344,
      "0033": 3345,
      "0086": 3346,
      "d142": 3347,
      "957": 3348,
      "unsigned": 3349,
      ">>(": 3350,
      "h007": 3351,
      "h6E": 3352,
      "0624": 3353,
      "??????????": 3354,
      "?????????:": 3355,
      "602": 3356,
      "585": 3357,
      "]}}^{": 3358,
      "ha2": 3359,
      "hfff": 3360,
      "h000004": 3361,
      "0398": 3362,
      "10000010": 3363,
      "d191f83d9ab9b05688c510e527fa54ff53a3c6ef372bb67ae856a09e667": 3364,
      "000C000C": 3365,
      "h5be0cd191f83d9ab9b05688c510e527fa54ff53a3c6ef372bb67ae856a09e667": 3366,
      "'(": 3367,
      ")\"": 3368,
      "0101": 3369,
      "564": 3370,
      "605": 3371,
      "A9": 3372,
      "C3": 3373,
      "C4": 3374,
      "e3": 3375,
      "0076": 3376,
      "634": 3377,
      "553": 3378,
      "b0001010": 3379,
      "h003": 3380,
      "d152": 3381,
      "668": 3382,
      "d163": 3383,
      "b11011110": 3384,
      "974": 3385,
      "b011010": 3386,
      "hef": 3387,
      "haa": 3388,
      "1110110": 3389,
      "0180": 3390,
      "0357": 3391,
      "0635": 3392,
      "DE4": 3393,
      "h0410000": 3394,
      "631": 3395,
      "604": 3396,
      "c4": 3397,
      "0030": 3398,
      "0057": 3399,
      "0042": 3400,
      "0098": 3401,
      "0073": 3402,
      "1015": 3403,
      "h018": 3404,
      "b111001": 3405,
      "h3ff": 3406,
      "h40000000": 3407,
      "d451": 3408,
      "h00FF": 3409,
      "coder": 3410,
      "b1001100": 3411,
      "hc29": 3412,
      "b01100010": 3413,
      "h5A": 3414,
      "669": 3415,
      "774": 3416,
      "d166": 3417,
      "781": 3418,
      "hba": 3419,
      "b0011101": 3420,
      "b000000000000000000000000000000": 3421,
      "0170": 3422,
      "pullup": 3423,
      "C001C001": 3424,
      ")==": 3425,
      "595": 3426,
      "C5": 3427,
      "](": 3428,
      "hd8": 3429,
      "rand": 3430,
      "644": 3431,
      "d138": 3432,
      "960": 3433,
      "967": 3434,
      "b00011011": 3435,
      "b1001000": 3436,
      "0457": 3437,
      "11001000": 3438,
      "573": 3439,
      "b011011": 3440,
      "he8": 3441,
      "d254": 3442,
      "d238": 3443,
      "0161": 3444,
      "hbf6": 3445,
      "b111111111111": 3446,
      "610": 3447,
      "699": 3448,
      "928": 3449,
      "BD": 3450,
      "F3": 3451,
      "cf": 3452,
      "hd0": 3453,
      "hfa": 3454,
      "h97": 3455,
      "h94": 3456,
      "}+": 3457,
      "0047": 3458,
      "0088": 3459,
      "b10000000000": 3460,
      "}}&": 3461,
      "d190": 3462,
      "b110001": 3463,
      "d215": 3464,
      "2222": 3465,
      "793": 3466,
      "b0001101": 3467,
      "hc9": 3468,
      "h8f": 3469,
      "997": 3470,
      "d117": 3471,
      "789": 3472,
      "7800000": 3473,
      "697": 3474,
      "hb2": 3475,
      "b0010101": 3476,
      "hea": 3477,
      "b011110": 3478,
      "b00100100": 3479,
      "h42b": 3480,
      "0203": 3481,
      "548": 3482,
      "632": 3483,
      "800000": 3484,
      "ck": 3485,
      "h93": 3486,
      "0031": 3487,
      "0079": 3488,
      "0077": 3489,
      "0065": 3490,
      "pack": 3491,
      "d145": 3492,
      "d175": 3493,
      "d143": 3494,
      "d210": 3495,
      "d217": 3496,
      "b00001101": 3497,
      "b01000000000": 3498,
      "765": 3499,
      "0430": 3500,
      "b011001": 3501,
      "h8a": 3502,
      "080000000": 3503,
      "591": 3504,
      "d114": 3505,
      "583": 3506,
      "hf7": 3507,
      "0215": 3508,
      "1001000": 3509,
      "haf": 3510,
      "d237": 3511,
      "0259": 3512,
      "0238": 3513,
      "0320": 3514,
      "542": 3515,
      "614": 3516,
      "680": 3517,
      ";;": 3518,
      "?,": 3519,
      "C2": 3520,
      "F1": 3521,
      "hb0": 3522,
      "hd3": 3523,
      "h104": 3524,
      "~|(": 3525,
      "0053": 3526,
      "0092": 3527,
      "645": 3528,
      "h080": 3529,
      "00000000000000000": 3530,
      "791": 3531,
      "h0010": 3532,
      "0400": 3533,
      "d116": 3534,
      "b110101": 3535,
      "b1101101": 3536,
      "fffff": 3537,
      "0214": 3538,
      "(&(": 3539,
      "0160": 3540,
      "0181": 3541,
      "new": 3542,
      "B3": 3543,
      "h101": 3544,
      "pea": 3545,
      "0019": 3546,
      "0055": 3547,
      "0060": 3548,
      "0054": 3549,
      "0084": 3550,
      "repea": 3551,
      "000010": 3552,
      "d141": 3553,
      "11111000": 3554,
      "b101101": 3555,
      "hc3": 3556,
      "0414": 3557,
      "128000000": 3558,
      "d124": 3559,
      "d113": 3560,
      "709": 3561,
      "973": 3562,
      "hbb": 3563,
      "0379": 3564,
      "h0004": 3565,
      "h102": 3566,
      "b10010000": 3567,
      "0171": 3568,
      "0177": 3569,
      "h42c7": 3570,
      "hc2c7": 3571,
      "repeat": 3572,
      "\"\\": 3573,
      "0DE4": 3574,
      "624": 3575,
      "617": 3576,
      "622": 3577,
      "657": 3578,
      "700": 3579,
      "]]};": 3580,
      "cb": 3581,
      "cd": 3582,
      "wn": 3583,
      "0048": 3584,
      "0034": 3585,
      "0045": 3586,
      "32768": 3587,
      "642": 3588,
      "0006": 3589,
      "VAR495": 3590,
      "96e8": 3591,
      "1005": 3592,
      "(~&": 3593,
      "1101000": 3594,
      "+:(": 3595,
      "760": 3596,
      "0448": 3597,
      "0838": 3598,
      "778": 3599,
      "hb8": 3600,
      "hf4": 3601,
      "0225": 3602,
      "0218": 3603,
      "b1111110": 3604,
      "10110000": 3605,
      "d250": 3606,
      "hAC": 3607,
      "0162": 3608,
      "h000001": 3609,
      "0151": 3610,
      "0242": 3611,
      "h42a": 3612,
      "hc2b": 3613,
      "0336": 3614,
      "down": 3615,
      "11111111111111111111111111111111": 3616,
      "588": 3617,
      "615": 3618,
      "612": 3619,
      "613": 3620,
      "620": 3621,
      "628": 3622,
      "A2": 3623,
      "|(~": 3624,
      "0032": 3625,
      "0080": 3626,
      "000000000000000000000000000000000000000000000000": 3627,
      "883": 3628,
      "h7FFF": 3629,
      "hca": 3630,
      "b01100001": 3631,
      "990": 3632,
      "660": 3633,
      "684": 3634,
      "703": 3635,
      "986": 3636,
      "1111111111": 3637,
      "0331": 3638,
      "0387": 3639,
      "c5c": 3640,
      "b10000110": 3641,
      "b0011110": 3642,
      "0154": 3643,
      "0405": 3644,
      "0301": 3645,
      "0239": 3646,
      "0148": 3647,
      "0205": 3648,
      "0374": 3649,
      "hFFFFFFFFFFFFFF": 3650,
      "b0000000000001000": 3651,
      "))?{": 3652,
      "????????????????????????????????????????????????????????????????": 3653,
      "b11011100": 3654,
      "0144": 3655,
      "0193": 3656,
      "619": 3657,
      "606": 3658,
      "704": 3659,
      "837": 3660,
      "F4": 3661,
      "Kb": 3662,
      "MUL": 3663,
      "edge": 3664,
      "0020": 3665,
      "0029": 3666,
      "0061": 3667,
      "0036": 3668,
      "0052": 3669,
      "0059": 3670,
      "0043": 3671,
      "0069": 3672,
      "0074": 3673,
      "])&(~": 3674,
      "633": 3675,
      "h019": 3676,
      "b1110010": 3677,
      "b1011011": 3678,
      "d457": 3679,
      "h0080": 3680,
      "0418": 3681,
      "0455": 3682,
      "0672": 3683,
      "b0010001": 3684,
      "0131": 3685,
      "d121": 3686,
      "682": 3687,
      "654": 3688,
      "0300": 3689,
      "0335": 3690,
      "03CF": 3691,
      "0232": 3692,
      "0213": 3693,
      "0220": 3694,
      "h3f1": 3695,
      "0155": 3696,
      "0159": 3697,
      "0172": 3698,
      "0183": 3699,
      "hdd": 3700,
      "0506": 3701,
      "0274": 3702,
      "0279": 3703,
      "0304": 3704,
      "0308": 3705,
      "0140": 3706,
      "0142": 3707,
      "0260": 3708,
      "0344": 3709,
      "b1000000000000000": 3710,
      "0130": 3711,
      "596": 3712,
      "625": 3713,
      "629": 3714,
      "D3": 3715,
      "hb1": 3716,
      "h120": 3717,
      "0014": 3718,
      "0037": 3719,
      "25000000": 3720,
      "b111010": 3721,
      "2019": 3722,
      "1007": 3723,
      "#(\"": 3724,
      "766": 3725,
      "889": 3726,
      "37500": 3727,
      "h7C": 3728,
      "0456": 3729,
      "0524": 3730,
      "d159": 3731,
      "d122": 3732,
      "b00010001": 3733,
      "692": 3734,
      "674": 3735,
      "hf3": 3736,
      "b0010111": 3737,
      "h9e": 3738,
      "ha4": 3739,
      "d253": 3740,
      "h0800": 3741,
      "hE0": 3742,
      "0247": 3743,
      "0184": 3744,
      "0404": 3745,
      "0141": 3746,
      "0261": 3747,
      "ffffffffffffffff": 3748,
      "0127": 3749,
      "0128": 3750,
      "0199": 3751,
      "0143": 3752,
      "563": 3753,
      "572": 3754,
      "671": 3755,
      "650": 3756,
      "750": 3757,
      "920": 3758,
      ":\\": 3759,
      "AD": 3760,
      "0016": 3761,
      "0022": 3762,
      "0066": 3763,
      "0000000001": 3764,
      "d180": 3765,
      "961": 3766,
      "({~": 3767,
      "d216": 3768,
      "d218": 3769,
      "792": 3770,
      "b1001011": 3771,
      "b10010010": 3772,
      "0410": 3773,
      "0428": 3774,
      "d856": 3775,
      "d158": 3776,
      "998": 3777,
      "903": 3778,
      "10101111010": 3779,
      "683": 3780,
      "0211": 3781,
      "0296": 3782,
      "ha1": 3783,
      "b0011111": 3784,
      "0153": 3785,
      "0157": 3786,
      "b00010101": 3787,
      "0241": 3788,
      "0186": 3789,
      "0189": 3790,
      "0323": 3791,
      "h3F8000": 3792,
      "hdb": 3793,
      "0401": 3794,
      "0407": 3795,
      "0503": 3796,
      "0509": 3797,
      "0270": 3798,
      "0277": 3799,
      "0315": 3800,
      "0284": 3801,
      "0306": 3802,
      "0397": 3803,
      "0367": 3804,
      "0381": 3805,
      "0202": 3806,
      "b11000010": 3807,
      "0256": 3808,
      "0255": 3809,
      "0108": 3810,
      "0192": 3811,
      "0136": 3812,
      "0191": 3813,
      "0226": 3814,
      "0198": 3815,
      "571": 3816,
      "616": 3817,
      "776": 3818,
      "708": 3819,
      "936": 3820,
      "E5": 3821,
      "TO": 3822,
      "h112": 3823,
      "h128": 3824,
      "ity": 3825,
      "0063": 3826,
      "0024": 3827,
      "0096": 3828,
      "0072": 3829,
      "0049": 3830,
      "0070": 3831,
      "0051": 3832,
      "0093": 3833,
      "0081": 3834,
      "MODULE30": 3835,
      "ority": 3836,
      "])],": 3837,
      "643": 3838,
      "h016": 3839,
      "966": 3840,
      "b00101010": 3841,
      "d225": 3842,
      "d227": 3843,
      "b1011111": 3844,
      "b0001011": 3845,
      "h4B": 3846,
      "886": 3847,
      "h0020": 3848,
      "875": 3849,
      "10100010": 3850,
      "00000011": 3851,
      "h7D": 3852,
      "d664": 3853,
      "0411": 3854,
      "0425": 3855,
      "0417": 3856,
      "0427": 3857,
      "0439": 3858,
      "0429": 3859,
      "0499": 3860,
      "0492": 3861,
      "0493": 3862,
      "0491": 3863,
      "b0110001": 3864,
      "h00001000": 3865,
      "h5c5c5c5c5c5c5c5c5c5c5c5c5c5c5c5c5": 3866,
      "05d": 3867,
      "b00100000000": 3868,
      "??????????:": 3869,
      "???????????:": 3870,
      "00010000": 3871,
      "0132": 3872,
      "d156": 3873,
      "662": 3874,
      "d126": 3875,
      "685": 3876,
      "984": 3877,
      "653": 3878,
      "0264": 3879,
      "0263": 3880,
      "d201": 3881,
      "b00000000000000000000000000000001": 3882,
      "h9a": 3883,
      "h9f": 3884,
      "c5c5c5c": 3885,
      "d240": 3886,
      "b00010110": 3887,
      "0240": 3888,
      "0243": 3889,
      "0248": 3890,
      "0173": 3891,
      "c5c5c5c5c5c5c5c": 3892,
      "0182": 3893,
      "0488": 3894,
      "0474": 3895,
      "0479": 3896,
      "0403": 3897,
      "0251": 3898,
      "0501": 3899,
      "0273": 3900,
      "0281": 3901,
      "0390": 3902,
      "0391": 3903,
      "0230": 3904,
      "0237": 3905,
      "hc2a": 3906,
      "0360": 3907,
      "0382": 3908,
      "0384": 3909,
      "b10000010": 3910,
      "c5c5c5c5c5c5c5c5c5c5c5c5c5c5c5c": 3911,
      "priority": 3912,
      "63636363636363636363636363636363": 3913,
      "rgv1BITS": 3914,
      "0x0CONCATrgv1BITS": 3915,
      "10100010000000": 3916,
      "101011110101110000": 3917,
      "h5c5c5c5c5c5c5c5c5c5c5c5c5c5c5c5c5c5c5c5c5c5c5c5c5c5c5c5c5c5c5c5c": 3918,
      "0124": 3919,
      "0133": 3920,
      "679": 3921,
      "626": 3922,
      "601": 3923,
      "652": 3924,
      "670": 3925,
      "833": 3926,
      "D1": 3927,
      "]>": 3928,
      "aut": 3929,
      "oma": 3930,
      "th": 3931,
      "tic": 3932,
      "wle": 3933,
      "{(((": 3934,
      "~({": 3935,
      "0015": 3936,
      "0023": 3937,
      "0046": 3938,
      "0082": 3939,
      "b011111111": 3940,
      "VAR492": 3941,
      "h050": 3942,
      "h042": 3943,
      "955": 3944,
      "d222": 3945,
      "b10111111": 3946,
      "h3FF": 3947,
      "nowle": 3948,
      "870": 3949,
      "381C": 3950,
      "0432": 3951,
      "0412": 3952,
      "0464": 3953,
      "0463": 3954,
      "0496": 3955,
      "0420": 3956,
      "0435": 3957,
      "0438": 3958,
      "0469": 3959,
      "0510": 3960,
      "0709": 3961,
      "0196": 3962,
      "d154": 3963,
      "753": 3964,
      "b110111": 3965,
      "ffffff": 3966,
      "989": 3967,
      "hb6": 3968,
      "hbd": 3969,
      "hf6": 3970,
      "hfd": 3971,
      "0347": 3972,
      "0376": 3973,
      "0372": 3974,
      "0231": 3975,
      "0295": 3976,
      "he6": 3977,
      "b1110111": 3978,
      "hA0": 3979,
      "acknowle": 3980,
      "0165": 3981,
      "0168": 3982,
      "0156": 3983,
      "0245": 3984,
      "0187": 3985,
      "hdc": 3986,
      "0484": 3987,
      "0486": 3988,
      "0476": 3989,
      "0478": 3990,
      "0406": 3991,
      "0408": 3992,
      "0505": 3993,
      "0314": 3994,
      "0317": 3995,
      "0283": 3996,
      "0287": 3997,
      "0288": 3998,
      "0303": 3999,
      "0307": 4000,
      "0394": 4001,
      "0399": 4002,
      "1111011": 4003,
      "0236": 4004,
      "0146": 4005,
      "0368": 4006,
      "0269": 4007,
      "0291": 4008,
      "FFFC": 4009,
      "b10100100": 4010,
      "b0000000000100000": 4011,
      "pulldown": 4012,
      "automa": 4013,
      "acknowledge": 4014,
      "automatic": 4015,
      "\"-": 4016,
      "&~(": 4017,
      "0104": 4018,
      "0121": 4019,
      "0113": 4020,
      "0207": 4021,
      "0139": 4022,
      "4000": 4023,
      "500000": 4024,
      "717": 4025,
      "735": 4026,
      "896": 4027,
      "880": 4028,
      "917": 4029,
      "f82": 4030,
      "}<=": 4031,
      "0025": 4032,
      "0027": 4033,
      "0028": 4034,
      "0026": 4035,
      "0075": 4036,
      "0099": 4037,
      "0068": 4038,
      "0085": 4039,
      "0083": 4040,
      "641": 4041,
      "d232": 4042,
      "b0000111": 4043,
      "761": 4044,
      "h005": 4045,
      "d655": 4046,
      "d710": 4047,
      "hc28": 4048,
      "0413": 4049,
      "0495": 4050,
      "0447": 4051,
      "0422": 4052,
      "0434": 4053,
      "0451": 4054,
      "0465": 4055,
      "0454": 4056,
      "0514": 4057,
      "0549": 4058,
      "d1024": 4059,
      "b0101010": 4060,
      "d162": 4061,
      "d164": 4062,
      "000000010": 4063,
      "681": 4064,
      "b1101010": 4065,
      "782": 4066,
      "hF7": 4067,
      "hFB": 4068,
      "0311": 4069,
      "0356": 4070,
      "0388": 4071,
      "0216": 4072,
      "0219": 4073,
      "h3F80": 4074,
      "hC0": 4075,
      "hCA": 4076,
      "0169": 4077,
      "h00000100": 4078,
      "0152": 4079,
      "0246": 4080,
      "0249": 4081,
      "0179": 4082,
      "0321": 4083,
      "0325": 4084,
      "0328": 4085,
      "0482": 4086,
      "0483": 4087,
      "0489": 4088,
      "0473": 4089,
      "0409": 4090,
      "0271": 4091,
      "0316": 4092,
      "0319": 4093,
      "0309": 4094,
      "0233": 4095,
      "0149": 4096,
      "0265": 4097,
      "0266": 4098,
      "0383": 4099,
      "0389": 4100,
      "0292": 4101,
      "0204": 4102,
      "0209": 4103,
      "0375": 4104,
      "512x36": 4105,
      "!!": 4106,
      "0102": 4107,
      "0106": 4108,
      "0109": 4109,
      "0118": 4110,
      "0137": 4111,
      "0228": 4112,
      "627": 4113,
      "714": 4114,
      "748": 4115,
      "812": 4116,
      "900": 4117,
      "A00": 4118,
      "0012": 4119,
      "0017": 4120,
      "0071": 4121,
      "0097": 4122,
      "&&~": 4123,
      "))+:": 4124,
      "d1000": 4125,
      "d184": 4126,
      "d181": 4127,
      "d224": 4128,
      "[('": 4129,
      "b00001001": 4130,
      "]}),.": 4131,
      "b0100000000": 4132,
      "hc4": 4133,
      "hc24": 4134,
      "0424": 4135,
      "0419": 4136,
      "0440": 4137,
      "0421": 4138,
      "0461": 4139,
      "0436": 4140,
      "0458": 4141,
      "0467": 4142,
      "h5F": 4143,
      "0532": 4144,
      "0001000": 4145,
      "0195": 4146,
      "991": 4147,
      "665": 4148,
      "691": 4149,
      "694": 4150,
      "hb9": 4151,
      "0364": 4152,
      "0330": 4153,
      "0361": 4154,
      "0224": 4155,
      "0217": 4156,
      "0280": 4157,
      "d204": 4158,
      "he1": 4159,
      "1011000": 4160,
      "ha9": 4161,
      "b1100011": 4162,
      "b00000001000": 4163,
      "h0400": 4164,
      "0164": 4165,
      "0166": 4166,
      "b00000100000": 4167,
      "b1101000": 4168,
      "0158": 4169,
      "0174": 4170,
      "0175": 4171,
      "0178": 4172,
      "0188": 4173,
      "0322": 4174,
      "0327": 4175,
      "0481": 4176,
      "0485": 4177,
      "0487": 4178,
      "0472": 4179,
      "0475": 4180,
      "0402": 4181,
      "0253": 4182,
      "0254": 4183,
      "0257": 4184,
      "0502": 4185,
      "0275": 4186,
      "0318": 4187,
      "0282": 4188,
      "0285": 4189,
      "0286": 4190,
      "0289": 4191,
      "0305": 4192,
      "0147": 4193,
      "0353": 4194,
      "0358": 4195,
      "0369": 4196,
      "0262": 4197,
      "0268": 4198,
      "0201": 4199,
      "0208": 4200,
      "0441": 4201,
      "0442": 4202,
      "0445": 4203,
      "0449": 4204,
      "0334": 4205,
      "0338": 4206,
      "0370": 4207,
      "0377": 4208,
      "h3F7FFF": 4209,
      "----------------": 4210,
      "notif0": 4211,
      "10100010000000101011110101110000": 4212,
      ",!": 4213,
      "0119": 4214,
      "0105": 4215,
      "0116": 4216,
      "0117": 4217,
      "0123": 4218,
      "0122": 4219,
      "0126": 4220,
      "0138": 4221,
      "0206": 4222,
      "0349": 4223,
      "0197": 4224,
      "2e": 4225,
      "611": 4226,
      "780": 4227,
      "840": 4228,
      "]>=": 4229,
      "qu": 4230,
      "{-": 4231,
      "0035": 4232,
      "0044": 4233,
      "0091": 4234,
      "0089": 4235,
      "endprimitive": 4236,
      "b1000001": 4237,
      "1020": 4238,
      "mos": 4239,
      "],|": 4240,
      "stru": 4241,
      "h0200": 4242,
      "0000000000000000000": 4243,
      "d185": 4244,
      "d189": 4245,
      "1002": 4246,
      "100101": 4247,
      "d231": 4248,
      "d229": 4249,
      "798": 4250,
      "h4F": 4251,
      "884": 4252,
      "887": 4253,
      "d511": 4254,
      "0431": 4255,
      "0415": 4256,
      "0423": 4257,
      "0426": 4258,
      "0490": 4259,
      "0452": 4260,
      "0498": 4261,
      "0453": 4262,
      "0462": 4263,
      "b011101": 4264,
      "0512": 4265,
      "0536": 4266,
      "0537": 4267,
      "d980": 4268,
      "b11111011": 4269,
      "702": 4270,
      "hfb": 4271,
      "0332": 4272,
      "0395": 4273,
      "0348": 4274,
      "0339": 4275,
      "0371": 4276,
      "0210": 4277,
      ")&&(~": 4278,
      "hFFC": 4279,
      "d202": 4280,
      "d207": 4281,
      "he7": 4282,
      "d248": 4283,
      "d249": 4284,
      "ha0": 4285,
      "ha6": 4286,
      "h000000000000000000000000000000": 4287,
      "h3f5": 4288,
      "0244": 4289,
      "b0000000100100000": 4290,
      "d4096": 4291,
      "0326": 4292,
      "0329": 4293,
      "b0011011": 4294,
      "0471": 4295,
      "0250": 4296,
      "0258": 4297,
      "0278": 4298,
      "0312": 4299,
      "0235": 4300,
      "0350": 4301,
      "0351": 4302,
      "0352": 4303,
      "0365": 4304,
      "0366": 4305,
      "0267": 4306,
      "0385": 4307,
      "0290": 4308,
      "0294": 4309,
      "0297": 4310,
      "0298": 4311,
      "0333": 4312,
      "b10110110": 4313,
      "hAAA": 4314,
      "packed": 4315,
      "struct": 4316,
      "0112": 4317,
      "0103": 4318,
      "0125": 4319,
      "0134": 4320,
      "0194": 4321,
      "0190": 4322,
      "0229": 4323,
      "0221": 4324,
      "664": 4325,
      "618": 4326,
      "621": 4327,
      "698": 4328,
      "845": 4329,
      "E00": 4330,
      "FA": 4331,
      "hAAAA": 4332,
      "nmos": 4333,
      "{|": 4334,
      "0094": 4335,
      "1088": 4336,
      "],(": 4337,
      "630": 4338,
      "b111101": 4339,
      "953": 4340,
      "954": 4341,
      "decoder": 4342,
      "ed8": 4343,
      "d346": 4344,
      "]}))": 4345,
      "b01000001": 4346,
      "885": 4347,
      "h20000000": 4348,
      "hc7": 4349,
      "0433": 4350,
      "0437": 4351,
      "0460": 4352,
      "0468": 4353,
      "0497": 4354,
      "0494": 4355,
      "0527": 4356,
      "0535": 4357,
      "b0010000000": 4358,
      "000100000": 4359,
      "d155": 4360,
      "902": 4361,
      "d169": 4362,
      "hb7": 4363,
      "hf1": 4364,
      "0363": 4365,
      "0355": 4366,
      "0212": 4367,
      "0223": 4368,
      "he3": 4369,
      "he4": 4370,
      "hec": 4371,
      "hee": 4372,
      "b01100100": 4373,
      "b1000011111111": 4374,
      "b00111110": 4375,
      "0167": 4376,
      "0176": 4377,
      "0185": 4378,
      "hda": 4379,
      "0480": 4380,
      "0477": 4381,
      "0508": 4382,
      "0272": 4383,
      "0393": 4384,
      "0234": 4385,
      "0145": 4386,
      "0386": 4387,
      "0293": 4388,
      "0443": 4389,
      "0446": 4390,
      "b10001000": 4391,
      "0378": 4392,
      "EEF": 4393,
      "0341": 4394,
      "0343": 4395,
      "0346": 4396,
      "0s": 4397,
      "0107": 4398,
      "0114": 4399,
      "0115": 4400,
      "0129": 4401,
      "0222": 4402,
      "676": 4403,
      "687": 4404,
      "658": 4405,
      "712": 4406,
      "718": 4407,
      "738": 4408,
      "705": 4409,
      "947": 4410,
      "949": 4411,
      "]\\": 4412,
      "b70": 4413,
      "f4": 4414,
      "hd7": 4415,
      "kx": 4416,
      "}={": 4417,
      "MODULE29": 4418,
      "(((~(": 4419,
      "d280": 4420,
      "1104": 4421,
      "b0001001": 4422,
      "882": 4423,
      "873": 4424,
      "874": 4425,
      "0450": 4426,
      "0466": 4427,
      "0511": 4428,
      "0513": 4429,
      "0517": 4430,
      "0530": 4431,
      "0540": 4432,
      "0521": 4433,
      "h8b": 4434,
      "h8d": 4435,
      "993": 4436,
      "994": 4437,
      "1100100": 4438,
      "1100110": 4439,
      "985": 4440,
      "783": 4441,
      "0396": 4442,
      "0380": 4443,
      "0227": 4444,
      "h106": 4445,
      "hfffe": 4446,
      "b00001000000": 4447,
      "****": 4448,
      "hC3": 4449,
      "0470": 4450,
      "0276": 4451,
      "0310": 4452,
      "0313": 4453,
      "b11111111111": 4454,
      "0392": 4455,
      "0550": 4456,
      "0359": 4457,
      "0362": 4458,
      "1000001100000": 4459,
      "0444": 4460,
      "0373": 4461,
      "0342": 4462,
      "0080000000": 4463,
      "b11110111": 4464,
      "EF01": 4465,
      "AAAAAAA": 4466,
      "0000000000000000000000000000000000000000000000000080000000": 4467,
      "1010001000000010101111010111000010100010000000101011110101110000": 4468,
      ")>": 4469,
      "0135": 4470,
      "659": 4471,
      "711": 4472,
      "732": 4473,
      "746": 4474,
      "745": 4475,
      "848": 4476,
      "858": 4477,
      "931": 4478,
      "923": 4479,
      "926": 4480,
      "929": 4481,
      "906": 4482,
      "9009": 4483,
      "A1": 4484,
      "f5": 4485,
      "hd1": 4486,
      "hd2": 4487,
      "had": 4488,
      "hed": 4489,
      "iq": 4490,
      "{'": 4491,
      "|~": 4492,
      "0095": 4493,
      "<=\"": 4494,
      "00001000": 4495,
      "1054": 4496,
      "101001": 4497,
      "h014": 4498,
      "d171": 4499,
      "d172": 4500,
      "d193": 4501,
      "965": 4502,
      "d214": 4503,
      "d220": 4504,
      "d228": 4505,
      "d226": 4506,
      "uniq": 4507,
      "h4444": 4508,
      "881": 4509,
      "101000000000000000000000": 4510,
      "h6C6": 4511,
      "00000010": 4512,
      "hcf": 4513,
      "0459": 4514,
      "0655": 4515,
      "0515": 4516,
      "0548": 4517,
      "0547": 4518,
      "0522": 4519,
      "0539": 4520,
      "0528": 4521,
      "0526": 4522,
      "0534": 4523,
      "0542": 4524,
      "????????????:": 4525,
      "9999": 4526,
      "909": 4527,
      "b1101110": 4528,
      "b1000111": 4529,
      "hb4": 4530,
      "h0000000000000001": 4531,
      "b11111101": 4532,
      "d209": 4533,
      "b0101000": 4534,
      "ha3": 4535,
      "d252": 4536,
      "hA8": 4537,
      "b00100101": 4538,
      "h00000010": 4539,
      "0552": 4540,
      "d480": 4541,
      "0337": 4542,
      "b10011000": 4543,
      "80808080": 4544,
      "unique": 4545,
      "*;": 4546,
      "/*": 4547,
      "696": 4548,
      "651": 4549,
      "727": 4550,
      "8x": 4551,
      "932": 4552,
      "]<": 4553,
      "di": 4554,
      "0062": 4555,
      "1123": 4556,
      "000000009009": 4557,
      "1500": 4558,
      "&&(!": 4559,
      "MODULE33": 4560,
      "VAR494": 4561,
      "d194": 4562,
      "d183": 4563,
      "(...": 4564,
      "1003": 4565,
      "d219": 4566,
      "1111000110": 4567,
      "h3fff": 4568,
      "794": 4569,
      "877": 4570,
      "h657": 4571,
      "0632": 4572,
      "0663": 4573,
      "0520": 4574,
      "0519": 4575,
      "0541": 4576,
      "b00010000000": 4577,
      "786": 4578,
      "hf9": 4579,
      "b0110110": 4580,
      "d203": 4581,
      "d205": 4582,
      "he2": 4583,
      "he5": 4584,
      "d236": 4585,
      "d239": 4586,
      "hCC": 4587,
      "h000003": 4588,
      ")/(": 4589,
      "0302": 4590,
      "0354": 4591,
      "10000011": 4592,
      "0345": 4593,
      "h9009000000009009": 4594,
      "::*;": 4595,
      "dist": 4596,
      "(...);": 4597,
      "-{": 4598,
      "763": 4599,
      "740": 4600,
      "728": 4601,
      "771": 4602,
      "742": 4603,
      "8B": 4604,
      "813": 4605,
      "836": 4606,
      "834": 4607,
      "925": 4608,
      "927": 4609,
      "hd4": 4610,
      "1156": 4611,
      "MODULE45": 4612,
      "))&&((": 4613,
      "d186": 4614,
      "b11000001": 4615,
      "1008": 4616,
      "(!(&": 4617,
      "1931": 4618,
      "d223": 4619,
      "d221": 4620,
      "b00000000010": 4621,
      "762": 4622,
      "h6C": 4623,
      "000000111100": 4624,
      "h7fff": 4625,
      "b1001010": 4626,
      "0623": 4627,
      "0516": 4628,
      "0525": 4629,
      "0533": 4630,
      "h810": 4631,
      "(|{": 4632,
      "b1111000000111100": 4633,
      "1010101010": 4634,
      "b0001000000000000": 4635,
      "hf2": 4636,
      "d206": 4637,
      "b00000000000000001": 4638,
      "h9d": 4639,
      "d243": 4640,
      "d244": 4641,
      "d245": 4642,
      "d247": 4643,
      "ha7": 4644,
      "d251": 4645,
      "b01100111": 4646,
      "b0000000100000000": 4647,
      "b10000101": 4648,
      "hD0": 4649,
      "0553": 4650,
      "10010100": 4651,
      "0643": 4652,
      "b01010101": 4653,
      "b01000010": 4654,
      "DBEEF": 4655,
      "b10111101": 4656,
      "CE01CE01CE01CE01": 4657,
      "\"./": 4658,
      "0t": 4659,
      "688": 4660,
      "678": 4661,
      "710": 4662,
      "724": 4663,
      "795": 4664,
      "730": 4665,
      "722": 4666,
      "788": 4667,
      "706": 4668,
      "743": 4669,
      "831": 4670,
      "832": 4671,
      "816": 4672,
      "835": 4673,
      "897": 4674,
      "924": 4675,
      "904": 4676,
      "901": 4677,
      "b90": 4678,
      "}{": 4679,
      "ence": 4680,
      "sequ": 4681,
      "1013": 4682,
      "1018": 4683,
      "10111": 4684,
      "d211": 4685,
      "b1011111111111111": 4686,
      "h4E": 4687,
      "h424": 4688,
      "h656": 4689,
      "hc5": 4690,
      "0531": 4691,
      "0538": 4692,
      "0544": 4693,
      "0545": 4694,
      "h8A": 4695,
      "b0101101": 4696,
      "b11111001": 4697,
      "fffffff": 4698,
      "982": 4699,
      "983": 4700,
      "693": 4701,
      "b01001001": 4702,
      "hb3": 4703,
      "hbef": 4704,
      "b1111111110": 4705,
      "h108": 4706,
      "b000000000000000001": 4707,
      "d241": 4708,
      "d246": 4709,
      "d230": 4710,
      "d234": 4711,
      "b11101111": 4712,
      "b0100011": 4713,
      "0507": 4714,
      "0551": 4715,
      "b00000010000": 4716,
      "h000000000000000000000000000000000000000000000000": 4717,
      "sequence": 4718,
      "0e": 4719,
      "1c": 4720,
      "672": 4721,
      "675": 4722,
      "716": 4723,
      "725": 4724,
      "747": 4725,
      "733": 4726,
      "736": 4727,
      "879": 4728,
      "850": 4729,
      "838": 4730,
      "859": 4731,
      "860": 4732,
      "919": 4733,
      "930": 4734,
      "979": 4735,
      "ae": 4736,
      "dba": 4737,
      "0021": 4738,
      "32D": 4739,
      "h032": 4740,
      "h034": 4741,
      "h059": 4742,
      "0000000000000000000000000": 4743,
      "d182": 4744,
      "d262": 4745,
      "d274": 4746,
      "111000000000000000000000": 4747,
      "4030": 4748,
      "h4D": 4749,
      "h427": 4750,
      "\")?": 4751,
      "b1001110": 4752,
      "hce": 4753,
      "0600": 4754,
      "0518": 4755,
      "0543": 4756,
      "???????????": 4757,
      "754": 4758,
      "5264": 4759,
      "d1252": 4760,
      "(|(~": 4761,
      "b11001010": 4762,
      "b0111101": 4763,
      "d242": 4764,
      "ha5": 4765,
      "d235": 4766,
      "b1011000": 4767,
      "hA2": 4768,
      "b0000010000000000": 4769,
      "h3F800": 4770,
      "hdf": 4771,
      "0554": 4772,
      "0558": 4773,
      "b0000001000000000": 4774,
      "b000000000000000000000000000000000000000000000000": 4775,
      ")\\": 4776,
      ")'(": 4777,
      "663": 4778,
      "715": 4779,
      "764": 4780,
      "719": 4781,
      "721": 4782,
      "734": 4783,
      "895": 4784,
      "839": 4785,
      "856": 4786,
      "853": 4787,
      "910": 4788,
      "971": 4789,
      "934": 4790,
      "907": 4791,
      "975": 4792,
      "B1": 4793,
      "c08": 4794,
      "hd9": 4795,
      "))]": 4796,
      "}}})": 4797,
      "VAR493": 4798,
      "h048": 4799,
      "1375": 4800,
      "1463": 4801,
      "b1110011": 4802,
      "1004": 4803,
      "b00000000100": 4804,
      "h4A": 4805,
      "h4C": 4806,
      "h6B": 4807,
      "h00000003": 4808,
      "0695": 4809,
      "0606": 4810,
      "0523": 4811,
      "0529": 4812,
      "0588": 4813,
      "770": 4814,
      "b11011111": 4815,
      "b10001110": 4816,
      "b01101110": 4817,
      "d233": 4818,
      "h3f4": 4819,
      "hA1": 4820,
      "b01100101": 4821,
      "b00100111": 4822,
      "h04000000": 4823,
      "hEA": 4824,
      "h00000080": 4825,
      "b00010100": 4826,
      "hdf1": 4827,
      "0560": 4828,
      "0555": 4829,
      "0556": 4830,
      "0557": 4831,
      "b11100100": 4832,
      "h0AAAAAAAAAAAAAAA": 4833,
      "FFFFFFFFFFFFFFFFFFFFFFFFFFFFFFFFFFFFFFFFFFFFFFFFFFFFFFFFFFFFFFFF": 4834,
      "403020100": 4835,
      "())": 4836,
      ")^": 4837,
      "677": 4838,
      "7000": 4839,
      "723": 4840,
      "779": 4841,
      "726": 4842,
      "729": 4843,
      "737": 4844,
      "744": 4845,
      "707": 4846,
      "741": 4847,
      "847": 4848,
      "830": 4849,
      "899": 4850,
      "890": 4851,
      "939": 4852,
      "945": 4853,
      "b80": 4854,
      "b44": 4855,
      "h114": 4856,
      "b1000000000": 4857,
      "1019": 4858,
      "1298": 4859,
      "MODULE31": 4860,
      "h070": 4861,
      "962": 4862,
      "1006": 4863,
      "8029": 4864,
      "111100000": 4865,
      "4080": 4866,
      "h391": 4867,
      "790": 4868,
      "h1FFF": 4869,
      "d384": 4870,
      "h0040": 4871,
      ">=(": 4872,
      "h726": 4873,
      "0629": 4874,
      "0577": 4875,
      "?????????????:": 4876,
      "d1514": 4877,
      "000000011": 4878,
      "d1180": 4879,
      "981": 4880,
      "111111111111": 4881,
      "hF9": 4882,
      "b01101101": 4883,
      "hff8": 4884,
      "b11101001": 4885,
      "h402": 4886,
      "b1010101": 4887,
      "hbf5": 4888,
      "0566": 4889,
      "}})};": 4890,
      "0559": 4891,
      "0640": 4892,
      "0000111010": 4893,
      "b0000000000000000000000000000000000000000": 4894,
      ")|(!": 4895,
      "695": 4896,
      "661": 4897,
      "731": 4898,
      "739": 4899,
      "756": 4900,
      "772": 4901,
      "787": 4902,
      "701": 4903,
      "864": 4904,
      "820": 4905,
      "871": 4906,
      "857": 4907,
      "893": 4908,
      "894": 4909,
      "964": 4910,
      "963": 4911,
      "996": 4912,
      "948": 4913,
      "980": 4914,
      "922": 4915,
      "976": 4916,
      "905": 4917,
      "946": 4918,
      "E01": 4919,
      "c0c": 4920,
      "d320": 4921,
      "1016": 4922,
      "3228": 4923,
      "))}}": 4924,
      "}}:": 4925,
      "h088": 4926,
      "9600": 4927,
      "}},(": 4928,
      "d300": 4929,
      "d4132": 4930,
      "d524": 4931,
      "h6F6": 4932,
      "h7FF": 4933,
      "d730": 4934,
      "0613": 4935,
      "0626": 4936,
      "0575": 4937,
      "0578": 4938,
      "0593": 4939,
      "0583": 4940,
      "0581": 4941,
      "00000000000000000000000000000000000000000000000000000000000000000000000000000000": 4942,
      "751": 4943,
      "0864": 4944,
      "773": 4945,
      "hF2": 4946,
      "hF5": 4947,
      "h0003": 4948,
      "b01101010": 4949,
      "b01101001": 4950,
      "b111111111": 4951,
      "h01000000": 4952,
      "b10000100": 4953,
      "hDEA": 4954,
      "0561": 4955,
      "0567": 4956,
      "0633": 4957,
      "0634": 4958,
      "b10000011": 4959,
      "h00010000": 4960,
      "h1C0DE4": 4961,
      "db7": 4962,
      "65536": 4963,
      "381C381C": 4964,
      "##": 4965,
      "1d": 4966,
      "10000000000": 4967,
      "200000": 4968,
      "6000": 4969,
      "755": 4970,
      "8F": 4971,
      "863": 4972,
      "855": 4973,
      "829": 4974,
      "876": 4975,
      "841": 4976,
      "892": 4977,
      "914": 4978,
      "995": 4979,
      "918": 4980,
      "988": 4981,
      "933": 4982,
      "937": 4983,
      "978": 4984,
      "CB": 4985,
      "fd": 4986,
      "with": 4987,
      "b10000000000000000": 4988,
      "32222": 4989,
      "1250": 4990,
      "h060": 4991,
      "b1111011": 4992,
      "b1111010": 4993,
      "4040": 4994,
      "b1011110": 4995,
      "b1010010": 4996,
      "]}},{": 4997,
      "1101111": 4998,
      "11011011": 4999,
      "b00011001": 5000,
      "h426": 5001,
      "hcd": 5002,
      "0610": 5003,
      "0614": 5004,
      "0618": 5005,
      "0653": 5006,
      "0667": 5007,
      "h5B": 5008,
      "0571": 5009,
      "0570": 5010,
      "0574": 5011,
      "0591": 5012,
      "{{{": 5013,
      "b1110001": 5014,
      "b11100010": 5015,
      "b00111010": 5016,
      "b01101111": 5017,
      "d2048": 5018,
      "hC8": 5019,
      "hB5": 5020,
      "hED": 5021,
      "11101111": 5022,
      "000010000000": 5023,
      "0562": 5024,
      "0569": 5025,
      "0647": 5026,
      "0649": 5027,
      "b0000001000": 5028,
      "0636": 5029,
      "h001F": 5030,
      "const": 5031,
      "33332222": 5032,
      "AAAAAAAAAAAAAAAAAAAAAAAAAAAAAAAAAAAAAAAAAAAAAAAAAAAAAAAAAAAAAAAAAAAAAAAA": 5033,
      "h444433332222": 5034,
      "!(&": 5035,
      ")<": 5036,
      "3FF": 5037,
      "811": 5038,
      "810": 5039,
      "817": 5040,
      "872": 5041,
      "852": 5042,
      "842": 5043,
      "898": 5044,
      "869": 5045,
      "891": 5046,
      "911": 5047,
      "921": 5048,
      "987": 5049,
      "977": 5050,
      "970": 5051,
      "943": 5052,
      ">[": 5053,
      "b800": 5054,
      "gram": 5055,
      "neg": 5056,
      "{(~(": 5057,
      "1012": 5058,
      "1014": 5059,
      "]<=#": 5060,
      "1546": 5061,
      "h031": 5062,
      "h044": 5063,
      "\",\"": 5064,
      "(~(&": 5065,
      "b10111100": 5066,
      "2800000000000000000000000000000000000000000000000000000000000000000000000000000000": 5067,
      "d336": 5068,
      "]}];": 5069,
      "d400": 5070,
      "d459": 5071,
      "h748": 5072,
      "h737": 5073,
      "d678": 5074,
      "b1001001": 5075,
      "hc27": 5076,
      "b0111001": 5077,
      "0631": 5078,
      "0625": 5079,
      "0602": 5080,
      "h5C": 5081,
      "d863": 5082,
      "0590": 5083,
      "0584": 5084,
      "0573": 5085,
      "b11111010": 5086,
      "1111111111111": 5087,
      "b10001001": 5088,
      "b00111001": 5089,
      "b10100001": 5090,
      "b00101100": 5091,
      "h0005": 5092,
      "h3FC": 5093,
      "b0000000000000000001": 5094,
      "b01110001": 5095,
      "hB8": 5096,
      "h02000000": 5097,
      "d32466": 5098,
      "hfffffff": 5099,
      "h000002800000000000000000000000000000000000000000000000000000000000000000000000000000000": 5100,
      "0637": 5101,
      "0639": 5102,
      "d509": 5103,
      "program": 5104,
      "h3F7FFFF": 5105,
      "2805": 5106,
      "C0FF": 5107,
      "(^(": 5108,
      "hae68": 5109,
      "FFFEFFFE": 5110,
      "h1C0DE4201": 5111,
      "d3246627": 5112,
      "h000002800000000000000000000000000000000000000000000000000000000000000000000000000000000080000000": 5113,
      ")][": 5114,
      "796": 5115,
      "775": 5116,
      "823": 5117,
      "825": 5118,
      "814": 5119,
      "818": 5120,
      "821": 5121,
      "843": 5122,
      "865": 5123,
      "854": 5124,
      "862": 5125,
      "940": 5126,
      "935": 5127,
      "972": 5128,
      "938": 5129,
      "?((": 5130,
      "a8": 5131,
      "d878": 5132,
      "f98": 5133,
      "h125": 5134,
      "1114": 5135,
      "1151": 5136,
      "====": 5137,
      "1017": 5138,
      "101111": 5139,
      "1078": 5140,
      "1520": 5141,
      "])|": 5142,
      "])^(": 5143,
      "b11101110": 5144,
      "11100000000": 5145,
      "b00011010": 5146,
      "d4000": 5147,
      "0615": 5148,
      "0627": 5149,
      "0628": 5150,
      "0650": 5151,
      "0675": 5152,
      "0652": 5153,
      "h5D": 5154,
      "h5E": 5155,
      "0596": 5156,
      "0576": 5157,
      "0592": 5158,
      "0597": 5159,
      "0585": 5160,
      "0589": 5161,
      "h8001": 5162,
      "69b2": 5163,
      "hF4": 5164,
      "hFA": 5165,
      "b01101011": 5166,
      "b11001110": 5167,
      "b000000000000000000000": 5168,
      "h204": 5169,
      "h205": 5170,
      "h3f2": 5171,
      "hB0": 5172,
      "b1000011": 5173,
      "h000007": 5174,
      "hDA": 5175,
      "b0100010": 5176,
      "b1111111111111000": 5177,
      "0642": 5178,
      "0644": 5179,
      "0648": 5180,
      "b11110110": 5181,
      "b00110011": 5182,
      "b11001000": 5183,
      "b10111110": 5184,
      "b440b9": 5185,
      "a4c": 5186,
      "E000E000E000E000": 5187,
      "512x72": 5188,
      "d118059": 5189,
      ",'": 5190,
      "7A": 5191,
      "749": 5192,
      "815": 5193,
      "827": 5194,
      "826": 5195,
      "844": 5196,
      "846": 5197,
      "849": 5198,
      "851": 5199,
      "867": 5200,
      "915": 5201,
      "916": 5202,
      "912": 5203,
      "944": 5204,
      "942": 5205,
      "ema": 5206,
      "mpl": 5207,
      "rnd": 5208,
      "simpl": 5209,
      "1179": 5210,
      "])}": 5211,
      "}}));": 5212,
      "2389": 5213,
      "2028": 5214,
      "1009": 5215,
      "d285": 5216,
      "1110001": 5217,
      "2299": 5218,
      "7999": 5219,
      "b00010010": 5220,
      "ff3": 5221,
      "]=={": 5222,
      "d416": 5223,
      "3432": 5224,
      "3720": 5225,
      "hc19": 5226,
      "h00002000": 5227,
      "0620": 5228,
      "0617": 5229,
      "0604": 5230,
      "0607": 5231,
      "0608": 5232,
      "0657": 5233,
      "0668": 5234,
      "0651": 5235,
      "0665": 5236,
      "0662": 5237,
      "0603": 5238,
      "0609": 5239,
      "0564": 5240,
      "0595": 5241,
      "0580": 5242,
      "0587": 5243,
      "0582": 5244,
      "0586": 5245,
      "d915": 5246,
      "b00100001": 5247,
      "0776": 5248,
      "90simpl": 5249,
      "11001111": 5250,
      "1100111": 5251,
      "b1111101": 5252,
      "b1000101": 5253,
      "b0110111": 5254,
      "b01111011": 5255,
      "d24349": 5256,
      "1011100": 5257,
      "h01F": 5258,
      "hfff8": 5259,
      "b0000100000000": 5260,
      "b1110110": 5261,
      "h3f3": 5262,
      "hC2": 5263,
      "b1100010": 5264,
      "h00000200": 5265,
      "b0000000100": 5266,
      "d4095": 5267,
      "b00110110": 5268,
      "0646": 5269,
      "hFFFFFFFFFFFF": 5270,
      ",\"%": 5271,
      "b0000000000111100": 5272,
      "b10011100": 5273,
      "h00000005": 5274,
      "65535": 5275,
      "d177088": 5276,
      "66666666": 5277,
      "7777777777777777": 5278,
      "emap": 5279,
      "90simplemap": 5280,
      "d2434970": 5281,
      ")}),": 5282,
      ".\",": 5283,
      "2FF": 5284,
      "4f": 5285,
      "6e": 5286,
      "819": 5287,
      "828": 5288,
      "861": 5289,
      "866": 5290,
      "941": 5291,
      "C76": 5292,
      "^~": 5293,
      "bal": 5294,
      "b43": 5295,
      "c00": 5296,
      "glo": 5297,
      "h115": 5298,
      "1135": 5299,
      "])&&(": 5300,
      "h024": 5301,
      "h013": 5302,
      "h026": 5303,
      "2444": 5304,
      "#()": 5305,
      "(!((": 5306,
      "(~{": 5307,
      "AAA": 5308,
      "],{(": 5309,
      "d268": 5310,
      "b1011010": 5311,
      "h388": 5312,
      "d355": 5313,
      "3520": 5314,
      "h425": 5315,
      "d448": 5316,
      "d458": 5317,
      "h2004": 5318,
      "101000001": 5319,
      "h6D": 5320,
      "0000001000": 5321,
      "b10011110": 5322,
      "0611": 5323,
      "0616": 5324,
      "0621": 5325,
      "0676": 5326,
      "0661": 5327,
      "0601": 5328,
      "0659": 5329,
      "0563": 5330,
      "0579": 5331,
      "0572": 5332,
      "0598": 5333,
      "0594": 5334,
      ")?((": 5335,
      "d1082": 5336,
      "b000100000000": 5337,
      "b1000100": 5338,
      "b10001100": 5339,
      "b00110001": 5340,
      "}:{": 5341,
      "b10010001": 5342,
      "hAE": 5343,
      "b0110010": 5344,
      "d1756": 5345,
      "b00100110": 5346,
      "0988": 5347,
      "b10000111": 5348,
      "h00000400": 5349,
      "b00010111": 5350,
      "h3F800001": 5351,
      "100101101": 5352,
      "0641": 5353,
      "0645": 5354,
      "h0fc": 5355,
      "0630": 5356,
      "0638": 5357,
      "b00100011": 5358,
      "d640": 5359,
      "b00000000000000000000000000000000000000000000000000": 5360,
      "b10100101": 5361,
      "b10010101": 5362,
      "b01011000": 5363,
      "b1111011111111111": 5364,
      "d56078": 5365,
      "h002A": 5366,
      "h00800000": 5367,
      "d21398": 5368,
      "notif1": 5369,
      "d66408": 5370,
      "global": 5371,
      "&{": 5372,
      "2c": 5373,
      "824": 5374,
      "822": 5375,
      "c25": 5376,
      "hAAAAAAAAAAAAAAAAAAAAAAAAAAAAAAAA": 5377,
      "h55555555555555555555555555555555": 5378,
      "um": 5379,
      "|!": 5380,
      "}*": 5381,
      "<={{": 5382,
      "enum": 5383,
      "1195": 5384,
      "b19": 5385,
      "10C": 5386,
      "1063": 5387,
      "1077": 5388,
      "3250": 5389,
      "1280": 5390,
      "MODULE35": 5391,
      "MODULE34": 5392,
      ")))?": 5393,
      "00000000000000000000000000000": 5394,
      "2424": 5395,
      "d272": 5396,
      "d266": 5397,
      "4797": 5398,
      "b00001011": 5399,
      "5587": 5400,
      "22D": 5401,
      "2232": 5402,
      "1129": 5403,
      "2892": 5404,
      "b00010011": 5405,
      "d368": 5406,
      "b010000000000": 5407,
      "h423": 5408,
      "d414": 5409,
      "d4427": 5410,
      "h009": 5411,
      "50479": 5412,
      "3430": 5413,
      "10100011": 5414,
      "3848": 5415,
      "h650": 5416,
      "0612": 5417,
      "0664": 5418,
      "0622": 5419,
      "0656": 5420,
      "0671": 5421,
      "0599": 5422,
      "FFFFFFF": 5423,
      "????????????": 5424,
      "??????????????:": 5425,
      "111111111": 5426,
      "hffa": 5427,
      "b00101111": 5428,
      "7417": 5429,
      "h105": 5430,
      "b10111010": 5431,
      "hC4": 5432,
      "hC5": 5433,
      "d326": 5434,
      "h08000000": 5435,
      "hE4": 5436,
      "b000001000000": 5437,
      "h00000020": 5438,
      "])?(": 5439,
      "h1234": 5440,
      "h151": 5441,
      "d2215": 5442,
      "h0706": 5443,
      "b00110100": 5444,
      "b00000000000010": 5445,
      "b01010100": 5446,
      "b10110101": 5447,
      "d88544": 5448,
      "b000000000100": 5449,
      "DEA": 5450,
      "F0F0": 5451,
      "d6715": 5452,
      "07070707": 5453,
      "60964": 5454,
      "0000000000000000000000000000000000000000000000000000000000000000000000000000000000000000000000000000000000000000000000000000000000000000000000000000000000000000000000000000000000000000000000000000000000000000000000000000000000000000000000000000000000000000": 5455,
      "}+{": 5456,
      "!\",": 5457,
      "%(": 5458,
      "'{": 5459,
      ",{(": 5460,
      "7c": 5461,
      "e35": 5462,
      "h111": 5463,
      "h124": 5464,
      "ng": 5465,
      "1144": 5466,
      "1166": 5467,
      "3139": 5468,
      "000000000000001": 5469,
      "3211": 5470,
      "))}})": 5471,
      "h021": 5472,
      "h035": 5473,
      "h090": 5474,
      "00000000000000000000000000": 5475,
      "2334": 5476,
      "9677": 5477,
      "1487": 5478,
      "b1100001": 5479,
      "b11000000000": 5480,
      "9585": 5481,
      "4883": 5482,
      "d264": 5483,
      "d279": 5484,
      "d288": 5485,
      "d278": 5486,
      "d282": 5487,
      "d289": 5488,
      "d286": 5489,
      "(\"##": 5490,
      "2720": 5491,
      "2768": 5492,
      "4062": 5493,
      "5568": 5494,
      "b0000000010": 5495,
      "2834": 5496,
      "2608": 5497,
      "110100": 5498,
      "d3689": 5499,
      "h420": 5500,
      "h4001": 5501,
      "d436": 5502,
      "h617": 5503,
      "h682": 5504,
      "000000111": 5505,
      "h7E": 5506,
      "b10011010": 5507,
      "hc26": 5508,
      "b0111010": 5509,
      "0696": 5510,
      "0605": 5511,
      "0666": 5512,
      "0690": 5513,
      "h5b9": 5514,
      "d800": 5515,
      "d8192": 5516,
      "h8F": 5517,
      "b001000000000": 5518,
      "0732": 5519,
      "0701": 5520,
      "0757": 5521,
      "b1111100": 5522,
      "b1101011": 5523,
      "b0001000000": 5524,
      "7047": 5525,
      "b1010001": 5526,
      "hF1": 5527,
      "h3F6": 5528,
      "b000000000000000000001": 5529,
      "h9000": 5530,
      "b0000100000": 5531,
      "h401": 5532,
      "hB2": 5533,
      "hEE": 5534,
      "00364": 5535,
      "))))))": 5536,
      "110010000": 5537,
      "hffffffffffffffff": 5538,
      "b000000000010": 5539,
      "b00110010": 5540,
      "....": 5541,
      "3952": 5542,
      "EE00EE00EE00EE00": 5543,
      "44444444": 5544,
      "d287769": 5545,
      "+{": 5546,
      "0m": 5547,
      "0CE": 5548,
      "|{": 5549,
      "00005": 5550,
      "async": 5551,
      "1120": 5552,
      "11000011": 5553,
      "1039": 5554,
      "1535": 5555,
      "1200": 5556,
      "1224": 5557,
      "MODULE36": 5558,
      "MODULE37": 5559,
      "6378": 5560,
      "h038": 5561,
      "9628": 5562,
      "25226": 5563,
      "1489": 5564,
      "95364": 5565,
      "1824": 5566,
      "d275": 5567,
      "d270": 5568,
      "d267": 5569,
      "d284": 5570,
      "2763": 5571,
      "h380": 5572,
      "h3ed": 5573,
      "h3956": 5574,
      "3934": 5575,
      "29344": 5576,
      "d332": 5577,
      "b01000000000000": 5578,
      "7657": 5579,
      "d450": 5580,
      "d4475": 5581,
      "h2de": 5582,
      "87800": 5583,
      "h6A": 5584,
      "h6F": 5585,
      "h6000": 5586,
      "h6666": 5587,
      "0670": 5588,
      "0669": 5589,
      "0691": 5590,
      "h533": 5591,
      "h8005": 5592,
      "d1023": 5593,
      "d1048": 5594,
      "0728": 5595,
      "0735": 5596,
      "0789": 5597,
      "7599": 5598,
      "9088": 5599,
      "0848": 5600,
      "b0100101": 5601,
      "b01001010": 5602,
      "b01001000": 5603,
      "9380": 5604,
      "b00101110": 5605,
      "]&(~": 5606,
      "b0110100": 5607,
      "b0110101": 5608,
      "8963": 5609,
      "b0111100": 5610,
      "b0111110": 5611,
      "b01010000": 5612,
      "h01A": 5613,
      "b10111011": 5614,
      "hA5": 5615,
      "b001111011": 5616,
      "b00000100000000": 5617,
      "hfffff": 5618,
      "hbf4": 5619,
      "6363636": 5620,
      "hD1": 5621,
      "20716": 5622,
      "b1111111100000000": 5623,
      "h07B": 5624,
      "b11111111111111111111111111": 5625,
      "0000010000001": 5626,
      "FE3": 5627,
      "d393": 5628,
      "????????????????????????????????????????????????": 5629,
      "0C0": 5630,
      "b8004": 5631,
      "h766": 5632,
      "CFCF": 5633,
      "h2e1": 5634,
      "b01000000010": 5635,
      "a2f98": 5636,
      "h428a2f98": 5637,
      "h0000000000000080": 5638,
      "h04200": 5639,
      "d65536": 5640,
      "d56078104": 5641,
      "h5555555555555555555555555555555555555555555555555555555555555555": 5642,
      "0a": 5643,
      "3c": 5644,
      "400000": 5645,
      "80000000": 5646,
      "9e": 5647,
      "a79": 5648,
      "a90": 5649,
      "b0000000000000000000000000000000000000000000000000000000000000000": 5650,
      "dfc": 5651,
      "eb0": 5652,
      "ing": 5653,
      "1118": 5654,
      "1130": 5655,
      "11db7": 5656,
      "31236": 5657,
      "31505": 5658,
      "b100000000000": 5659,
      "10639": 5660,
      "16175": 5661,
      "1215": 5662,
      "MODULE43": 5663,
      "}})?": 5664,
      "6412": 5665,
      "63028": 5666,
      "h017": 5667,
      "h022": 5668,
      "24067": 5669,
      "9692": 5670,
      "960299": 5671,
      "1378": 5672,
      "20144": 5673,
      "1876": 5674,
      "18Kb": 5675,
      "48768": 5676,
      "48581": 5677,
      "484062": 5678,
      "d276": 5679,
      "d283": 5680,
      "d281": 5681,
      "801156": 5682,
      "802805": 5683,
      "4786": 5684,
      "55110": 5685,
      "550988": 5686,
      "22139": 5687,
      "h390": 5688,
      "h3ea": 5689,
      "79218": 5690,
      "26177": 5691,
      "290635": 5692,
      "]}):(": 5693,
      "350324": 5694,
      "h4d2": 5695,
      "h4003": 5696,
      "d427": 5697,
      "619628": 5698,
      "h00F": 5699,
      "8748581": 5700,
      "36Kb": 5701,
      "d576": 5702,
      "104290635": 5703,
      "h7A": 5704,
      "h0000000000000": 5705,
      "d6198": 5706,
      "d7465": 5707,
      "1190252": 5708,
      "0680": 5709,
      "0687": 5710,
      "0699": 5711,
      "0677": 5712,
      "0660": 5713,
      "0658": 5714,
      "0674": 5715,
      "0684": 5716,
      "0689": 5717,
      "0673": 5718,
      "1285587": 5719,
      "h8D": 5720,
      "b00100000000000": 5721,
      "???????????????:": 5722,
      "0706": 5723,
      "0708": 5724,
      "0703": 5725,
      "07135": 5726,
      "b0101001": 5727,
      "b0101011": 5728,
      "4622139": 5729,
      "4578": 5730,
      "993720": 5731,
      "902334": 5732,
      "11001010": 5733,
      "4978": 5734,
      "d12407": 5735,
      "6048768": 5736,
      "b000100000000000": 5737,
      "690672": 5738,
      "693211": 5739,
      "b10001010": 5740,
      "b10001101": 5741,
      "d1490": 5742,
      "hF3": 5743,
      "hF6": 5744,
      "00416": 5745,
      "b000010000000": 5746,
      "h201": 5747,
      "h202": 5748,
      "105960299": 5749,
      "1063228": 5750,
      "AAAAAAAAAAAAAAAAAAAA": 5751,
      "1141063228": 5752,
      "10987800": 5753,
      "hA7": 5754,
      "b1010100": 5755,
      "b11000100": 5756,
      "b000000010000": 5757,
      "hB4": 5758,
      "b00111101": 5759,
      "0161463": 5760,
      "b0000010000": 5761,
      "h00000040": 5762,
      "131693211": 5763,
      "d260011": 5764,
      "h175": 5765,
      "h06B": 5766,
      "1379585": 5767,
      "CCCC": 5768,
      "10010111": 5769,
      "FE00": 5770,
      "b000000100000": 5771,
      "34907135": 5772,
      "d50913": 5773,
      "089758": 5774,
      "23900416": 5775,
      "h550": 5776,
      "232802805": 5777,
      "18432": 5778,
      "b10100110": 5779,
      "222144": 5780,
      "b10110111": 5781,
      "1877657": 5782,
      "d56289": 5783,
      "479278": 5784,
      "d80807": 5785,
      "28898": 5786,
      "b10101000": 5787,
      "3446412": 5788,
      "h3F800003": 5789,
      "2461285587": 5790,
      "h4a7": 5791,
      "30379218": 5792,
      "]&&~": 5793,
      "3383848": 5794,
      "EF00": 5795,
      "33733": 5796,
      "277484062": 5797,
      "d79713": 5798,
      "28931236": 5799,
      "h59f": 5800,
      "d952299": 5801,
      "2760864": 5802,
      "27695364": 5803,
      "3565264": 5804,
      "6352608": 5805,
      "357801156": 5806,
      "b10101011": 5807,
      "3360838": 5808,
      "48420716": 5809,
      "d147574": 5810,
      "49618": 5811,
      "4721379585": 5812,
      "6382760864": 5813,
      "string": 5814,
      "5591123": 5815,
      "5582028": 5816,
      "00780078": 5817,
      "d1399380": 5818,
      "d1572444": 5819,
      "d174550988": 5820,
      "57723900416": 5821,
      "0340352": 5822,
      "0038003800380038": 5823,
      "8681931": 5824,
      "d1734721379585": 5825,
      "10151054": 5826,
      "d457479278": 5827,
      "2019032": 5828,
      "ffffffffffffffffffffffff": 5829,
      "d8562461285587": 5830,
      "07092720": 5831,
      "d34655110": 5832,
      "12983430": 5833,
      "40807417": 5834,
      "d413207092720": 5835,
      "d7306352608": 5836,
      "15469677": 5837,
      "d6782834": 5838,
      "d32466273565264": 5839,
      "15208748581": 5840,
      "d118059357801156": 5841,
      "23899692": 5842,
      "34329088": 5843,
      "d1770888681931": 5844,
      "d2434970902334": 5845,
      "3520690672": 5846,
      "d108210151054": 5847,
      "d21398232802805": 5848,
      "d664085591123": 5849,
      "32503383848": 5850,
      "479747": 5851,
      "289216": 5852,
      "d442725226": 5853,
      "5047929344": 5854,
      "d2215089758": 5855,
      "d8854460964": 5856,
      "d67153360838": 5857,
      "4883968": 5858,
      "27685047929344": 5859,
      "d368934907135": 5860,
      "704704": 5861,
      "003646382760864": 5862,
      "d28776926177": 5863,
      "637849618": 5864,
      "276352": 5865,
      "d447516175": 5866,
      "7599350324": 5867,
      "8963079": 5868,
      "d560781044622139": 5869,
      "31505222144": 5870,
      "1063948420716": 5871,
      "6302857723900416": 5872,
      "240673934": 5873,
      "20144479747": 5874,
      "6196284883968": 5875,
      "1042906351104": 5876,
      "d61981063948420716": 5877,
      "d74656302857723900416": 5878,
      "45781190252": 5879,
      "9937206048768": 5880,
      "4978276352": 5881,
      "d1240740807417": 5882,
      "1059602993446412": 5883,
      "016146330379218": 5884,
      "131693211767": 5885,
      "d2600116196284883968": 5886,
      "d50913016146330379218": 5887,
      "18776573952": 5888,
      "d5628927685047929344": 5889,
      "d8080715469677": 5890,
      "d79713003646382760864": 5891,
      "289312365568": 5892,
      "d95229932503383848": 5893,
      "2769536433733": 5894,
      "d1475741059602993446412": 5895,
      "558202880": 5896,
      "d13993801042906351104": 5897,
      "d15724449937206048768": 5898,
      "d17455098831505222144": 5899,
      "d1734721379585289216": 5900,
      "d4574792782769536433733": 5901,
      "d8562461285587240673934": 5902,
      "d3465511012983430": 5903,
      "d4132070927201141063228": 5904,
      "d7306352608131693211767": 5905,
      "d67828343520690672": 5906,
      "d3246627356526423899692": 5907,
      "d1180593578011568963079": 5908,
      "d1770888681931637849618": 5909,
      "d2434970902334277484062": 5910,
      "d10821015105434329088": 5911,
      "d2139823280280510987800": 5912,
      "d664085591123558202880": 5913,
      "d442725226289312365568": 5914,
      "d221508975818776573952": 5915,
      "d885446096420144479747": 5916,
      "d6715336083845781190252": 5917,
      "d3689349071357599350324": 5918,
      "d2877692617715208748581": 5919,
      "d4475161754978276352": 5920,
      "d5607810446221392019032": 5921,
      "d6198106394842071628898": 5922,
      "d12407408074170340352": 5923,
      "d5091301614633037921870": 5924,
      "d8080715469677704704": 5925,
      "d7971300364638276086403": 5926,
      "d9522993250338384896": 5927,
      "d3465511012983430144": 5928,
      "d6782834352069067264": 5929,
      ")]);": 5930,
      "100000000000": 5931,
      "7F": 5932,
      "?}:": 5933,
      "a0000000000000000000000000000000000000000000000000000000000000000": 5934,
      "b74": 5935,
      "c0f": 5936,
      "e01": 5937,
      "hz": 5938,
      "h5555555555555555": 5939,
      "khz": 5940,
      "}[": 5941,
      "~(~(": 5942,
      "1160": 5943,
      "1185": 5944,
      "3185": 5945,
      "31TO": 5946,
      "00000000080000000": 5947,
      "1056": 5948,
      "15khz": 5949,
      "MODULE56": 5950,
      "MODULE41": 5951,
      "])^": 5952,
      "63TO": 5953,
      "h0d0": 5954,
      "000000000000000000000000000": 5955,
      "1344": 5956,
      "2025": 5957,
      "d295": 5958,
      "d261": 5959,
      "d271": 5960,
      "d277": 5961,
      "d265": 5962,
      "d269": 5963,
      "d273": 5964,
      "1111101": 5965,
      "FF0": 5966,
      "FFC": 5967,
      "22c": 5968,
      "b1010011": 5969,
      "h340": 5970,
      "h363636363636363636363636363636363": 5971,
      "b000000001000": 5972,
      "h10003": 5973,
      "fffa": 5974,
      "b010000000000000": 5975,
      "76c": 5976,
      "h00100000": 5977,
      "h00C0FF": 5978,
      "~(|(": 5979,
      "d532": 5980,
      "d656": 5981,
      "b10010011": 5982,
      "04950": 5983,
      "h00004": 5984,
      "0654": 5985,
      "h8E": 5986,
      "d923": 5987,
      "0700": 5988,
      "0721": 5989,
      "0736": 5990,
      "0744": 5991,
      "0741": 5992,
      "b0101100": 5993,
      "b0101110": 5994,
      "AAAAAAAAA00": 5995,
      "d16377": 5996,
      "b1111000000000000": 5997,
      "b00010000000000": 5998,
      "b10001111": 5999,
      "b0100111": 6000,
      "b0100110": 6001,
      "h3F0": 6002,
      "b1100100": 6003,
      "b00000000000000000001": 6004,
      "b0000000000000000000001": 6005,
      "b01111010": 6006,
      "1011000000000000": 6007,
      "125000000": 6008,
      "h203": 6009,
      "b1011101": 6010,
      "b1110100": 6011,
      "hCE": 6012,
      "b1010110": 6013,
      "d1971": 6014,
      "0x0CE": 6015,
      "h804": 6016,
      "h00000AAAAAAAAA00": 6017,
      "hD5": 6018,
      "h165": 6019,
      "b00110111": 6020,
      "hFFFFEB": 6021,
      "110101100": 6022,
      "b10010100": 6023,
      "b10010110": 6024,
      "636363636363636": 6025,
      "aa4": 6026,
      "b00101000": 6027,
      "243MUL": 6028,
      "b00000000010000": 6029,
      "b1100001000": 6030,
      "324243MUL": 6031,
      "0x0COETC": 6032,
      "6363636363636363636363636363636": 6033,
      "303030": 6034,
      "h000004a0000000000000000000000000000000000000000000000000000000000000000": 6035,
      "111110001111": 6036,
      "MUL0x0COETC": 6037,
      "03CF03CF": 6038,
      "0x0CONCATrgv1BITS31TO": 6039,
      "0x0CONCATrgv1BITS63TO": 6040,
      "00001000110": 6041,
      "h0000030000000000000000000000000000000000000000000000000080000000": 6042,
      "h3636363636363636363636363636363636363636363636363636363636363636": 6043,
      "h00C0FFEE": 6044,
      "04950MUL0x0COETC": 6045,
      "0x0CETC": 6046,
      "324243MUL0x0CETC": 6047,
      "h000004a000000000000000000000000000000000000000000000000000000000000000000000000080000000": 6048,
      "0x0CONCATrgv1BITS31TO04950MUL0x0COETC": 6049,
      "0x0CONCATrgv1BITS63TO324243MUL0x0CETC": 6050,
      ")]}": 6051,
      "2d": 6052,
      "3b": 6053,
      ":(~": 6054,
      "?)": 6055,
      "?{": 6056,
      "e80": 6057,
      "hb00": 6058,
      "|(!": 6059,
      "1112": 6060,
      "b10000000000000": 6061,
      "MODULE39": 6062,
      "MODULE38": 6063,
      "MODULE53": 6064,
      "(((~": 6065,
      "h015": 6066,
      "h0FF": 6067,
      "h036": 6068,
      "h045": 6069,
      "b1100010001": 6070,
      "b11000000010": 6071,
      "1717": 6072,
      "({{(": 6073,
      "19d": 6074,
      "d263": 6075,
      "b000011010": 6076,
      "b00000000011": 6077,
      "b00000000000100": 6078,
      "ed5": 6079,
      "ed6": 6080,
      "]=((": 6081,
      "1109": 6082,
      "11010011": 6083,
      "d347": 6084,
      "d376": 6085,
      "b0100000000000": 6086,
      "d432": 6087,
      "d422": 6088,
      "h7B": 6089,
      "4491": 6090,
      "b1001101": 6091,
      "b10011011": 6092,
      "hc000": 6093,
      "b01110011": 6094,
      "h00008": 6095,
      "0679": 6096,
      "0688": 6097,
      "0678": 6098,
      "0683": 6099,
      "d848": 6100,
      "d827": 6101,
      "h8C": 6102,
      "h8000000": 6103,
      "h8000000000000000": 6104,
      "b001000000000000": 6105,
      "0715": 6106,
      "0712": 6107,
      "0723": 6108,
      "0719": 6109,
      "0722": 6110,
      "0737": 6111,
      "0704": 6112,
      "0745": 6113,
      "0742": 6114,
      "0743": 6115,
      "d1195": 6116,
      "h0000000000001000": 6117,
      "b00111011": 6118,
      "b0011000110": 6119,
      "b0011101110": 6120,
      "b10100010": 6121,
      "h3F9": 6122,
      "]))};": 6123,
      "1001000000": 6124,
      "1001000000000000000000000": 6125,
      "b00000011010": 6126,
      "hFFE": 6127,
      "b00000000000000000": 6128,
      "h923": 6129,
      "b01111101": 6130,
      "1011101": 6131,
      "d257": 6132,
      "d259": 6133,
      "b00001000000000": 6134,
      "hCB": 6135,
      "hC080": 6136,
      "b00000001000000": 6137,
      "d322": 6138,
      "h00000800": 6139,
      "~|{": 6140,
      "~|((": 6141,
      "h190": 6142,
      "]}})|": 6143,
      "b01110111": 6144,
      "d479": 6145,
      "h3F7F": 6146,
      "0767": 6147,
      "249249": 6148,
      "h69a": 6149,
      "h100002": 6150,
      "b1010101010101010": 6151,
      "a4f": 6152,
      "b1101001010": 6153,
      "cd218": 6154,
      "b1111110010100": 6155,
      "F000F000F000F000": 6156,
      "e1f": 6157,
      "000C000C000C000C": 6158,
      "\")));": 6159,
      ".\"": 6160,
      ".\");": 6161,
      "2B": 6162,
      "3f": 6163,
      "5E": 6164,
      "6ce": 6165,
      "7f": 6166,
      "BIT": 6167,
      "[-": 6168,
      "^((": 6169,
      "h116": 6170,
      "h118": 6171,
      "hd192": 6172,
      "hAAAAAAAAAAAAAAAAAAAAAAAAAAAAAAAAAAAAAAAAAAAAAAAAAAAAAAAAAAAAAAAA": 6173,
      "tra": 6174,
      "{~(": 6175,
      "|((": 6176,
      "}],": 6177,
      "3147": 6178,
      "b1000000000000": 6179,
      "1047": 6180,
      "1030": 6181,
      "1040": 6182,
      "1050": 6183,
      "1074": 6184,
      "MODULE48": 6185,
      "MODULE47": 6186,
      "MODULE40": 6187,
      "MODULE55": 6188,
      "MODULE44": 6189,
      "MODULE46": 6190,
      "MODULE42": 6191,
      "640000": 6192,
      "h0b0": 6193,
      "h023": 6194,
      "h047": 6195,
      "h028": 6196,
      "h0AAAAAAAAAAAAAAAAAAAAAAAAAAAAAAAA": 6197,
      "d2147": 6198,
      "b1011001": 6199,
      "]=~(": 6200,
      "1108": 6201,
      "d360": 6202,
      "):((": 6203,
      "h40004": 6204,
      "d464": 6205,
      "d440": 6206,
      "h2005": 6207,
      "000001000": 6208,
      "1010000000000000000000000": 6209,
      "d500": 6210,
      "h796": 6211,
      "h7137": 6212,
      "04h": 6213,
      "0698": 6214,
      "0692": 6215,
      "0697": 6216,
      "0693": 6217,
      "0682": 6218,
      "0694": 6219,
      "0681": 6220,
      "0686": 6221,
      "h8cc": 6222,
      "b0010000000000": 6223,
      "b00100000000000000": 6224,
      "0711": 6225,
      "0716": 6226,
      "0724": 6227,
      "0713": 6228,
      "0714": 6229,
      "0720": 6230,
      "0717": 6231,
      "0730": 6232,
      "0740": 6233,
      "0756": 6234,
      "0734": 6235,
      "0702": 6236,
      "b0101111": 6237,
      "49b": 6238,
      "b1101100": 6239,
      "b11011010": 6240,
      "b0001000000000": 6241,
      "b10001011": 6242,
      "b0100100000": 6243,
      "hf40": 6244,
      "b001110100": 6245,
      "b00101001": 6246,
      "hF8": 6247,
      "b1100101": 6248,
      "h109": 6249,
      "hFF4": 6250,
      "hFFD": 6251,
      "b000000000000000000": 6252,
      "b000000000000000000000001": 6253,
      "h9F": 6254,
      "]}}}": 6255,
      "d312": 6256,
      "hCD": 6257,
      "h186": 6258,
      "hBE": 6259,
      "h080000": 6260,
      "hE1": 6261,
      "hE3": 6262,
      "h03c": 6263,
      "h03d": 6264,
      "d408": 6265,
      "b00000000100000": 6266,
      "b01000110": 6267,
      "b111111111111111111": 6268,
      "be5": 6269,
      "d639": 6270,
      "b00000010000000": 6271,
      "b01010110": 6272,
      "18431": 6273,
      "b10100111": 6274,
      "hffffffffffffffffffffffffffffffff": 6275,
      "bfe8": 6276,
      "c6f": 6277,
      "005c": 6278,
      "b10110100": 6279,
      "fc2": 6280,
      ")|(~": 6281,
      "0768": 6282,
      "dc3": 6283,
      "h78a5": 6284,
      "100000000100000000": 6285,
      "b000000000100000": 6286,
      "110110110": 6287,
      ")&(!": 6288,
      "b000000000010000": 6289,
      "b00000000001000": 6290,
      "b10111000": 6291,
      "h200800": 6292,
      "h4c11db7": 6293,
      "h40000004": 6294,
      "h81c2": 6295,
      "hfe000000": 6296,
      "b5dba": 6297,
      "h00080000": 6298,
      "he9b5dba": 6299,
      "11110111010": 6300,
      "hbef9": 6301,
      "h3956c25": 6302,
      "tran": 6303,
      "3e": 6304,
      "5A": 6305,
      "C00": 6306,
      "a24": 6307,
      "c92": 6308,
      "ed0": 6309,
      "fc7": 6310,
      "h1111": 6311,
      "h103": 6312,
      "h1001": 6313,
      "h637": 6314,
      "ps": 6315,
      "{\"": 6316,
      "{(!": 6317,
      "1116": 6318,
      "1136": 6319,
      "1080": 6320,
      "1055": 6321,
      "1059": 6322,
      "1093": 6323,
      "MODULE52": 6324,
      "MODULE51": 6325,
      "MODULE54": 6326,
      "64b": 6327,
      "6351": 6328,
      "h033": 6329,
      "h068": 6330,
      "9614": 6331,
      "1425": 6332,
      "b1100000000": 6333,
      "b11101010": 6334,
      "b11101011": 6335,
      "2023": 6336,
      "10010010": 6337,
      "1818": 6338,
      "1847": 6339,
      "48774": 6340,
      "d2000": 6341,
      "d260": 6342,
      "27c": 6343,
      "b10110011": 6344,
      "h3e8": 6345,
      "b0000000011100000": 6346,
      "h10001": 6347,
      "h10000001": 6348,
      "1102": 6349,
      "29296": 6350,
      "d363": 6351,
      "d340": 6352,
      "d352": 6353,
      "h40002": 6354,
      "d413": 6355,
      "d428": 6356,
      "d433": 6357,
      "d492": 6358,
      "d494": 6359,
      "h2001": 6360,
      "8709": 6361,
      "3437": 6362,
      "h757": 6363,
      "d605": 6364,
      "hc67": 6365,
      "b0111011": 6366,
      "h000010": 6367,
      "0685": 6368,
      "d819": 6369,
      ")))}}": 6370,
      "?????????????": 6371,
      "07C": 6372,
      "0710": 6373,
      "0718": 6374,
      "0727": 6375,
      "0739": 6376,
      "0726": 6377,
      "0733": 6378,
      "0738": 6379,
      "0705": 6380,
      "0754": 6381,
      "b1101001": 6382,
      "b0000011111": 6383,
      "hf0f": 6384,
      "h00040000": 6385,
      "h00000000000000000000": 6386,
      "h107": 6387,
      "hFF0": 6388,
      "b00000000000000000000": 6389,
      "h927": 6390,
      "b01010001": 6391,
      "acc": 6392,
      "???????????????????????:": 6393,
      "d258": 6394,
      "b000010000000000": 6395,
      "b1011100": 6396,
      "hC6": 6397,
      "h184": 6398,
      "d304": 6399,
      "b0000000100000": 6400,
      "b000000010000000": 6401,
      "h302e": 6402,
      "1110111": 6403,
      "b110100000": 6404,
      "h1429296": 6405,
      "hD4": 6406,
      "hDC": 6407,
      "hDD": 6408,
      "h152": 6409,
      "b000000001000000": 6410,
      "b01000100": 6411,
      "0802": 6412,
      "h243185": 6413,
      "b000000100000000": 6414,
      "b0000001000000": 6415,
      "h1b6": 6416,
      "h2748774": 6417,
      "87814": 6418,
      "218DF": 6419,
      "b10011101": 6420,
      "005a": 6421,
      "ba0001": 6422,
      "h1003": 6423,
      "b01011100": 6424,
      "bcb5": 6425,
      "h0000000C": 6426,
      "0760": 6427,
      "0761": 6428,
      "h002A5": 6429,
      "E0D": 6430,
      ")&(~": 6431,
      "b1111000011110000": 6432,
      "BF2": 6433,
      "A6C": 6434,
      "h983": 6435,
      "hb5c0f": 6436,
      "C001C001C001C001": 6437,
      "h12835": 6438,
      "!!!": 6439,
      "DEADBEEF": 6440,
      "h53380": 6441,
      "hb5c0fbc": 6442,
      ":~": 6443,
      "=\",": 6444,
      "A110": 6445,
      "A00000": 6446,
      "a85": 6447,
      "c66": 6448,
      "c87814": 6449,
      "h113": 6450,
      "h123": 6451,
      "h122": 6452,
      "sh": 6453,
      "1125": 6454,
      "1147": 6455,
      "1150": 6456,
      "b0a9": 6457,
      "b0bcb5": 6458,
      "31C": 6459,
      "31a": 6460,
      "31c66": 6461,
      "b1c5": 6462,
      "b100000000000000": 6463,
      "b1fe": 6464,
      "1048": 6465,
      "1029": 6466,
      "1071": 6467,
      "1060": 6468,
      "1098": 6469,
      "1065": 6470,
      "1069": 6471,
      "1084": 6472,
      "1081": 6473,
      "1089": 6474,
      "1586": 6475,
      "1257": 6476,
      "1258": 6477,
      "MODULE50": 6478,
      "MODULE49": 6479,
      "MODULE57": 6480,
      "MODULE62": 6481,
      "((&(~": 6482,
      "])*(": 6483,
      "00020": 6484,
      "h039": 6485,
      "h046": 6486,
      "h058": 6487,
      "h043": 6488,
      "h0AAAAAAAAAAAAAAAA": 6489,
      "2435": 6490,
      "2300": 6491,
      "2344": 6492,
      "??,": 6493,
      "1300": 6494,
      "1468": 6495,
      "2044": 6496,
      "100111": 6497,
      "1001110": 6498,
      "180000": 6499,
      "4826": 6500,
      "1999": 6501,
      "d296": 6502,
      "d2112": 6503,
      "4796": 6504,
      "1111110": 6505,
      "1111000000": 6506,
      "11111010": 6507,
      "3015": 6508,
      "111f1": 6509,
      "deb1fe": 6510,
      "h10004": 6511,
      "1103": 6512,
      "d348": 6513,
      "d377": 6514,
      "d383": 6515,
      ")-(": 6516,
      "]=='": 6517,
      "h415": 6518,
      "h4004": 6519,
      "h40003": 6520,
      "h4ed8": 6521,
      "88da": 6522,
      "d424": 6523,
      "d496": 6524,
      "d417": 6525,
      "d456": 6526,
      "d434": 6527,
      "d499": 6528,
      "d468": 6529,
      "d465": 6530,
      "d493": 6531,
      "7200": 6532,
      "~(^": 6533,
      "h659": 6534,
      "h732": 6535,
      "h736": 6536,
      "h746": 6537,
      "hc76c": 6538,
      "abb": 6539,
      "06a7": 6540,
      "h5d7": 6541,
      "h8008": 6542,
      "000100001": 6543,
      "0731": 6544,
      "0725": 6545,
      "0755": 6546,
      "0771": 6547,
      "0752": 6548,
      "0758": 6549,
      "0770": 6550,
      "b01011001": 6551,
      "b01011011": 6552,
      "b01010011": 6553,
      "b01010010": 6554,
      "b01011010": 6555,
      "d1516": 6556,
      "990624": 6557,
      "0800": 6558,
      "0859": 6559,
      "1010110010": 6560,
      "b00010000000000000": 6561,
      "92c6f": 6562,
      "b01001111": 6563,
      "b01001100": 6564,
      "b11100001": 6565,
      "00100000": 6566,
      "b0011100100000": 6567,
      "b10100011": 6568,
      "b0010111110001111": 6569,
      "h000000000000000000000": 6570,
      "b111111110": 6571,
      "]))^((": 6572,
      "81a6": 6573,
      "]}}:": 6574,
      "b000111010000": 6575,
      "he49b": 6576,
      "b011110000": 6577,
      "b01111001": 6578,
      "ha450": 6579,
      "hab1c5": 6580,
      "ha81a6": 6581,
      "b10110001": 6582,
      "b1110101": 6583,
      "b111011110": 6584,
      "h3fe": 6585,
      "h3f800000": 6586,
      "h403": 6587,
      "hA4": 6588,
      "hA6": 6589,
      "hA9": 6590,
      "hAF": 6591,
      "hC1": 6592,
      "hCF": 6593,
      "b1010111": 6594,
      "h180": 6595,
      "11010000": 6596,
      "d1942": 6597,
      "hBB": 6598,
      "d328": 6599,
      "hE8": 6600,
      "hEB": 6601,
      "b0011111110": 6602,
      "b00111110100": 6603,
      "h80deb1fe": 6604,
      "b000001000000000": 6605,
      "h000006": 6606,
      "])?~": 6607,
      "hbf1": 6608,
      "hbf2": 6609,
      "hbf597": 6610,
      "h06ca": 6611,
      "d405": 6612,
      "b001101110110": 6613,
      "(((((((": 6614,
      "hd807": 6615,
      "h19a4c": 6616,
      "befffa": 6617,
      "10011000": 6618,
      "h240c": 6619,
      "e819": 6620,
      "CE0": 6621,
      "b000000000000100": 6622,
      "00011000": 6623,
      "b01010111": 6624,
      "h1e376": 6625,
      "h27b70": 6626,
      "b10010111": 6627,
      "b0000011010110000": 6628,
      "hFFFDD": 6629,
      "b0000000000100": 6630,
      "d472": 6631,
      "c7dc3": 6632,
      "bf174": 6633,
      "h34b0bcb5": 6634,
      "b0001001111000110": 6635,
      "b4408": 6636,
      "bc9": 6637,
      "aa98": 6638,
      "h00000007": 6639,
      "b0010100001000110": 6640,
      "178f2": 6641,
      "0762": 6642,
      "11110010": 6643,
      "b8b70": 6644,
      "b0011001111000110": 6645,
      "dc06a7": 6646,
      "h76f9": 6647,
      "h002BF2": 6648,
      "b000000000000010": 6649,
      "h10000004": 6650,
      "h72be5": 6651,
      "b000000000001000": 6652,
      "d799": 6653,
      "e5152": 6654,
      "b00101011": 6655,
      "b00100101100": 6656,
      "cca4f": 6657,
      "484aa": 6658,
      "b0000000000000011": 6659,
      "327c8": 6660,
      "b0000000101110000": 6661,
      "h84c87814": 6662,
      "h5cb0a9": 6663,
      "a3f7": 6664,
      "e6ff3": 6665,
      "1010101010101010": 6666,
      "h90befffa": 6667,
      "636f": 6668,
      "a1cc": 6669,
      "b110000010": 6670,
      "hc6e00": 6671,
      "h00001E": 6672,
      "b11011010011": 6673,
      "hd5a79": 6674,
      "h9bdc06a7": 6675,
      "ha831c66": 6676,
      "hd6990624": 6677,
      "ha2bfe8": 6678,
      "hefbe": 6679,
      "1100100010": 6680,
      "22222222": 6681,
      "h3f1b74": 6682,
      "b0010101011010011": 6683,
      "h050403020100": 6684,
      "f82a4": 6685,
      "b1101010100101101": 6686,
      "hc24b8b70": 6687,
      "h106aa": 6688,
      "b1101110100100": 6689,
      "h391c0c": 6690,
      "b1111010111111": 6691,
      "h748f82": 6692,
      "hc19bf174": 6693,
      "h650a7": 6694,
      "h682e6ff3": 6695,
      "h5b9cca4f": 6696,
      "h2de92c6f": 6697,
      "h766a0": 6698,
      "h4d2c6": 6699,
      "h550c7dc3": 6700,
      "h4a7484aa": 6701,
      "h59f111f1": 6702,
      "22c85": 6703,
      "hb00327c8": 6704,
      "b0000000001100000": 6705,
      "b0011000110111100": 6706,
      "h923f82a4": 6707,
      "6ceb": 6708,
      "hd192e819": 6709,
      "h71374491": 6710,
      "h8cc70": 6711,
      "h78a5636f": 6712,
      "h81c2c92": 6713,
      "he9b5dba5": 6714,
      "hbef9a3f7": 6715,
      "h3956c25b": 6716,
      "hc67178f2": 6717,
      "h92722c85": 6718,
      "h243185be": 6719,
      "h2748774c": 6720,
      "h983e5152": 6721,
      "h4ed8aa4": 6722,
      "hc76c51": 6723,
      "he49b69": 6724,
      "ha4506ceb": 6725,
      "hab1c5ed5": 6726,
      "ha81a664b": 6727,
      "hbf597fc7": 6728,
      "h06ca6351": 6729,
      "hd807aa98": 6730,
      "h19a4c116": 6731,
      "h240ca1cc": 6732,
      "h27b70a85": 6733,
      "h76f988da": 6734,
      "h72be5d74": 6735,
      "h5cb0a9dc": 6736,
      "hc6e00bf": 6737,
      "h3f1b74ee": 6738,
      "h391c0cb3": 6739,
      "h81c2c92e": 6740,
      "!((!": 6741,
      ")'": 6742,
      "-((": 6743,
      "1b": 6744,
      "A090": 6745,
      "]/": 6746,
      "h119": 6747,
      "{&": 6748,
      "1132": 6749,
      "1163": 6750,
      "1180": 6751,
      "1155": 6752,
      "1146": 6753,
      "1032": 6754,
      "1095": 6755,
      "1079": 6756,
      "1038": 6757,
      "3213": 6758,
      "12000": 6759,
      "1222": 6760,
      "MODULE59": 6761,
      "MODULE60": 6762,
      "MODULE58": 6763,
      "((~((": 6764,
      "))];": 6765,
      "))};": 6766,
      ")))));": 6767,
      "))+(": 6768,
      "))&&(": 6769,
      "])&(": 6770,
      "}}}),": 6771,
      "long": 6772,
      "h025": 6773,
      "h0AA": 6774,
      "h037": 6775,
      "h099": 6776,
      "h049": 6777,
      "h054": 6778,
      "250000": 6779,
      "25000": 6780,
      "2597": 6781,
      "9520": 6782,
      "1879": 6783,
      "d290": 6784,
      "1111000000000000000000000": 6785,
      "3034": 6786,
      "2770": 6787,
      "11100000000000000000000000": 6788,
      "b10110010": 6789,
      "h398": 6790,
      "h392": 6791,
      "h384": 6792,
      "h389": 6793,
      "7980": 6794,
      "h131": 6795,
      "h196": 6796,
      "h1FF": 6797,
      "1106": 6798,
      "1107": 6799,
      "2949": 6800,
      "d331": 6801,
      "d344": 6802,
      "h421": 6803,
      "h4002": 6804,
      "d491": 6805,
      "h231": 6806,
      "h0018": 6807,
      "3625": 6808,
      "3655": 6809,
      "2565": 6810,
      "101000000": 6811,
      "d510": 6812,
      "h618": 6813,
      "h626": 6814,
      "1044": 6815,
      "1046": 6816,
      "h727": 6817,
      "d652": 6818,
      "hc23": 6819,
      "b01110010": 6820,
      "0763": 6821,
      "0729": 6822,
      "0750": 6823,
      "0746": 6824,
      "0749": 6825,
      "0759": 6826,
      "0783": 6827,
      "b01011111": 6828,
      "4545": 6829,
      "10101011": 6830,
      "b000001111": 6831,
      "hbea": 6832,
      "hbbe": 6833,
      "b00101101": 6834,
      "h3F4": 6835,
      "h3F5": 6836,
      "b00000000000000000000001": 6837,
      "8624": 6838,
      "d313": 6839,
      "b00001000000000000": 6840,
      "d2388": 6841,
      "b10111001": 6842,
      "b10101111": 6843,
      "b10101100": 6844,
      "b10101101": 6845,
      "hB3": 6846,
      "b0000010000000": 6847,
      "h140": 6848,
      "hD8": 6849,
      "hD9": 6850,
      "h157": 6851,
      "h15000000": 6852,
      "h0680": 6853,
      "b01000111": 6854,
      "b01000101": 6855,
      "0809": 6856,
      "b1111111111111": 6857,
      "h134": 6858,
      "00001100011": 6859,
      "d392": 6860,
      "d488": 6861,
      "d507": 6862,
      "b01110100": 6863,
      "b0011100000": 6864,
      "hFFFC": 6865,
      "h646": 6866,
      "0769": 6867,
      "b00000000001000000": 6868,
      "36864": 6869,
      "b10101110": 6870,
      "]}:{": 6871,
      "3C1": 6872,
      "h00400000": 6873,
      "b0011111111101001": 6874,
      "h04016": 6875,
      "********": 6876,
      "b1111111110111111": 6877,
      "hfffffff8": 6878,
      "hAAAAAAAAAAAAAAAAAAAAAAAAAAAAAAAAAAAAAAAAAAAAAAAAAAAA": 6879,
      "10C70": 6880,
      "b1111110010100111": 6881,
      "h14292967": 6882,
      "hb5c0fbcf": 6883,
      "longint": 6884,
      "1000000000000": 6885,
      "4b": 6886,
      "4e": 6887,
      "7b": 6888,
      "8f": 6889,
      "@%": 6890,
      "E69": 6891,
      "]]:": 6892,
      "eff": 6893,
      "h126": 6894,
      "q18": 6895,
      "{\");": 6896,
      "{((((((((": 6897,
      "0000111100": 6898,
      "assum": 6899,
      "1113": 6900,
      "1176": 6901,
      "1134": 6902,
      "1138": 6903,
      "1159": 6904,
      "1142": 6905,
      "1064": 6906,
      "1028": 6907,
      "1072": 6908,
      "1034": 6909,
      "1066": 6910,
      "1067": 6911,
      "1092": 6912,
      "1097": 6913,
      "1082": 6914,
      "1536": 6915,
      "])||(": 6916,
      "64337": 6917,
      "VAR496": 6918,
      "h096": 6919,
      "h029": 6920,
      "h061": 6921,
      "h094": 6922,
      "96e": 6923,
      "1330": 6924,
      "1479": 6925,
      "b11110010": 6926,
      "4801": 6927,
      "19200": 6928,
      "d298": 6929,
      "2745": 6930,
      "1110000000000000000000000": 6931,
      "4060": 6932,
      "h3000": 6933,
      "h382": 6934,
      "b0000000000010": 6935,
      "1121": 6936,
      "h10002": 6937,
      "2992": 6938,
      "d395": 6939,
      "d371": 6940,
      "b01000011": 6941,
      "b01000000000000000": 6942,
      "d411": 6943,
      "d415": 6944,
      "d463": 6945,
      "d497": 6946,
      "h2003": 6947,
      "h2002": 6948,
      "34F": 6949,
      "1041": 6950,
      "1049": 6951,
      "b01100000000": 6952,
      "h00003FF": 6953,
      "h5ff": 6954,
      "0748": 6955,
      "0747": 6956,
      "0751": 6957,
      "0753": 6958,
      "0785": 6959,
      "b01011110": 6960,
      "9903": 6961,
      "1100110110": 6962,
      "10101001": 6963,
      "b11100011": 6964,
      "h000100": 6965,
      "h00080": 6966,
      "h000400": 6967,
      "]))?": 6968,
      "9429": 6969,
      "b0000000000000000000": 6970,
      "h90000000": 6971,
      "b00011101": 6972,
      "1011000000000000000000000": 6973,
      "d318": 6974,
      "105000": 6975,
      "b11101101": 6976,
      "h401F": 6977,
      "hAB": 6978,
      "hC9": 6979,
      "b011100000000": 6980,
      "b10101001": 6981,
      "h181": 6982,
      "h188": 6983,
      "b00000001000000000": 6984,
      "1101000000000000000000000": 6985,
      "hB1": 6986,
      "hB9": 6987,
      "h8018": 6988,
      "b00000100000000000": 6989,
      "h3030": 6990,
      "h143": 6991,
      "hD7": 6992,
      "b0000000111": 6993,
      "h150": 6994,
      "h174": 6995,
      "d401": 6996,
      "h164": 6997,
      "b0000000010000": 6998,
      "b00000000100000000": 6999,
      "b00110101": 7000,
      "h1f0": 7001,
      "100101010000": 7002,
      "d399": 7003,
      "b00000010000000000": 7004,
      "d505": 7005,
      "d506": 7006,
      "h3210": 7007,
      "b01110101": 7008,
      "h1a6": 7009,
      "!(!(": 7010,
      "d470": 7011,
      "h001E": 7012,
      "640q18": 7013,
      "0765": 7014,
      "0766": 7015,
      "h3F80000D": 7016,
      "h4000002": 7017,
      "b11010110": 7018,
      "b0000000001000": 7019,
      "b00000000010000000": 7020,
      "25388": 7021,
      "b00000000000001000": 7022,
      "338640q18": 7023,
      "b2138": 7024,
      "b00000000000100000": 7025,
      "65539": 7026,
      "100100100100": 7027,
      "b11101000": 7028,
      "1C1": 7029,
      "b00000000000000100": 7030,
      "h71c": 7031,
      "33333333": 7032,
      "D5D5": 7033,
      "b00000000000010000": 7034,
      "b1100111001": 7035,
      "b00000000000000010": 7036,
      "{{{{{{": 7037,
      ")}%(": 7038,
      "h6E69": 7039,
      "h0000010000000000000000000000000000000000000000000000000080000000": 7040,
      "hFFFFFFFFFFFFFF00": 7041,
      "10100010000000101011110101110000101000100000001010111101011100001010001000000010101111010111000010100010000000101011110101110000": 7042,
      "1375338640q18": 7043,
      "h0fc19d": 7044,
      "h123456": 7045,
      "e3585": 7046,
      "b11111111111111111111111111111111": 7047,
      "h2e1b2138": 7048,
      "hf40e3585": 7049,
      "h12835b01": 7050,
      "h53380d13": 7051,
      "h1e376c08": 7052,
      "hd5a79147": 7053,
      "ha831c66d": 7054,
      "ha2bfe8a1": 7055,
      "hefbe4786": 7056,
      "h106aa070": 7057,
      "h748f82ee": 7058,
      "h650a7354": 7059,
      "h766a0abb": 7060,
      "h4d2c6dfc": 7061,
      "h8cc70208": 7062,
      "h4ed8aa4a": 7063,
      "hc76c51a3": 7064,
      "he49b69c1": 7065,
      "hc6e00bf3": 7066,
      "h06801C1": 7067,
      "assume": 7068,
      "643371375338640q18": 7069,
      "h0fc19dc6": 7070,
      "&((": 7071,
      "0b": 7072,
      "4C": 7073,
      "5a": 7074,
      "7951": 7075,
      "9E": 7076,
      "<-": 7077,
      "={(": 7078,
      "A280": 7079,
      "W0": 7080,
      "]!==": 7081,
      "af7": 7082,
      "b809": 7083,
      "h320": 7084,
      "h117": 7085,
      "h130": 7086,
      "~'": 7087,
      "0000100": 7088,
      "0000110": 7089,
      "11000": 7090,
      "1124": 7091,
      "1117": 7092,
      "1119": 7093,
      "1139": 7094,
      "1141": 7095,
      "1168": 7096,
      "1153": 7097,
      "1184": 7098,
      "1182": 7099,
      "iff": 7100,
      "31560": 7101,
      "1096": 7102,
      "1035": 7103,
      "1076": 7104,
      "1033": 7105,
      "1087": 7106,
      "1075": 7107,
      "1070": 7108,
      "1062": 7109,
      "1687": 7110,
      "16198": 7111,
      "MODULE61": 7112,
      "(((((": 7113,
      "])||": 7114,
      "6347": 7115,
      "h027": 7116,
      "h052": 7117,
      "h077": 7118,
      "h074": 7119,
      "h0AAAAAAAAAAAAAAAAAAAAAAAAAAAAAAAAAAAAAAAAAAAAAAAAAAAAAAAAAAAAAAAAAAAAAAAA": 7120,
      "d1304": 7121,
      "96530": 7122,
      "??)": 7123,
      "13567": 7124,
      "2525": 7125,
      "1471": 7126,
      "b1100000000000000": 7127,
      "9555": 7128,
      "9531560": 7129,
      "18475": 7130,
      "18969": 7131,
      "({\"": 7132,
      "d292": 7133,
      "d2006": 7134,
      "80c": 7135,
      "8041": 7136,
      "47187": 7137,
      "FFE0": 7138,
      "30479": 7139,
      "558624": 7140,
      "h394": 7141,
      "h385": 7142,
      "h3FFF": 7143,
      "dee": 7144,
      "39757": 7145,
      "394826": 7146,
      "28686": 7147,
      "h100001": 7148,
      "11011110": 7149,
      "d364": 7150,
      "d379": 7151,
      "d335": 7152,
      "d361": 7153,
      "d333": 7154,
      "d350": 7155,
      "d337": 7156,
      "d359": 7157,
      "d341": 7158,
      "d342": 7159,
      "d358": 7160,
      "d370": 7161,
      "d378": 7162,
      "d365": 7163,
      "d369": 7164,
      "d354": 7165,
      "d389": 7166,
      "d386": 7167,
      "35011": 7168,
      "350848": 7169,
      "762435": 7170,
      "d431": 7171,
      "d495": 7172,
      "d418": 7173,
      "d419": 7174,
      "d455": 7175,
      "d439": 7176,
      "d438": 7177,
      "d445": 7178,
      "d453": 7179,
      "d454": 7180,
      "61312": 7181,
      "33d2": 7182,
      "h2df": 7183,
      "h00E": 7184,
      "50208": 7185,
      "502344": 7186,
      "87433": 7187,
      "36C": 7188,
      "36646": 7189,
      "37297": 7190,
      "370416": 7191,
      "d525": 7192,
      "d522": 7193,
      "h600": 7194,
      "h654": 7195,
      "1042": 7196,
      "1043": 7197,
      "104936": 7198,
      "h747": 7199,
      "d6064": 7200,
      "d6800": 7201,
      "d6569": 7202,
      "44259": 7203,
      "hc20": 7204,
      "h00004000": 7205,
      "d864": 7206,
      "128107": 7207,
      "h8B": 7208,
      "d9224": 7209,
      "d9196": 7210,
      "d9268": 7211,
      "d90087": 7212,
      "d925388": 7213,
      "0764": 7214,
      "0795": 7215,
      "0774": 7216,
      "0784": 7217,
      "b0101111100": 7218,
      "45136": 7219,
      "992023": 7220,
      "6668": 7221,
      "20007951": 7222,
      "7724": 7223,
      "774801": 7224,
      "77128107": 7225,
      "d16384": 7226,
      "60361": 7227,
      "41b1": 7228,
      "58113": 7229,
      "70646": 7230,
      "65125": 7231,
      "b01001011": 7232,
      "7447": 7233,
      "741487": 7234,
      "843437": 7235,
      "02172": 7236,
      "h00020000": 7237,
      "b111111111000": 7238,
      "h3FE3": 7239,
      "b110010100": 7240,
      "h10c": 7241,
      "h1020": 7242,
      "b0000001111000000": 7243,
      "b0000000000000000100000000": 7244,
      "h9C": 7245,
      "86774801": 7246,
      "d2448": 7247,
      "d314": 7248,
      "d315": 7249,
      "d31216": 7250,
      "d312020": 7251,
      "h206": 7252,
      "h209": 7253,
      "115205": 7254,
      "hAD": 7255,
      "hC000": 7256,
      "b11000111": 7257,
      "d301": 7258,
      "d302": 7259,
      "d303": 7260,
      "d305": 7261,
      "d1932": 7262,
      "hB6": 7263,
      "d321": 7264,
      "h04c": 7265,
      "h03b": 7266,
      "h141": 7267,
      "h149": 7268,
      "1316": 7269,
      "hbf3": 7270,
      "hDE": 7271,
      "2071876": 7272,
      "h154": 7273,
      "1373655": 7274,
      "22777128107": 7275,
      "0806": 7276,
      "0807": 7277,
      "h1fd": 7278,
      "CCCE": 7279,
      "1101100011": 7280,
      "h194": 7281,
      "d397": 7282,
      "d398": 7283,
      "d482": 7284,
      "d489": 7285,
      "CE31": 7286,
      "d508": 7287,
      "h3e9": 7288,
      "h3C0DE4": 7289,
      "19413567": 7290,
      "d38566": 7291,
      "d474": 7292,
      "d476": 7293,
      "d477": 7294,
      "177180": 7295,
      "1692232": 7296,
      "aaa": 7297,
      "h00000006": 7298,
      "25007980": 7299,
      "FFFFFFFFFFFFFFFFFFFFFFFF": 7300,
      "006806": 7301,
      "3444796": 7302,
      "415757": 7303,
      "b11010111": 7304,
      "4042597": 7305,
      "40418969": 7306,
      "2978029": 7307,
      "66744259": 7308,
      "26861312": 7309,
      "80595": 7310,
      "80547187": 7311,
      "29435011": 7312,
      "04631": 7313,
      "45918475": 7314,
      "e6f": 7315,
      "45858113": 7316,
      "A5142": 7317,
      "80706": 7318,
      "d7537297": 7319,
      "b0000000000000000000000001": 7320,
      "d11219413567": 7321,
      "43939757": 7322,
      "4119531560": 7323,
      "956958": 7324,
      "79996530": 7325,
      "d1653139": 7326,
      "d1651692232": 7327,
      "d16545858113": 7328,
      "7591373655": 7329,
      "0111000000000000": 7330,
      "d92104936": 7331,
      "d13428686": 7332,
      "78540418969": 7333,
      "00674119531560": 7334,
      "0398992023": 7335,
      "d1667591373655": 7336,
      "d2386668": 7337,
      "08381195": 7338,
      "10110001001": 7339,
      "802979996530": 7340,
      "hDEADBEEF": 7341,
      "d45930479": 7342,
      "117936646": 7343,
      "1224956958": 7344,
      "d10482992": 7345,
      "0C0B0": 7346,
      "d14902978029": 7347,
      "d532802979996530": 7348,
      "d9239429": 7349,
      "h3F0A5142": 7350,
      "17172044": 7351,
      "d82722777128107": 7352,
      "d119543939757": 7353,
      "31472949": 7354,
      "961480547187": 7355,
      "184781": 7356,
      "30151224956958": 7357,
      "9520801": 7358,
      "1879741487": 7359,
      "30344042597": 7360,
      "3625184781": 7361,
      "d2388115205": 7362,
      "990380595": 7363,
      "1619865125": 7364,
      "634774": 7365,
      "h0AAAAAAAAAAAAAAAAAAAAAAAAAAAAAAAAAAAAAAAAAAAAAAAAAAAAAAAAAAAAAAAAAAAAAAAAAAAAAA": 7366,
      "5586242565": 7367,
      "39482660361": 7368,
      "3508482071876": 7369,
      "5023443625184781": 7370,
      "87433370416": 7371,
      "d606445136": 7372,
      "d680087433370416": 7373,
      "d9224961480547187": 7374,
      "d91960398992023": 7375,
      "d92683508482071876": 7376,
      "d90087006806": 7377,
      "d92538830344042597": 7378,
      "70646990380595": 7379,
      "84343704631": 7380,
      "02172117936646": 7381,
      "d312165023443625184781": 7382,
      "d3120203444796": 7383,
      "h3C0DE4202": 7384,
      "d3856625007980": 7385,
      "41575745918475": 7386,
      "667442592770": 7387,
      "2943501150208": 7388,
      "d753729730151224956958": 7389,
      "d1121941356717172044": 7390,
      "d165313902172117936646": 7391,
      "d165169223208381195": 7392,
      "d165458581135586242565": 7393,
      "d92104936667442592770": 7394,
      "d1342868670646990380595": 7395,
      "7854041896980": 7396,
      "d166759137365526861312": 7397,
      "d238666841575745918475": 7398,
      "d459304797854041896980": 7399,
      "d1048299200674119531560": 7400,
      "d1490297802984343704631": 7401,
      "d532802979996530634774": 7402,
      "d92394292943501150208": 7403,
      "d827227771281079520801": 7404,
      "d1195439397571879741487": 7405,
      "314729490457": 7406,
      "d238811520539482660361": 7407,
      "d606445136314729490457": 7408,
      "d680087433370416177180": 7409,
      "d92249614805471871489": 7410,
      "d91960398992023762435": 7411,
      "d92683508482071876096": 7412,
      "d900870068061619865125": 7413,
      "d92538830344042597376": 7414,
      "d312020344479620007951": 7415,
      "d385662500798086774801": 7416,
      "d1121941356717172044332": 7417,
      "d165169223208381195272": 7418,
      "\"\"": 7419,
      "\"),.": 7420,
      "\"\")": 7421,
      "(<": 7422,
      "(??)": 7423,
      "+,": 7424,
      "-,": 7425,
      ".;": 7426,
      "1D": 7427,
      "1kx": 7428,
      "2F": 7429,
      "3F": 7430,
      "30000": 7431,
      "40000000": 7432,
      "5b": 7433,
      "5c": 7434,
      "9F": 7435,
      ">),": 7436,
      "?\");": 7437,
      "C64": 7438,
      "C0C": 7439,
      "SW0": 7440,
      "]:(": 7441,
      "a038": 7442,
      "c0000": 7443,
      "c063": 7444,
      "ex": 7445,
      "e81": 7446,
      "f00": 7447,
      "jo": 7448,
      "o160": 7449,
      "rn": 7450,
      "tu": 7451,
      "|=": 7452,
      "|(|": 7453,
      "}\",": 7454,
      "retu": 7455,
      "encoder": 7456,
      "1131": 7457,
      "1148": 7458,
      "1122": 7459,
      "1172": 7460,
      "1149": 7461,
      "1158": 7462,
      "1143": 7463,
      "1178": 7464,
      "1173": 7465,
      "b0c7": 7466,
      "b1e8": 7467,
      "1031": 7468,
      "1061": 7469,
      "1037": 7470,
      "1099": 7471,
      "1090": 7472,
      "1052": 7473,
      "1057": 7474,
      "1068": 7475,
      "1058": 7476,
      "1051": 7477,
      "1053": 7478,
      "1091": 7479,
      "1094": 7480,
      "1085": 7481,
      "1083": 7482,
      "1073": 7483,
      "3268": 7484,
      "1580": 7485,
      "1567": 7486,
      "12B": 7487,
      "1234": 7488,
      "MODULE63": 7489,
      "))|~": 7490,
      "])}}": 7491,
      "])]};": 7492,
      "])|(": 7493,
      "}}))": 7494,
      "VAR498": 7495,
      "6331": 7496,
      "h064": 7497,
      "h065": 7498,
      "h084": 7499,
      "d1b809": 7500,
      "2447": 7501,
      "2332": 7502,
      "2397": 7503,
      "14E": 7504,
      "1440": 7505,
      "2022": 7506,
      "100F0": 7507,
      "9524": 7508,
      "1810": 7509,
      "1835": 7510,
      "1878": 7511,
      "1853": 7512,
      "48ed6": 7513,
      "d299": 7514,
      "d297": 7515,
      "d293": 7516,
      "111111001": 7517,
      "FF00": 7518,
      "(\"\"),": 7519,
      "h300": 7520,
      "h344": 7521,
      "h341": 7522,
      "h343": 7523,
      "h3dc": 7524,
      "1128": 7525,
      "h1d7": 7526,
      "h1ffff": 7527,
      "1105": 7528,
      "d311": 7529,
      "d396": 7530,
      "d356": 7531,
      "d372": 7532,
      "d387": 7533,
      "d338": 7534,
      "d375": 7535,
      "d349": 7536,
      "d357": 7537,
      "d343": 7538,
      "d351": 7539,
      "d353": 7540,
      "d362": 7541,
      "d367": 7542,
      "d374": 7543,
      "d382": 7544,
      "fork": 7545,
      "h419": 7546,
      "h422": 7547,
      "8899": 7548,
      "d410": 7549,
      "d412": 7550,
      "d425": 7551,
      "d430": 7552,
      "d426": 7553,
      "d429": 7554,
      "d421": 7555,
      "d435": 7556,
      "d461": 7557,
      "d437": 7558,
      "d446": 7559,
      "d466": 7560,
      "d449": 7561,
      "d441": 7562,
      "d442": 7563,
      "d443": 7564,
      "d467": 7565,
      "d4646": 7566,
      "h232": 7567,
      "h2008": 7568,
      "h00C": 7569,
      "0000011": 7570,
      "d5793": 7571,
      "h6db": 7572,
      "1045": 7573,
      "h00000000C": 7574,
      "hc791": 7575,
      "h0000318": 7576,
      "h00008000": 7577,
      "h5999": 7578,
      "05b": 7579,
      "0779": 7580,
      "0787": 7581,
      "0775": 7582,
      "46A": 7583,
      "4663": 7584,
      "b1111100101010000": 7585,
      "41fe": 7586,
      "b11010011": 7587,
      "b000100001": 7588,
      "111111111111111": 7589,
      "hbed": 7590,
      "b1110000000000000": 7591,
      "b001100000": 7592,
      ")||(!": 7593,
      "b101000000": 7594,
      "02000000": 7595,
      "h000f": 7596,
      "h00020": 7597,
      "h3FB": 7598,
      "h10a": 7599,
      "d2047": 7600,
      "1086": 7601,
      "ac920": 7602,
      "h01C": 7603,
      "hff9": 7604,
      "d310": 7605,
      "b1100010110001001": 7606,
      "d306": 7607,
      "d307": 7608,
      "d309": 7609,
      "0933": 7610,
      "d324": 7611,
      "d325": 7612,
      "d327": 7613,
      "d329": 7614,
      "hE2": 7615,
      "hEC": 7616,
      "b0011111100110110": 7617,
      "h303": 7618,
      "h03a": 7619,
      "h000002": 7620,
      "h00000AAAAAAAAAAAAAAAAAAAAAAAAAAAAAAAAAAAAAAAAAAAAAAAAAAAAAAAAAAAAAAAAAAAAAAAA": 7621,
      "h00000018": 7622,
      "h00000030": 7623,
      "h11c": 7624,
      "h11100F0": 7625,
      "024C": 7626,
      "hD2": 7627,
      "hDB": 7628,
      "hDF": 7629,
      "h42c6": 7630,
      "d403": 7631,
      "d406": 7632,
      "h166": 7633,
      "h168": 7634,
      "b1100011011111010": 7635,
      "050403020100": 7636,
      "0804": 7637,
      "0805": 7638,
      "110110000": 7639,
      "o161": 7640,
      "o162": 7641,
      "o163": 7642,
      "o164": 7643,
      "o165": 7644,
      "o166": 7645,
      "o167": 7646,
      "o1611": 7647,
      "o1631": 7648,
      "o1610": 7649,
      "o1615": 7650,
      "o1616": 7651,
      "o1612": 7652,
      "o1624": 7653,
      "o1623": 7654,
      "o1613": 7655,
      "o1625": 7656,
      "o1614": 7657,
      "o1620": 7658,
      "o1617": 7659,
      "o1630": 7660,
      "o1627": 7661,
      "o1622": 7662,
      "o1626": 7663,
      "o1621": 7664,
      "000001000001": 7665,
      "hc2c6": 7666,
      "d394": 7667,
      "d485": 7668,
      "b1100000011001010": 7669,
      "240fc2": 7670,
      "h3ec": 7671,
      "h3ee": 7672,
      "h3ef": 7673,
      "ef1599": 7674,
      "194304": 7675,
      "hFFFD": 7676,
      "d473": 7677,
      "d478": 7678,
      "AAAAAAAAAAAAAAAAAAAAAAAAAAAAAAAAAAAA": 7679,
      "005b": 7680,
      "b0011110011011110": 7681,
      "h1002": 7682,
      "0790": 7683,
      "0797": 7684,
      "fc48ed6": 7685,
      "101010100": 7686,
      "h20005": 7687,
      "dc501": 7688,
      "b11010101": 7689,
      "b1101011110111010": 7690,
      "h1C0": 7691,
      "h00200000": 7692,
      "b0001000010010000": 7693,
      "h86fb": 7694,
      "b1100001100100010": 7695,
      "b11011000": 7696,
      "b0110100000000000": 7697,
      "h10000002": 7698,
      "b2b0c7": 7699,
      "h200000A": 7700,
      "h1E8": 7701,
      "h8800": 7702,
      "262144": 7703,
      "D656": 7704,
      "b440b": 7705,
      "A4A4": 7706,
      "??????????????????????????:": 7707,
      "a2d1b809": 7708,
      "b1100110000111010": 7709,
      "f0b": 7710,
      "75922": 7711,
      "hF0F0": 7712,
      "55756": 7713,
      "b0010110101000001": 7714,
      "b1111001010110010": 7715,
      "202020": 7716,
      "951b2b0c7": 7717,
      "b1110110000111010": 7718,
      "b0011010110101100": 7719,
      "b0000101000000011": 7720,
      "h03020100": 7721,
      "b0010001011011011": 7722,
      "h0000040000001000": 7723,
      "b0001101000000111": 7724,
      "cbac920": 7725,
      "b1110010111111001": 7726,
      "b0001011011101111": 7727,
      "b1110100100010001": 7728,
      "b1110001011110010": 7729,
      "h3FC75922": 7730,
      "b1100100010010100": 7731,
      "h01F024C": 7732,
      "h07060504": 7733,
      "b1100000000010111": 7734,
      "b0011110111010001": 7735,
      "b1100001000101111": 7736,
      "b1100010001000001": 7737,
      "b1100000001011010": 7738,
      "b0000110101001110": 7739,
      "b0011101110111111": 7740,
      "b0000001101011001": 7741,
      "b1101001010111111": 7742,
      "b0011101001110111": 7743,
      "tranif": 7744,
      "a24dc501": 7745,
      "b1101000001110001": 7746,
      "E0D0C0B0": 7747,
      "DEADBEEFDEADBEEF": 7748,
      "00020a24dc501": 7749,
      "b0011100100000110": 7750,
      "b0001110100001110": 7751,
      "b1110111101110000": 7752,
      "b0011111110100110": 7753,
      "b0011111010011001": 7754,
      "b0011011101101100": 7755,
      "b0010010110011110": 7756,
      "b1100000101100111": 7757,
      "b1101101001100010": 7758,
      "b1101110100100101": 7759,
      "b1111010111111101": 7760,
      "A09080706": 7761,
      "b1100111001000100": 7762,
      "af755756": 7763,
      "41b141fe": 7764,
      "h3FE3FE3": 7765,
      "b1100101001010100": 7766,
      "join": 7767,
      "return": 7768,
      "d4646240fc2": 7769,
      "hc791d4646240fc2": 7770,
      "h00000AAAAAAAAAAAAAAAAAAAAAAAAAAAAAAAAAAAAAAAAAAAAAAAAAAAAAAAAAAAAAAAAAAAAAAAA00": 7771,
      "h11100F0E0D0C0B0": 7772,
      "ef1599fc48ed6": 7773,
      "a2d1b80900020a24dc501": 7774,
      "951b2b0c7df": 7775,
      "cbac920af755756": 7776,
      "A09080706050403020100": 7777,
      "41b141fe951b2b0c7df": 7778,
      "hc791d4646240fc2a2d1b80900020a24dc501": 7779,
      "h11100F0E0D0C0B0A09080706050403020100": 7780,
      "ef1599fc48ed6cbac920af755756": 7781,
      "hc791d4646240fc2a2d1b80900020a24dc501ef1599fc48ed6cbac920af755756": 7782,
      "%-": 7783,
      "1FF": 7784,
      "100000000000000000000000000000000": 7785,
      "3D": 7786,
      "5B": 7787,
      "5e": 7788,
      "8D": 7789,
      "@\",": 7790,
      "C27": 7791,
      "C65": 7792,
      "E003": 7793,
      "E992": 7794,
      "]&&(": 7795,
      "a478": 7796,
      "bin": 7797,
      "fin": 7798,
      "h127": 7799,
      "h5555": 7800,
      "h138": 7801,
      "o01": 7802,
      "00500": 7803,
      "1115": 7804,
      "1164": 7805,
      "1127": 7806,
      "1140": 7807,
      "1133": 7808,
      "1137": 7809,
      "1145": 7810,
      "1175": 7811,
      "1177": 7812,
      "1157": 7813,
      "1183": 7814,
      "ift": 7815,
      "b180": 7816,
      "000000001": 7817,
      "1025": 7818,
      "1027": 7819,
      "1026": 7820,
      "1036": 7821,
      "32F": 7822,
      "3248": 7823,
      "12A": 7824,
      "MODULE68": 7825,
      "d0f": 7826,
      "d012": 7827,
      "))*": 7828,
      "64d25": 7829,
      "h056": 7830,
      "h062": 7831,
      "0000000000000000000000000000": 7832,
      "d1310": 7833,
      "2457": 7834,
      "13A": 7835,
      "b110000000000": 7836,
      "b11110011": 7837,
      "2053": 7838,
      "1827": 7839,
      "1897": 7840,
      "1944": 7841,
      "d291": 7842,
      "FFC0": 7843,
      "(\"@\",": 7844,
      "3069": 7845,
      "1110000000": 7846,
      "4026": 7847,
      "h387": 7848,
      "h342": 7849,
      "h354": 7850,
      "h383": 7851,
      "h381": 7852,
      "fa8": 7853,
      "1126": 7854,
      "h195": 7855,
      "h1fa": 7856,
      "1101010": 7857,
      "d330": 7858,
      "d339": 7859,
      "d388": 7860,
      "d334": 7861,
      "d345": 7862,
      "d366": 7863,
      "d385": 7864,
      "d381": 7865,
      "d373": 7866,
      "h416": 7867,
      "h413": 7868,
      "h414": 7869,
      "d423": 7870,
      "d444": 7871,
      "d452": 7872,
      "d460": 7873,
      "d498": 7874,
      "d469": 7875,
      "d462": 7876,
      "3366": 7877,
      "3360": 7878,
      "h224": 7879,
      "h280": 7880,
      "h00B": 7881,
      "36E": 7882,
      "1205": 7883,
      "38A": 7884,
      "3863": 7885,
      "3733": 7886,
      "d516": 7887,
      "h756": 7888,
      "h7fe": 7889,
      "h0000000080000000": 7890,
      "ssh": 7891,
      "d740": 7892,
      ")+((": 7893,
      "h0000E00": 7894,
      "h596": 7895,
      "h5111": 7896,
      "0001000000": 7897,
      "0796": 7898,
      "0780": 7899,
      "0788": 7900,
      "0772": 7901,
      "0777": 7902,
      "0782": 7903,
      "0781": 7904,
      "0773": 7905,
      "0786": 7906,
      "0831": 7907,
      "0810": 7908,
      "0840": 7909,
      "0822": 7910,
      "57b44": 7911,
      "10101100": 7912,
      "b11010010": 7913,
      "7063": 7914,
      "51F": 7915,
      "7800": 7916,
      "7817": 7917,
      "62a90": 7918,
      "b01001101": 7919,
      "b01001110": 7920,
      "h0009": 7921,
      "h00010": 7922,
      "h0000000000000000000000": 7923,
      "h3F2": 7924,
      "h3FA": 7925,
      "h10C": 7926,
      "b0000001111111111": 7927,
      "hFF5": 7928,
      "????????????????:": 7929,
      "?????????????????:": 7930,
      "??????????????????:": 7931,
      "???????????????????:": 7932,
      "????????????????????:": 7933,
      "?????????????????????:": 7934,
      "??????????????????????:": 7935,
      "h01a": 7936,
      "d316": 7937,
      "d317": 7938,
      "b11101100": 7939,
      "h3f0": 7940,
      "b100100000": 7941,
      "h18e7": 7942,
      "b11000101": 7943,
      "d308": 7944,
      "eaf0b": 7945,
      "ea64d25": 7946,
      "hBF": 7947,
      "d323": 7948,
      "hEF": 7949,
      "h8080": 7950,
      "h30303030": 7951,
      "h03000000": 7952,
      "h00000014": 7953,
      "h000000FF": 7954,
      "h11a": 7955,
      "h142": 7956,
      "h144": 7957,
      "h12a": 7958,
      "h155": 7959,
      "h06F": 7960,
      "d402": 7961,
      "d404": 7962,
      "d407": 7963,
      "d409": 7964,
      "d2227": 7965,
      "h07000000": 7966,
      "0801": 7967,
      "0803": 7968,
      "0808": 7969,
      "h198": 7970,
      "100110000": 7971,
      "10011101": 7972,
      "0000010000": 7973,
      "000001000000": 7974,
      "10010100100": 7975,
      "d390": 7976,
      "d391": 7977,
      "d483": 7978,
      "d484": 7979,
      "d486": 7980,
      "d487": 7981,
      "e800005": 7982,
      "d501": 7983,
      "d502": 7984,
      "d503": 7985,
      "h3e4": 7986,
      "h0F000000": 7987,
      "b11100101": 7988,
      "h1a1": 7989,
      "h1b2": 7990,
      "FFF0": 7991,
      "FFF8": 7992,
      ",\"?\");": 7993,
      "hFFF0": 7994,
      "d471": 7995,
      "d475": 7996,
      "005d": 7997,
      "b01011101": 7998,
      "b9b": 7999,
      "hAAAAAAAAAAAA": 8000,
      "00736C": 8001,
      "0793": 8002,
      "0798": 8003,
      "h3F7FE": 8004,
      "b11010100": 8005,
      "d96000": 8006,
      "b1100110011001100": 8007,
      "b11011101": 8008,
      "h200004": 8009,
      "110110110110": 8010,
      "00010001000": 8011,
      "e9a09": 8012,
      "48575": 8013,
      "a1e": 8014,
      "00003a1": 8015,
      "h92E9": 8016,
      "0357e9a09": 8017,
      "--------------------------------": 8018,
      "h000007ff": 8019,
      "EF00EF00": 8020,
      "e01000000": 8021,
      "27c57b44": 8022,
      "shift": 8023,
      "d1942ea64d25": 8024,
      "c063a478": 8025,
      "b1e8eaf0b": 8026,
      "final": 8027,
      "62a90d1942ea64d25": 8028,
      "h18e7b1e8eaf0b": 8029,
      "h92E9E992": 8030,
      "0357e9a09c063a478": 8031,
      "27c57b44e01000000": 8032,
      "62a90d1942ea64d250357e9a09c063a478": 8033,
      "h18e7b1e8eaf0b62a90d1942ea64d250357e9a09c063a478": 8034,
      "h18e7b1e8eaf0b62a90d1942ea64d250357e9a09c063a47827c57b44e01000000": 8035,
      "&(!": 8036,
      ")]));": 8037,
      ")})": 8038,
      "/%": 8039,
      "1SW0": 8040,
      "3B": 8041,
      "7C": 8042,
      "8d": 8043,
      "9e00": 8044,
      "=|": 8045,
      "C63": 8046,
      "D69": 8047,
      "E65": 8048,
      "[*": 8049,
      "ak": 8050,
      "a01": 8051,
      "bre": 8052,
      "cfc": 8053,
      "fo": 8054,
      "h121": 8055,
      "h135": 8056,
      "h133": 8057,
      "h136": 8058,
      "h137": 8059,
      "o55": 8060,
      "o56": 8061,
      "}):": 8062,
      "1161": 8063,
      "1170": 8064,
      "1169": 8065,
      "1154": 8066,
      "1162": 8067,
      "1174": 8068,
      "1181": 8069,
      "b02": 8070,
      "raint": 8071,
      "31415": 8072,
      "00000000001": 8073,
      "3283": 8074,
      "1511": 8075,
      "1534": 8076,
      "1244": 8077,
      "1290": 8078,
      "1259": 8079,
      "MODULE65": 8080,
      "6377": 8081,
      "h071": 8082,
      "h057": 8083,
      "h051": 8084,
      "h069": 8085,
      "h067": 8086,
      "h092": 8087,
      "h097": 8088,
      "h086": 8089,
      "h0fffff": 8090,
      "2335": 8091,
      "2351": 8092,
      "9690": 8093,
      "9698": 8094,
      "13B": 8095,
      "1304": 8096,
      "2508": 8097,
      "1424": 8098,
      "2035": 8099,
      "1920": 8100,
      "1941": 8101,
      "8065": 8102,
      "30E": 8103,
      "3045": 8104,
      "2750": 8105,
      "2798": 8106,
      "4048": 8107,
      "2223": 8108,
      "2290": 8109,
      "2297": 8110,
      "h396": 8111,
      "h395": 8112,
      "h330": 8113,
      "h333": 8114,
      "h399": 8115,
      "h3EE": 8116,
      "b0000000011110000": 8117,
      "de7": 8118,
      "0000000000000000000000000000000000000000": 8119,
      "7972": 8120,
      "2842": 8121,
      "2665": 8122,
      "h132": 8123,
      "h1000001": 8124,
      "h1fffff": 8125,
      "2914": 8126,
      "5632D": 8127,
      "35382": 8128,
      "h418": 8129,
      "h40001": 8130,
      "33c9": 8131,
      "h216": 8132,
      "h00a": 8133,
      "h0019": 8134,
      "10100000000000000000000000": 8135,
      "380000": 8136,
      "3835": 8137,
      "3750": 8138,
      "d536": 8139,
      "h687": 8140,
      "h697": 8141,
      "h6A6C": 8142,
      "d600": 8143,
      "d680": 8144,
      "4455": 8145,
      "446664": 8146,
      "{(|": 8147,
      "d712": 8148,
      "d776": 8149,
      "d784": 8150,
      "hc25": 8151,
      "h0000FFFF": 8152,
      "h5100": 8153,
      "h5133": 8154,
      "d868": 8155,
      "h8004": 8156,
      "h80004": 8157,
      "h8007": 8158,
      "h8006": 8159,
      "h8277": 8160,
      "d1056": 8161,
      "0001000000000000000000000": 8162,
      "0778": 8163,
      "4697": 8164,
      "757063": 8165,
      "0824": 8166,
      "0839": 8167,
      "1010101": 8168,
      "783C": 8169,
      "97a": 8170,
      "hbe8": 8171,
      ")||((": 8172,
      "h000186": 8173,
      "b11001111": 8174,
      "b11001011": 8175,
      "b11001101": 8176,
      "h10b": 8177,
      "h10e": 8178,
      "h10f": 8179,
      "h1070": 8180,
      "hffc": 8181,
      "h208": 8182,
      "hA57": 8183,
      "hC34F": 8184,
      "]})};": 8185,
      "ea00": 8186,
      "hBD": 8187,
      "h04a": 8188,
      "hE6": 8189,
      "hECCCE": 8190,
      "h304": 8191,
      "1110100": 8192,
      "h11A": 8193,
      "h11b": 8194,
      "h146": 8195,
      "h148": 8196,
      "])?{": 8197,
      "])?({": 8198,
      "1324": 8199,
      "00001000000": 8200,
      "h42c5": 8201,
      "h153": 8202,
      "h171": 8203,
      "h176": 8204,
      "((~(~(": 8205,
      "]?{": 8206,
      "h07FE": 8207,
      "h0707070707": 8208,
      "hFFFFFE": 8209,
      "b1111111111100000": 8210,
      "11011000": 8211,
      "10011100": 8212,
      "100110001": 8213,
      "00000100000": 8214,
      "hc2c5": 8215,
      "h1c6": 8216,
      "h1c7": 8217,
      "EEC64": 8218,
      "h80007": 8219,
      "00011100": 8220,
      "FFFD": 8221,
      "h41c": 8222,
      "005000": 8223,
      "b11110100": 8224,
      "h0000000c": 8225,
      "0791": 8226,
      "0792": 8227,
      "0794": 8228,
      "0799": 8229,
      "h3F7FFFE": 8230,
      "h647": 8231,
      "h40005": 8232,
      "CF03": 8233,
      "h1FC": 8234,
      "h8625": 8235,
      "h20000B": 8236,
      "h10000006": 8237,
      "h100004": 8238,
      "36863": 8239,
      "h1B000000": 8240,
      "h400003": 8241,
      "df6": 8242,
      "36972": 8243,
      "b00000000000000000000000001": 8244,
      "48576": 8245,
      "pull1": 8246,
      "0011000000000000": 8247,
      "00003a2": 8248,
      "070707": 8249,
      "?????????????????????????:": 8250,
      "\"../../": 8251,
      "49999": 8252,
      "D0F": 8253,
      "b0011111111110000": 8254,
      "]||~": 8255,
      "f3f": 8256,
      "h00FFEE": 8257,
      "this": 8258,
      "b10000111111111111000": 8259,
      "h6C65632D": 8260,
      "h6F6D656": 8261,
      "constraint": 8262,
      "========": 8263,
      "1000000001000000001": 8264,
      "h63736972": 8265,
      "40603248": 8266,
      "break": 8267,
      "fore": 8268,
      "h000186A0": 8269,
      "hECCCEEEC64": 8270,
      "h0707070707070707": 8271,
      "h6F6D656D": 8272,
      "hECCCEEEC64446664": 8273,
      ",(~": 8274,
      "1A": 8275,
      "1a": 8276,
      "1x": 8277,
      "2b": 8278,
      "3E": 8279,
      "8E": 8280,
      "8c": 8281,
      "=~(": 8282,
      ">(": 8283,
      "B69": 8284,
      "C000": 8285,
      "Gb": 8286,
      "]\",": 8287,
      "b82": 8288,
      "cc7": 8289,
      "d768": 8290,
      "f3a": 8291,
      "h199": 8292,
      "h129": 8293,
      "{!(|": 8294,
      "}]};": 8295,
      "1171": 8296,
      "11000000": 8297,
      "1165": 8298,
      "1167": 8299,
      "3200": 8300,
      "1547": 8301,
      "16383": 8302,
      "MODULE64": 8303,
      "MODULE66": 8304,
      "MODULE69": 8305,
      "MODULE67": 8306,
      ")))-": 8307,
      "h055": 8308,
      "h076": 8309,
      "h072": 8310,
      "h066": 8311,
      "h098": 8312,
      "h078": 8313,
      "h053": 8314,
      "h082": 8315,
      "h0204": 8316,
      "2301": 8317,
      "9653": 8318,
      "\",,": 8319,
      "1333": 8320,
      "1342": 8321,
      "1369": 8322,
      "1302": 8323,
      "1470": 8324,
      "1279": 8325,
      "2017": 8326,
      "2097": 8327,
      "(~|(": 8328,
      "48D": 8329,
      "({!": 8330,
      "d2278": 8331,
      "4089": 8332,
      "h348": 8333,
      "face": 8334,
      "3976": 8335,
      "3978": 8336,
      "3989": 8337,
      "h1d2": 8338,
      "h1e8": 8339,
      "b00011111111": 8340,
      "ff4": 8341,
      "5687": 8342,
      "2132": 8343,
      "76800": 8344,
      "h494": 8345,
      "h214": 8346,
      "h220": 8347,
      "h2AA": 8348,
      "h2D7": 8349,
      "h00c": 8350,
      "8710": 8351,
      "3699": 8352,
      "d531": 8353,
      "d528": 8354,
      "d577": 8355,
      "h616": 8356,
      "h666": 8357,
      "h6F7": 8358,
      "h0000000000": 8359,
      "d696": 8360,
      "d728": 8361,
      "d752": 8362,
      "hc22": 8363,
      "hc21": 8364,
      "d832": 8365,
      "d858": 8366,
      "logi": 8367,
      "??????????????": 8368,
      "d1598": 8369,
      "4619": 8370,
      "9915": 8371,
      "AAAAAAAAAA": 8372,
      "5217": 8373,
      "11001011": 8374,
      "0832": 8375,
      "0823": 8376,
      "0829": 8377,
      "0836": 8378,
      "4914": 8379,
      "41b": 8380,
      "5856": 8381,
      "b000100010": 8382,
      "43e": 8383,
      "98210": 8384,
      "7818": 8385,
      "783360": 8386,
      "valu": 8387,
      "h000B": 8388,
      "h00018": 8389,
      "h000000000000000000": 8390,
      "b1111110000000000": 8391,
      "h3F000000": 8392,
      "b11001001": 8393,
      "9496": 8394,
      "100100010": 8395,
      "hFF6": 8396,
      "hFFA": 8397,
      "100011": 8398,
      "b00000000000000000000000000000": 8399,
      "h9A": 8400,
      "h9E": 8401,
      "]}}),": 8402,
      "8664": 8403,
      "h01E": 8404,
      "h01b": 8405,
      "h01c": 8406,
      "h01e": 8407,
      "h01f": 8408,
      "hff80": 8409,
      "hff800000": 8410,
      "d2595": 8411,
      "d2360": 8412,
      "11513": 8413,
      "hC7": 8414,
      "h185": 8415,
      "b1100011111111111": 8416,
      "ea9": 8417,
      "h02A": 8418,
      "h02e": 8419,
      "h02f": 8420,
      "h08e": 8421,
      "h04C": 8422,
      "h11e": 8423,
      "b11010001": 8424,
      "h14b": 8425,
      "h14f": 8426,
      "hD3": 8427,
      "hD6": 8428,
      "h12d": 8429,
      "h170": 8430,
      "h178": 8431,
      "h167": 8432,
      "3557": 8433,
      "b11111111111111": 8434,
      "CCDD": 8435,
      "h09000000": 8436,
      "h139": 8437,
      "h1c0": 8438,
      "h228": 8439,
      "11111000000000": 8440,
      "19845": 8441,
      "h326": 8442,
      "h1a7": 8443,
      "h1e7": 8444,
      "h41e": 8445,
      "h41f": 8446,
      "h252": 8447,
      "++;": 8448,
      "18631": 8449,
      "d568": 8450,
      ")|(|": 8451,
      "d3331": 8452,
      "h3F800002": 8453,
      "h002A4": 8454,
      "d968": 8455,
      "E0E": 8456,
      "2649": 8457,
      "306783360": 8458,
      "111000111": 8459,
      "3471": 8460,
      "d723213": 8461,
      "b000000000000000000000000001": 8462,
      "AC4": 8463,
      "FFFFFFFFFFFFFFFFFFFFFFFFFFFFFFFFFFFFFFFFFFFFFFFFFFFFFFFF": 8464,
      "{(~((": 8465,
      "hffffffe0": 8466,
      "79787": 8467,
      "h00FFEA": 8468,
      "kx4": 8469,
      "b80042": 8470,
      "6666666666666666": 8471,
      "h002A13": 8472,
      "h0AAAAAAAAAAAAAAAAAAAAAAAAAAAAAAAAAAAAAAAAAA": 8473,
      "h002A5A": 8474,
      "h00010061": 8475,
      "h12345678": 8476,
      "h002A4D": 8477,
      "\"#": 8478,
      ")}},": 8479,
      ")&~": 8480,
      "*{": 8481,
      "0v": 8482,
      "2D": 8483,
      "2a": 8484,
      "4A": 8485,
      "7D": 8486,
      "8C": 8487,
      "9C": 8488,
      "9D": 8489,
      "9c": 8490,
      "9f": 8491,
      ":((~": 8492,
      "B0C": 8493,
      "C13": 8494,
      "E08": 8495,
      "[(!": 8496,
      "]].": 8497,
      "age": 8498,
      "a0c": 8499,
      "bd": 8500,
      "bb1": 8501,
      "b40": 8502,
      "bac": 8503,
      "c40": 8504,
      "c35": 8505,
      "e57": 8506,
      "f20": 8507,
      "h192": 8508,
      "h191": 8509,
      "wand": 8510,
      "{^": 8511,
      "<=!": 8512,
      "endproperty": 8513,
      "0000f": 8514,
      "1196": 8515,
      "1188": 8516,
      "11324": 8517,
      "11469": 8518,
      "31974": 8519,
      "10128": 8520,
      "3204": 8521,
      "32159": 8522,
      "32777": 8523,
      "323557": 8524,
      "15e": 8525,
      "1531": 8526,
      "1515": 8527,
      "1533": 8528,
      "1622D": 8529,
      "12c": 8530,
      "1212": 8531,
      "1219": 8532,
      "1262": 8533,
      "12805": 8534,
      "MODULE70": 8535,
      "((({": 8536,
      "])+": 8537,
      "64247": 8538,
      "64065": 8539,
      "640039": 8540,
      "VAR497": 8541,
      "h0de": 8542,
      "h079": 8543,
      "h0101": 8544,
      "h0ab": 8545,
      "h081": 8546,
      "h089": 8547,
      "h073": 8548,
      "d100000000": 8549,
      "d100000": 8550,
      "d1360": 8551,
      "d1328": 8552,
      "23338": 8553,
      "960933": 8554,
      "1331": 8555,
      "1363": 8556,
      "1335": 8557,
      "2500000": 8558,
      "25320": 8559,
      "25475": 8560,
      "1412": 8561,
      "1469": 8562,
      "1474": 8563,
      "1494": 8564,
      "b110000000": 8565,
      "1001011": 8566,
      "9547": 8567,
      "95286": 8568,
      "95477": 8569,
      "17467": 8570,
      "4837": 8571,
      "4869": 8572,
      "486331": 8573,
      "488664": 8574,
      "19143": 8575,
      "19038": 8576,
      "190238": 8577,
      "80fc": 8578,
      "80298": 8579,
      "47303": 8580,
      "47464": 8581,
      "47075": 8582,
      "30211": 8583,
      "27D": 8584,
      "27350": 8585,
      "111000000": 8586,
      "11100010": 8587,
      "40878": 8588,
      "22131": 8589,
      "22194": 8590,
      "22808": 8591,
      "h364": 8592,
      "h3AA": 8593,
      "h350": 8594,
      "h377": 8595,
      "h3da": 8596,
      "h3FFFFFF": 8597,
      "]=~": 8598,
      "791827": 8599,
      "7925475": 8600,
      "39166": 8601,
      "280039": 8602,
      "26134": 8603,
      "26007": 8604,
      "26574": 8605,
      "110111": 8606,
      "29159": 8607,
      "299653": 8608,
      "b0001111111111111": 8609,
      "56277": 8610,
      "567447": 8611,
      "76E": 8612,
      "]==(": 8613,
      "h432": 8614,
      "88608": 8615,
      "728065": 8616,
      "h218": 8617,
      "h219": 8618,
      "h20001": 8619,
      "h20004": 8620,
      "h00e": 8621,
      "h0011": 8622,
      "501425": 8623,
      "501257": 8624,
      "87278": 8625,
      "362745": 8626,
      "256139": 8627,
      "38f": 8628,
      "38120": 8629,
      "37F": 8630,
      "37465": 8631,
      "370695": 8632,
      "d544": 8633,
      "d592": 8634,
      "h696": 8635,
      "h662": 8636,
      "10437465": 8637,
      "h776": 8638,
      "h7FFFF": 8639,
      "441144": 8640,
      "d751": 8641,
      "d7968": 8642,
      "d75264": 8643,
      "[((((": 8644,
      "04x": 8645,
      "04209": 8646,
      "h0000FFFEFFFE": 8647,
      "h5000": 8648,
      "h514": 8649,
      "d857": 8650,
      "d8116": 8651,
      "d8338": 8652,
      "d8264": 8653,
      ")?~": 8654,
      "1283": 8655,
      "1286": 8656,
      "h8003": 8657,
      "h80002": 8658,
      "h8002": 8659,
      "d936": 8660,
      "d9079": 8661,
      "d90050": 8662,
      "d90047": 8663,
      "d90789": 8664,
      "07034": 8665,
      "07445": 8666,
      "00000000000000000000000000000000000000000000000000000000000000000000000000000000000000000000000000000000": 8667,
      "4574": 8668,
      "451944": 8669,
      "4518631": 8670,
      "75349": 8671,
      "75427": 8672,
      "6685": 8673,
      "90lut": 8674,
      "2552022": 8675,
      "0811": 8676,
      "0815": 8677,
      "0816": 8678,
      "0820": 8679,
      "0817": 8680,
      "0818": 8681,
      "0833": 8682,
      "0834": 8683,
      "08000000000000001": 8684,
      "7772": 8685,
      "7779787": 8686,
      "d1280": 8687,
      "57058": 8688,
      "41B": 8689,
      "419524": 8690,
      "3201586": 8691,
      "b11011001": 8692,
      "426377": 8693,
      "58535": 8694,
      "581941": 8695,
      "70258": 8696,
      "9826134": 8697,
      "65134": 8698,
      "6595286": 8699,
      "69496": 8700,
      "5456277": 8701,
      "6200000000000000000000000000000000000000000000000000000000000000000000000000000000000000000000000000000000": 8702,
      "9726007": 8703,
      "93a": 8704,
      "~((&": 8705,
      "~((~": 8706,
      "74115": 8707,
      "h00050": 8708,
      "10010001": 8709,
      "h10d": 8710,
      "852297": 8711,
      "b0000000000000000000000000000": 8712,
      "b000000000000000000000000000": 8713,
      "h9B": 8714,
      "h9D": 8715,
      "1081580": 8716,
      "\"))))": 8717,
      "86505": 8718,
      "00419143": 8719,
      "b0111110111": 8720,
      "b010100000000": 8721,
      "12500000": 8722,
      "hffe": 8723,
      "d31845": 8724,
      "1021687": 8725,
      "h207": 8726,
      "h20c": 8727,
      "h20205": 8728,
      "d18589": 8729,
      "h0000000000000000000000000000": 8730,
      "1243835": 8731,
      "1143733": 8732,
      "1152447": 8733,
      "hA3": 8734,
      "hC00000": 8735,
      "b011100000": 8736,
      "h187": 8737,
      "h189": 8738,
      "h18f": 8739,
      "h18F8": 8740,
      "d1776": 8741,
      "d171151": 8742,
      "d1711513": 8743,
      "d30372": 8744,
      "]]!=": 8745,
      "122149": 8746,
      "1221897": 8747,
      "d1920": 8748,
      "h02100": 8749,
      "h0800000": 8750,
      "h04b": 8751,
      "h04d": 8752,
      "h04e": 8753,
      "hE5": 8754,
      "hE708": 8755,
      "h8029": 8756,
      "h809698": 8757,
      "h305": 8758,
      "h000009": 8759,
      "h00000AAAAAAAAAAAAAAAAAAAAAAAAAAAAAAAAAAAA": 8760,
      "h000006200000000000000000000000000000000000000000000000000000000000000000000000000000000000000000000000000000000": 8761,
      "h00000024": 8762,
      "h11d": 8763,
      "b11010000": 8764,
      "129637": 8765,
      "h145": 8766,
      "h14a": 8767,
      "h14c": 8768,
      "h14d": 8769,
      "1317": 8770,
      "13125": 8771,
      "00396": 8772,
      "1438710": 8773,
      "h12345": 8774,
      "h42bf": 8775,
      "h156": 8776,
      "h158": 8777,
      "h159": 8778,
      "h1500": 8779,
      "h160": 8780,
      "h161": 8781,
      "h162": 8782,
      "h163": 8783,
      "15980298": 8784,
      "((((((": 8785,
      "hdb7": 8786,
      "04807445": 8787,
      "hFFFF0000": 8788,
      "050153": 8789,
      "050452": 8790,
      "080C27": 8791,
      "b11111111110": 8792,
      "b11111111111111111": 8793,
      "b111111111111111111111111": 8794,
      "b11111111111111111111": 8795,
      "h1f6": 8796,
      "h1fc": 8797,
      "CCAA": 8798,
      "d634914": 8799,
      "hc2bf": 8800,
      "FE0": 8801,
      "h240": 8802,
      "h0fe": 8803,
      "d39205": 8804,
      "d480379": 8805,
      "h238": 8806,
      "d502457": 8807,
      "111110000": 8808,
      "044437": 8809,
      "d648": 8810,
      "1752914": 8811,
      "19898210": 8812,
      "h324": 8813,
      "h328": 8814,
      "01050": 8815,
      "h39C": 8816,
      "h39808": 8817,
      "147506": 8818,
      "h1b7": 8819,
      "h1b8": 8820,
      "156960933": 8821,
      "d36997": 8822,
      "3007925475": 8823,
      "300501257": 8824,
      "h21E8": 8825,
      "15411324": 8826,
      "000000000000011": 8827,
      "h0A7": 8828,
      "190990": 8829,
      "16347464": 8830,
      "hFFF7": 8831,
      "hFFFB": 8832,
      "hffffffffffff": 8833,
      "19396": 8834,
      "h2527": 8835,
      "b000100100": 8836,
      "h3AC": 8837,
      "h3A004": 8838,
      "637C": 8839,
      "d9227409": 8840,
      "d92272649": 8841,
      "427837": 8842,
      "352956": 8843,
      "0000000000000011": 8844,
      "1861378": 8845,
      "22945": 8846,
      "h3B800": 8847,
      "h3B0010": 8848,
      "b11110101": 8849,
      "007C": 8850,
      "1571078": 8851,
      "2047084": 8852,
      "h0C8B": 8853,
      "d808": 8854,
      "d80427837": 8855,
      "d88567447": 8856,
      "244316": 8857,
      "h4000005": 8858,
      "h4000007": 8859,
      "h40000020": 8860,
      "h1C4": 8861,
      "fffffffffff": 8862,
      "253488664": 8863,
      "h471C": 8864,
      "d553978": 8865,
      "h69000000": 8866,
      "h20000C": 8867,
      "E0F": 8868,
      "h10000003": 8869,
      "h10000005": 8870,
      "4162035": 8871,
      "h72006": 8872,
      "4092508": 8873,
      "4092047084": 8874,
      "278508": 8875,
      "2783863": 8876,
      "2772053": 8877,
      "h20000007": 8878,
      "655190238": 8879,
      "29731974": 8880,
      "h400002": 8881,
      "30819845": 8882,
      "26375": 8883,
      "258377": 8884,
      "45074115": 8885,
      "d178529": 8886,
      "32631415": 8887,
      "306757": 8888,
      "30675349": 8889,
      "318256139": 8890,
      "2690655": 8891,
      "b0000110000": 8892,
      "266957": 8893,
      "2665687": 8894,
      "d760": 8895,
      "805a": 8896,
      "3152397": 8897,
      "2651861378": 8898,
      "3657779787": 8899,
      "h40000002": 8900,
      "06730675349": 8901,
      "4645856": 8902,
      "d870859": 8903,
      "DC9": 8904,
      "267370695": 8905,
      "38538120": 8906,
      "d6864065": 8907,
      "458156960933": 8908,
      "333333": 8909,
      "333369496": 8910,
      "36606730675349": 8911,
      "C6F": 8912,
      "3962783863": 8913,
      "hFFFFFC": 8914,
      "48538538120": 8915,
      "0854026": 8916,
      "431BE": 8917,
      "C7261": 8918,
      "d841258": 8919,
      "d841243835": 8920,
      "00003a3": 8921,
      "d1128": 8922,
      "4324837": 8923,
      "486757": 8924,
      "50936606730675349": 8925,
      "d78952": 8926,
      "41422131": 8927,
      "544489": 8928,
      "5074089": 8929,
      "498323557": 8930,
      "d8930819845": 8931,
      "d89306757": 8932,
      "5146685": 8933,
      "56821": 8934,
      "0x0CONCATIFrgv1BIT635THENINVrgv108ETCd178": 8935,
      "0x0CONCATIFrgv1BIT635THENINVrgv108ETCd133": 8936,
      "0x0CONCATIFrgv1BIT635THENINVrgv108ETCd174": 8937,
      "0x0CONCATIFrgv1BIT635THENINVrgv108ETCd170": 8938,
      "0x0CONCATIFrgv1BIT635THENINVrgv108ETCd118": 8939,
      "0x0CONCATIFrgv1BIT635THENINVrgv108ETCd129": 8940,
      "0x0CONCATIFrgv1BIT635THENINVrgv108ETCd167": 8941,
      "0x0CONCATIFrgv1BIT635THENINVrgv108ETCd123": 8942,
      "88895": 8943,
      "h8c08": 8944,
      "h020100": 8945,
      "007800": 8946,
      "6470040": 8947,
      "h9594": 8948,
      "h012a1": 8949,
      "79740878": 8950,
      "00643471": 8951,
      "582147506": 8952,
      "00861135": 8953,
      "0098199": 8954,
      "d2153657779787": 8955,
      "9970524": 8956,
      "package": 8957,
      "043012805": 8958,
      "d23747303": 8959,
      "2019646": 8960,
      "d856044437": 8961,
      "h7D89": 8962,
      "hCAFE": 8963,
      "108832631415": 8964,
      "EF01EF01": 8965,
      "8080808080808080": 8966,
      "19313699": 8967,
      "b90300": 8968,
      "h656B69": 8969,
      "d274280039": 8970,
      "h7261622D": 8971,
      "d5245217": 8972,
      "381C381C381C381C": 8973,
      "d8634663": 8974,
      "d863451944": 8975,
      "hB8E4": 8976,
      "d509130": 8977,
      "d8782525": 8978,
      "d878266957": 8979,
      "])|((~": 8980,
      "d9153045": 8981,
      "d915333369496": 8982,
      "0776501425": 8983,
      "h388218DF": 8984,
      "d355258377": 8985,
      "d4583007925475": 8986,
      "106301050": 8987,
      "10771152447": 8988,
      "d4141438710": 8989,
      "00000000000000000000000000000000000000000000000000000000000000000000000000000000000000000000000000000000000000000000000000000000000000000000000000000000000000000000000000000000000000000000000000000000000000000000000000000000000000000000000000000000000000000000000000000000000000000000000000000000000000000000000000000000000000000000000000000000000000000000000000000000000000000000000000000000000000000000000000000000000000000000000000000000000000000000000000000000000000000000000000000000000000000000000000000000": 8990,
      "1166544489": 8991,
      "d28900861135": 8992,
      "d4362223": 8993,
      "h380431BE": 8994,
      "b8004233": 8995,
      "d576043012805": 8996,
      "h55555555555555555555": 8997,
      "13442750": 8998,
      "d163772665687": 8999,
      "d163772651861378": 9000,
      "0x0CONCATrgv1BITS31TO04950MUL0x0COETCd151": 9001,
      "0x0CONCATrgv1BITS31TO04950MUL0x0COETCd161": 9002,
      "0x0CONCATrgv1BITS63TO324243MUL0x0CETCd157": 9003,
      "0x0CONCATrgv1BITS63TO324243MUL0x0CETCd146": 9004,
      "d84865134": 9005,
      "d60548575": 9006,
      "d819050153": 9007,
      "h0AAAAAAAAAAAAAAAAAAAAAAAA": 9008,
      "146811469": 9009,
      "19993962783863": 9010,
      "h732C7261": 9011,
      "h62626375": 9012,
      "h72726574": 9013,
      "b0000011110000000": 9014,
      "h6E690073": 9015,
      "955516347464": 9016,
      "d200622808": 9017,
      "d65697817": 9018,
      "772407034": 9019,
      "d24482290": 9020,
      "d193258535": 9021,
      "1kx36": 9022,
      "3268561": 9023,
      "15674574": 9024,
      "181088895": 9025,
      "18782047": 9026,
      "889922194": 9027,
      "tranif1": 9028,
      "3069889922194": 9029,
      "336673": 9030,
      "d2227300501257": 9031,
      "328395477": 9032,
      "23350663": 9033,
      "9690244316": 9034,
      "2798460": 9035,
      "4048154": 9036,
      "266518782047": 9037,
      "44551221897": 9038,
      "4697441144": 9039,
      "397604807445": 9040,
      "3989640039": 9041,
      "99154092047084": 9042,
      "78186470040": 9043,
      "94961081580": 9044,
      "d25955146685": 9045,
      "d3331655190238": 9046,
      "d723213582147506": 9047,
      "10128266518782047": 9048,
      "3215910771152447": 9049,
      "3277723350663": 9050,
      "6424756821": 9051,
      "233386595286": 9052,
      "2532029731974": 9053,
      "954787": 9054,
      "1746700419143": 9055,
      "486331479": 9056,
      "190380098199": 9057,
      "302111571078": 9058,
      "391669826134": 9059,
      "29159419524": 9060,
      "7280651166544489": 9061,
      "36274576": 9062,
      "10437465171": 9063,
      "d79689970524": 9064,
      "d7526419313699": 9065,
      "042094092508": 9066,
      "d811657058": 9067,
      "d83385074089": 9068,
      "d82644324837": 9069,
      "d90791143733": 9070,
      "d90050391669826134": 9071,
      "d9004750936606730675349": 9072,
      "d9078970258": 9073,
      "754272842": 9074,
      "255202219898210": 9075,
      "32015862351": 9076,
      "426377050452": 9077,
      "5819413152397": 9078,
      "545627737": 9079,
      "9726007299653": 9080,
      "85229720": 9081,
      "86505146811469": 9082,
      "d3184513442750": 9083,
      "102168715411324": 9084,
      "d18589426377050452": 9085,
      "d1711513215910771152447": 9086,
[...]
