{
  "version": "1.0",
  "truncation": null,
  "padding": null,
  "added_tokens": [
    {
      "id": 0,
      "content": "[UNK]",
      "single_word": false,
      "lstrip": false,
      "rstrip": false,
      "normalized": false,
      "special": true
    },
    {
      "id": 1,
      "content": "[PAD]",
      "single_word": false,
      "lstrip": false,
      "rstrip": false,
      "normalized": false,
      "special": true
    },
    {
      "id": 2,
      "content": "[MASK]",
      "single_word": false,
      "lstrip": false,
      "rstrip": false,
      "normalized": false,
      "special": true
    },
    {
      "id": 3,
      "content": "[BOS]",
      "single_word": false,
      "lstrip": false,
      "rstrip": false,
      "normalized": false,
      "special": true
    },
    {
      "id": 4,
      "content": "[EOS]",
      "single_word": false,
      "lstrip": false,
      "rstrip": false,
      "normalized": false,
      "special": true
    }
  ],
  "normalizer": null,
  "pre_tokenizer": {
    "type": "Whitespace"
  },
  "post_processor": null,
  "decoder": null,
  "model": {
    "type": "BPE",
    "dropout": null,
    "unk_token": "[UNK]",
    "continuing_subword_prefix": "##",
    "end_of_word_suffix": "</w>",
    "fuse_unk": false,
    "byte_fallback": false,
    "ignore_merges": false,
    "vocab": {
      "[UNK]": 0,
      "[PAD]": 1,
      "[MASK]": 2,
      "[BOS]": 3,
      "[EOS]": 4,
      "!": 5,
      "\"": 6,
      "#": 7,
      "%": 8,
      "&": 9,
      "'": 10,
      "(": 11,
      ")": 12,
      "*": 13,
      "+": 14,
      ",": 15,
      "-": 16,
      ".": 17,
      "/": 18,
      "0": 19,
      "1": 20,
      "2": 21,
      "3": 22,
      "4": 23,
      "5": 24,
      "6": 25,
      "7": 26,
      "8": 27,
      "9": 28,
      ":": 29,
      ";": 30,
      "<": 31,
      "=": 32,
      ">": 33,
      "?": 34,
      "@": 35,
      "A": 36,
      "B": 37,
      "C": 38,
      "D": 39,
      "E": 40,
      "F": 41,
      "G": 42,
      "H": 43,
      "I": 44,
      "K": 45,
      "L": 46,
      "M": 47,
      "N": 48,
      "O": 49,
      "P": 50,
      "R": 51,
      "S": 52,
      "T": 53,
      "U": 54,
      "V": 55,
      "W": 56,
      "X": 57,
      "Y": 58,
      "[": 59,
      "\\": 60,
      "]": 61,
      "^": 62,
      "a": 63,
      "b": 64,
      "c": 65,
      "d": 66,
      "e": 67,
      "f": 68,
      "g": 69,
      "h": 70,
      "i": 71,
      "j": 72,
      "k": 73,
      "l": 74,
      "m": 75,
      "n": 76,
      "o": 77,
      "p": 78,
      "q": 79,
      "r": 80,
      "s": 81,
      "t": 82,
      "u": 83,
      "v": 84,
      "w": 85,
      "x": 86,
      "y": 87,
      "z": 88,
      "{": 89,
      "|": 90,
      "}": 91,
      "~": 92,
      "°": 93,
      "’": 94,
      "一": 95,
      "产": 96,
      "令": 97,
      "何": 98,
      "值": 99,
      "单": 100,
      "发": 101,
      "句": 102,
      "同": 103,
      "块": 104,
      "型": 105,
      "如": 106,
      "并": 107,
      "序": 108,
      "志": 109,
      "执": 110,
      "指": 111,
      "据": 112,
      "数": 113,
      "方": 114,
      "是": 115,
      "有": 116,
      "标": 117,
      "模": 118,
      "步": 119,
      "法": 120,
      "满": 121,
      "生": 122,
      "的": 123,
      "种": 124,
      "程": 125,
      "空": 126,
      "简": 127,
      "类": 128,
      "线": 129,
      "续": 130,
      "编": 131,
      "网": 132,
      "行": 133,
      "译": 134,
      "该": 135,
      "语": 136,
      "赋": 137,
      "还": 138,
      "连": 139,
      "预": 140,
      "﻿": 141,
      "：": 142,
      "##0": 143,
      "##1": 144,
      "##0</w>": 145,
      "##5": 146,
      "##3": 147,
      "##8": 148,
      "##9": 149,
      "##7": 150,
      "##2": 151,
      "##6</w>": 152,
      "##9</w>": 153,
      "##4": 154,
      "##8</w>": 155,
      "##5</w>": 156,
      "##6": 157,
      "##4</w>": 158,
      "##F": 159,
      "##A": 160,
      "##3</w>": 161,
      "##a": 162,
      "##b": 163,
      "##c": 164,
      "##d": 165,
      "##e": 166,
      "##f": 167,
      "##1</w>": 168,
      "##2</w>": 169,
      "##C": 170,
      "##E": 171,
      "##D</w>": 172,
      "##f</w>": 173,
      "##7</w>": 174,
      "##B</w>": 175,
      "##B": 176,
      "##C</w>": 177,
      "##p": 178,
      "##t": 179,
      "##i": 180,
      "##v": 181,
      "##n": 182,
      "##r": 183,
      "##g</w>": 184,
      "##)": 185,
      "##|": 186,
      "##(": 187,
      "##~</w>": 188,
      "##e</w>": 189,
      "##c</w>": 190,
      "##D": 191,
      "##A</w>": 192,
      "##d</w>": 193,
      "##R": 194,
      "##\"": 195,
      "##&": 196,
      "##,</w>": 197,
      "##b</w>": 198,
      "##x": 199,
      "##O": 200,
      "##N": 201,
      "##T": 202,
      "##I": 203,
      "##g": 204,
      "##H": 205,
      "##V": 206,
      "##F</w>": 207,
      "##l": 208,
      "##t</w>": 209,
      "##E</w>": 210,
      "##a</w>": 211,
      "##U": 212,
      "##L": 213,
      "##h": 214,
      "##n</w>": 215,
      "##?": 216,
      "##?</w>": 217,
      "##,": 218,
      "##.</w>": 219,
      "##:</w>": 220,
      "##}": 221,
      "##:": 222,
      "##{": 223,
      "##(</w>": 224,
      "##u": 225,
      "##m</w>": 226,
      "##{</w>": 227,
      "##;</w>": 228,
      "##~": 229,
      "##w</w>": 230,
      "##=": 231,
      "##=</w>": 232,
      "##>": 233,
      "##s</w>": 234,
      "##^": 235,
      "##'</w>": 236,
      "##|</w>": 237,
      "##%</w>": 238,
      "##o": 239,
      "##r</w>": 240,
      "##-": 241,
      "##!</w>": 242,
      "##%": 243,
      "##)</w>": 244,
      "##-</w>": 245,
      "##!": 246,
      "##[</w>": 247,
      "##.": 248,
      "##<</w>": 249,
      "##y": 250,
      "##^</w>": 251,
      "##}</w>": 252,
      "##p</w>": 253,
      "##s": 254,
      "##+": 255,
      "##m": 256,
      "=</w>": 257,
      "###": 258,
      "##<": 259,
      "##/</w>": 260,
      "\"</w>": 261,
      "##]": 262,
      "##q": 263,
      "##S": 264,
      "##W": 265,
      "##/": 266,
      "##l</w>": 267,
      "##\\</w>": 268,
      "##&</w>": 269,
      "##\"</w>": 270,
      "##M": 271,
      "##*": 272,
      "##X</w>": 273,
      "##x</w>": 274,
      "##K": 275,
      "##[": 276,
      "##;": 277,
      "##@</w>": 278,
      "##]</w>": 279,
      "##i</w>": 280,
      "##y</w>": 281,
      "##q</w>": 282,
      "#</w>": 283,
      "/</w>": 284,
      "##+</w>": 285,
      "##'": 286,
      "##k": 287,
      "##z": 288,
      "##z</w>": 289,
      "{</w>": 290,
      ";</w>": 291,
      "##></w>": 292,
      "##@": 293,
      "##*</w>": 294,
      "##S</w>": 295,
      "##步": 296,
      "##O</w>": 297,
      "##u</w>": 298,
      "##G": 299,
      "##T</w>": 300,
      "##k</w>": 301,
      "###</w>": 302,
      ",</w>": 303,
      "></w>": 304,
      "4</w>": 305,
      "##°": 306,
      "##h</w>": 307,
      "&</w>": 308,
      "##w": 309,
      "-</w>": 310,
      "!</w>": 311,
      "##模": 312,
      "##块": 313,
      "##的": 314,
      "##程": 315,
      "##序</w>": 316,
      "9</w>": 317,
      "##K</w>": 318,
      "+</w>": 319,
      "<</w>": 320,
      "~</w>": 321,
      "3</w>": 322,
      "##X": 323,
      "’</w>": 324,
      "0</w>": 325,
      "##Y": 326,
      "﻿</w>": 327,
      "*</w>": 328,
      ")</w>": 329,
      "8</w>": 330,
      "2</w>": 331,
      "'</w>": 332,
      "]</w>": 333,
      "%</w>": 334,
      ":</w>": 335,
      "##满": 336,
      "##标": 337,
      "##志": 338,
      "##如": 339,
      "##何": 340,
      "##产": 341,
      "##生</w>": 342,
      "7</w>": 343,
      "##v</w>": 344,
      "6</w>": 345,
      "\\</w>": 346,
      "：</w>": 347,
      "1</w>": 348,
      "}</w>": 349,
      "##o</w>": 350,
      "##\\": 351,
      "##续": 352,
      "##赋": 353,
      "##值": 354,
      "##语": 355,
      "##句": 356,
      "##是": 357,
      "##并": 358,
      "##发": 359,
      "##执": 360,
      "##行": 361,
      "##的</w>": 362,
      "[</w>": 363,
      "##有": 364,
      "##一": 365,
      "##种": 366,
      "##简": 367,
      "##单": 368,
      "##方": 369,
      "##法": 370,
      "##生": 371,
      "##空": 372,
      "##志</w>": 373,
      "(</w>": 374,
      "|</w>": 375,
      "5</w>": 376,
      "##P": 377,
      "?</w>": 378,
      ".</w>": 379,
      "^</w>": 380,
      "@</w>": 381,
      "##G</w>": 382,
      "##线": 383,
      "##型": 384,
      "##数": 385,
      "##据": 386,
      "##类": 387,
      "##型</w>": 388,
      "##编": 389,
      "##译": 390,
      "##指": 391,
      "##令</w>": 392,
      "VA": 393,
      "VAR": 394,
      "VAR1": 395,
      "VAR2": 396,
      "##00": 397,
      "VAR3": 398,
      "),</w>": 399,
      "##ut</w>": 400,
      "##put</w>": 401,
      "VAR4": 402,
      "<=</w>": 403,
      "wi": 404,
      "##re</w>": 405,
      "wire</w>": 406,
      "en": 407,
      "in": 408,
      "VAR5": 409,
      "input</w>": 410,
      "##eg": 411,
      "##in</w>": 412,
      "end</w>": 413,
      "beg": 414,
      "begin</w>": 415,
      "VAR6": 416,
      "##0000": 417,
      "##ig": 418,
      "VAR7": 419,
      "as": 420,
      "ass": 421,
      "##ign</w>": 422,
      "assign</w>": 423,
      "##ut": 424,
      "out": 425,
      "output</w>": 426,
      "re": 427,
      "VAR8": 428,
      "VAR1</w>": 429,
      "VAR2</w>": 430,
      "if</w>": 431,
      ");</w>": 432,
      "reg</w>": 433,
      "VAR9": 434,
      "VAR3</w>": 435,
      "b0</w>": 436,
      "VAR5</w>": 437,
      "VAR10": 438,
      "##),</w>": 439,
      "##se</w>": 440,
      "];</w>": 441,
      "==</w>": 442,
      "VAR6</w>": 443,
      "VAR4</w>": 444,
      "VAR7</w>": 445,
      "VAR11": 446,
      "VAR8</w>": 447,
      "##ra": 448,
      "VAR12": 449,
      "##lse</w>": 450,
      "else</w>": 451,
      "VAR9</w>": 452,
      "VAR10</w>": 453,
      "##ara": 454,
      "VAR13": 455,
      "##ul": 456,
      "VAR14": 457,
      "VAR11</w>": 458,
      "##11": 459,
      "31</w>": 460,
      "##er</w>": 461,
      "##od": 462,
      "##ule</w>": 463,
      "##odule</w>": 464,
      "VAR12</w>": 465,
      "]),</w>": 466,
      "VAR15": 467,
      "VAR13</w>": 468,
      "cl": 469,
      "clk</w>": 470,
      "]<": 471,
      "VAR14</w>": 472,
      "##ter</w>": 473,
      "b1</w>": 474,
      "VAR16": 475,
      "##se": 476,
      "##00000000": 477,
      "##00</w>": 478,
      "VAR15</w>": 479,
      "##me": 480,
      "para": 481,
      "##meter</w>": 482,
      "parameter</w>": 483,
      "VAR16</w>": 484,
      "&&</w>": 485,
      "VAR18</w>": 486,
      "VAR17": 487,
      "VAR17</w>": 488,
      "##dg": 489,
      "VAR21</w>": 490,
      "32</w>": 491,
      "##UL": 492,
      "MO": 493,
      "##DUL": 494,
      "MODUL": 495,
      "MODULE": 496,
      "VAR22</w>": 497,
      "VAR19</w>": 498,
      "VAR18": 499,
      "15</w>": 500,
      "##dge</w>": 501,
      "VAR20</w>": 502,
      "],</w>": 503,
      "16</w>": 504,
      "al": 505,
      "end": 506,
      "VAR24</w>": 507,
      "##ay": 508,
      "##way": 509,
      "alway": 510,
      "always</w>": 511,
      "VAR23</w>": 512,
      "VAR25</w>": 513,
      "VAR27</w>": 514,
      "VAR19": 515,
      "VAR26</w>": 516,
      "VAR28</w>": 517,
      "po": 518,
      "##sedge</w>": 519,
      "posedge</w>": 520,
      "VAR29</w>": 521,
      "VAR32</w>": 522,
      "VAR30</w>": 523,
      "##};</w>": 524,
      "VAR31</w>": 525,
      "VAR21": 526,
      "d0</w>": 527,
      "]<=</w>": 528,
      "VAR22": 529,
      "VAR33</w>": 530,
      "MODULE1</w>": 531,
      "VAR34</w>": 532,
      "##ca": 533,
      "VAR35</w>": 534,
      "VAR20": 535,
      "##);</w>": 536,
      "module</w>": 537,
      "VAR36</w>": 538,
      "VAR37</w>": 539,
      "VAR46</w>": 540,
      "(),</w>": 541,
      "VAR23": 542,
      "VAR43</w>": 543,
      "##module</w>": 544,
      "endmodule</w>": 545,
      "VAR40</w>": 546,
      "@(</w>": 547,
      "VAR39</w>": 548,
      "11</w>": 549,
      "VAR25": 550,
      "VAR38</w>": 551,
      "VAR24": 552,
      "VAR42</w>": 553,
      "VAR41</w>": 554,
      "VAR45</w>": 555,
      "or</w>": 556,
      "VAR44</w>": 557,
      "12": 558,
      "##01": 559,
      "VAR47</w>": 560,
      "])</w>": 561,
      "VAR50</w>": 562,
      "VAR49</w>": 563,
      "VAR26": 564,
      "VAR48</w>": 565,
      "64</w>": 566,
      "lo": 567,
      "VAR51</w>": 568,
      "VAR54</w>": 569,
      "VAR57</w>": 570,
      "##te</w>": 571,
      "VAR52</w>": 572,
      "]<=": 573,
      "VAR53</w>": 574,
      "VAR27": 575,
      "VAR55</w>": 576,
      "11": 577,
      "VAR56</w>": 578,
      "63</w>": 579,
      "10</w>": 580,
      "VAR60</w>": 581,
      "##cal": 582,
      "##para": 583,
      "local": 584,
      "##param</w>": 585,
      "localparam</w>": 586,
      "VAR58</w>": 587,
      "))</w>": 588,
      "VAR61</w>": 589,
      "VAR59</w>": 590,
      "};</w>": 591,
      "VAR62</w>": 592,
      "12</w>": 593,
      "VAR29": 594,
      "##0000</w>": 595,
      "VAR28": 596,
      "VAR67</w>": 597,
      "d1": 598,
      "||</w>": 599,
      "((</w>": 600,
      "VAR66</w>": 601,
      "VAR74</w>": 602,
      "b1": 603,
      "VAR65</w>": 604,
      "VAR63</w>": 605,
      "VAR64</w>": 606,
      "VAR70</w>": 607,
      "##0000000000000000": 608,
      "}}": 609,
      "]};</w>": 610,
      "##01</w>": 611,
      "##st</w>": 612,
      "rst</w>": 613,
      "VAR71</w>": 614,
      "VAR77</w>": 615,
      "VAR69</w>": 616,
      "VAR68</w>": 617,
      "\",</w>": 618,
      "VAR76</w>": 619,
      "##ne": 620,
      "rese": 621,
      "reset</w>": 622,
      "VAR75</w>": 623,
      "su": 624,
      "VAR73</w>": 625,
      "96</w>": 626,
      "VAR72</w>": 627,
      "));</w>": 628,
      "VAR31": 629,
      "VAR78</w>": 630,
      "b00": 631,
      "##??": 632,
      "127</w>": 633,
      "VAR81</w>": 634,
      "VAR82</w>": 635,
      "##pl": 636,
      "##ppl": 637,
      "suppl": 638,
      "supply": 639,
      "VAR80</w>": 640,
      "VAR79</w>": 641,
      "24</w>": 642,
      "10": 643,
      "##out</w>": 644,
      "VAR86</w>": 645,
      "VAR84</w>": 646,
      "##011": 647,
      "VAR89</w>": 648,
      "VAR83</w>": 649,
      "VAR85</w>": 650,
      "VAR32": 651,
      "VAR92</w>": 652,
      "VAR88</w>": 653,
      "##ta": 654,
      "d1</w>": 655,
      "h0</w>": 656,
      "(.</w>": 657,
      "!=</w>": 658,
      "VAR30": 659,
      "]}": 660,
      "VAR91</w>": 661,
      "sta": 662,
      "state</w>": 663,
      "ca": 664,
      "endca": 665,
      "endcase</w>": 666,
      "VAR87</w>": 667,
      "b0000": 668,
      "23</w>": 669,
      "#(</w>": 670,
      "b11": 671,
      "VAR90</w>": 672,
      "VAR33": 673,
      "VAR101</w>": 674,
      "],": 675,
      "VAR95</w>": 676,
      "VAR93</w>": 677,
      "VAR102</w>": 678,
      "VAR104</w>": 679,
      "case</w>": 680,
      "din</w>": 681,
      "VAR94</w>": 682,
      "VAR108</w>": 683,
      "VAR96</w>": 684,
      "]<={</w>": 685,
      "],{</w>": 686,
      "VAR97</w>": 687,
      "##,.</w>": 688,
      "VAR100</w>": 689,
      "VAR99</w>": 690,
      "VAR34": 691,
      "13</w>": 692,
      "(!</w>": 693,
      "}}};</w>": 694,
      "VAR98</w>": 695,
      "##000</w>": 696,
      "VAR103</w>": 697,
      "95</w>": 698,
      "##AA": 699,
      "({</w>": 700,
      "(~</w>": 701,
      "##{{</w>": 702,
      "),.</w>": 703,
      "VAR105</w>": 704,
      "VAR119</w>": 705,
      "VAR107</w>": 706,
      "VAR106</w>": 707,
      "VAR35": 708,
      "VAR110</w>": 709,
      "VAR114</w>": 710,
      "]<={{</w>": 711,
      "VAR112</w>": 712,
      "14</w>": 713,
      "[(</w>": 714,
      "VAR109</w>": 715,
      "VAR113</w>": 716,
      "h1": 717,
      "VAR144</w>": 718,
      "VAR125</w>": 719,
      "(\\</w>": 720,
      "VAR115</w>": 721,
      "VAR111</w>": 722,
      "VAR117</w>": 723,
      "##((</w>": 724,
      "VAR123</w>": 725,
      "][</w>": 726,
      "VAR116</w>": 727,
      "VAR120</w>": 728,
      "d2": 729,
      "h0": 730,
      "##FF": 731,
      "]^</w>": 732,
      "##ene": 733,
      "##rate</w>": 734,
      "##enerate</w>": 735,
      "VAR118</w>": 736,
      "VAR37": 737,
      "VAR124</w>": 738,
      "VAR36": 739,
      "##==</w>": 740,
      "17</w>": 741,
      "48</w>": 742,
      "(\"</w>": 743,
      "]}}": 744,
      "##dd": 745,
      "]);</w>": 746,
      "VAR121</w>": 747,
      "add": 748,
      "##or</w>": 749,
      "##11</w>": 750,
      "VAR126</w>": 751,
      "VAR122</w>": 752,
      "b01": 753,
      "h3": 754,
      "])": 755,
      "out</w>": 756,
      "47</w>": 757,
      "VAR128</w>": 758,
      "]}},</w>": 759,
      "VAR153</w>": 760,
      "VAR131</w>": 761,
      "VAR127</w>": 762,
      "##igne": 763,
      "##igned</w>": 764,
      "VAR134</w>": 765,
      "VAR136</w>": 766,
      "signed</w>": 767,
      "18</w>": 768,
      "de": 769,
      "20</w>": 770,
      "supply1</w>": 771,
      "VAR145</w>": 772,
      "]=</w>": 773,
      "##edge</w>": 774,
      "112</w>": 775,
      "##fa": 776,
      "neg": 777,
      "negedge</w>": 778,
      "VAR38": 779,
      "VAR142</w>": 780,
      "VAR129</w>": 781,
      "VAR130</w>": 782,
      "VAR140</w>": 783,
      "supply0</w>": 784,
      "##nd</w>": 785,
      "25": 786,
      "##ult</w>": 787,
      "defa": 788,
      "default</w>": 789,
      "VAR135</w>": 790,
      "VAR138</w>": 791,
      "inout</w>": 792,
      "}};</w>": 793,
      "80</w>": 794,
      "VAR133</w>": 795,
      "VAR139</w>": 796,
      "VAR132</w>": 797,
      "VAR143</w>": 798,
      "VAR137</w>": 799,
      "##1111": 800,
      "dout</w>": 801,
      "VAR170</w>": 802,
      "VAR141</w>": 803,
      "VAR162</w>": 804,
      ")-</w>": 805,
      "VAR155</w>": 806,
      "##000000000000": 807,
      "VAR146</w>": 808,
      "19</w>": 809,
      "VAR156</w>": 810,
      "VAR173</w>": 811,
      "##????": 812,
      "VAR160</w>": 813,
      "VAR151</w>": 814,
      "and</w>": 815,
      "VAR148</w>": 816,
      "VAR184</w>": 817,
      "VAR149</w>": 818,
      "h2": 819,
      "VAR157</w>": 820,
      "VAR147</w>": 821,
      "VAR39": 822,
      "79</w>": 823,
      "))": 824,
      "111</w>": 825,
      "for</w>": 826,
      "VAR159</w>": 827,
      "##10</w>": 828,
      "VAR163</w>": 829,
      "27</w>": 830,
      "VAR152</w>": 831,
      "VAR161</w>": 832,
      "VAR154</w>": 833,
      "int": 834,
      "b00000000</w>": 835,
      "d2</w>": 836,
      "b00</w>": 837,
      "VAR158</w>": 838,
      "VAR150</w>": 839,
      "VAR165</w>": 840,
      "\"),</w>": 841,
      "##un": 842,
      "30</w>": 843,
      "VAR166</w>": 844,
      "]==</w>": 845,
      "VAR167</w>": 846,
      "}},</w>": 847,
      "VAR164</w>": 848,
      "VAR180</w>": 849,
      "MODULE2</w>": 850,
      "##eger</w>": 851,
      "integer</w>": 852,
      "##00000000000000000000000000000000": 853,
      "VAR168</w>": 854,
      "100</w>": 855,
      "39</w>": 856,
      "h4": 857,
      "VAR169</w>": 858,
      "VAR178</w>": 859,
      "22</w>": 860,
      "VAR174</w>": 861,
      "VAR171</w>": 862,
      "VAR172</w>": 863,
      "d3": 864,
      "+:</w>": 865,
      "no": 866,
      "##ff": 867,
      "VAR185</w>": 868,
      "VAR190</w>": 869,
      "26</w>": 870,
      "VAR176</w>": 871,
      "21</w>": 872,
      "25</w>": 873,
      "not</w>": 874,
      "VAR188</w>": 875,
      "VAR192</w>": 876,
      "VAR212</w>": 877,
      "VAR181</w>": 878,
      "VAR182</w>": 879,
      "40</w>": 880,
      "#(": 881,
      "b011": 882,
      "#(.</w>": 883,
      "##AAAA": 884,
      "28</w>": 885,
      "VAR186</w>": 886,
      "VAR177</w>": 887,
      "29</w>": 888,
      "VAR175</w>": 889,
      "VAR40": 890,
      "addr</w>": 891,
      ",.</w>": 892,
      "VAR179</w>": 893,
      "VAR183</w>": 894,
      "VAR198</w>": 895,
      "\")</w>": 896,
      "13": 897,
      "VAR193</w>": 898,
      "generate</w>": 899,
      "VAR187</w>": 900,
      "b01</w>": 901,
      "VAR189</w>": 902,
      "VAR191</w>": 903,
      "endg": 904,
      "endgenerate</w>": 905,
      "VAR250</w>": 906,
      "61</w>": 907,
      "55</w>": 908,
      "VAR228</w>": 909,
      ">=</w>": 910,
      "00": 911,
      "VAR217</w>": 912,
      "~(</w>": 913,
      "VAR210</w>": 914,
      "VAR195</w>": 915,
      "02": 916,
      "VAR220</w>": 917,
      "VAR200</w>": 918,
      "56</w>": 919,
      "b10</w>": 920,
      "VAR194</w>": 921,
      "03": 922,
      "256</w>": 923,
      "##001": 924,
      "VAR201</w>": 925,
      "01": 926,
      "d3</w>": 927,
      "71</w>": 928,
      "120</w>": 929,
      "04": 930,
      "VAR205</w>": 931,
      "VAR196</w>": 932,
      "VAR258</w>": 933,
      "VAR42": 934,
      "VAR203</w>": 935,
      "VAR222</w>": 936,
      "co": 937,
      "VAR206</w>": 938,
      "72</w>": 939,
      "VAR218</w>": 940,
      "VAR202</w>": 941,
      "VAR197</w>": 942,
      "VAR204</w>": 943,
      "VAR41": 944,
      "VAR227</w>": 945,
      "h0000": 946,
      "VAR199</w>": 947,
      "##55": 948,
      "VAR223</w>": 949,
      "h1</w>": 950,
      "bu": 951,
      "<<</w>": 952,
      "##re": 953,
      "##ss</w>": 954,
      "addre": 955,
      "address</w>": 956,
      "VAR208</w>": 957,
      "76</w>": 958,
      "##unter</w>": 959,
      "counter</w>": 960,
      "VAR207</w>": 961,
      "104</w>": 962,
      "h00</w>": 963,
      "VAR215</w>": 964,
      "VAR219</w>": 965,
      "VAR214</w>": 966,
      "VAR290</w>": 967,
      "VAR211</w>": 968,
      "VAR226</w>": 969,
      "VAR225</w>": 970,
      "VAR257</w>": 971,
      "}),</w>": 972,
      "VAR243</w>": 973,
      "VAR216</w>": 974,
      "VAR263</w>": 975,
      "88</w>": 976,
      "h7": 977,
      "##0000000000000000</w>": 978,
      "VAR209</w>": 979,
      "119</w>": 980,
      ")+</w>": 981,
      "[((</w>": 982,
      "103</w>": 983,
      "##20</w>": 984,
      "05": 985,
      "VAR231</w>": 986,
      "VAR234</w>": 987,
      "b11</w>": 988,
      "].</w>": 989,
      "VAR213</w>": 990,
      "VAR237</w>": 991,
      "\";</w>": 992,
      "##le</w>": 993,
      "VAR224</w>": 994,
      "VAR262</w>": 995,
      "VAR235</w>": 996,
      "VAR240</w>": 997,
      "##ab": 998,
      "35</w>": 999,
      "87</w>": 1000,
      "VAR233</w>": 1001,
      "buf</w>": 1002,
      "VAR221</w>": 1003,
      "VAR232</w>": 1004,
      "in</w>": 1005,
      "h8": 1006,
      "h6": 1007,
      "VAR238</w>": 1008,
      "{(</w>": 1009,
      "se": 1010,
      "14": 1011,
      "VAR239</w>": 1012,
      "d4": 1013,
      "VAR242</w>": 1014,
      "15": 1015,
      "##010</w>": 1016,
      "):</w>": 1017,
      "##able</w>": 1018,
      "]));</w>": 1019,
      "d4</w>": 1020,
      "VAR246</w>": 1021,
      "VAR229</w>": 1022,
      "##ri": 1023,
      ")]": 1024,
      "VAR236</w>": 1025,
      "06": 1026,
      "enable</w>": 1027,
      "VAR247</w>": 1028,
      "##>></w>": 1029,
      "VAR230</w>": 1030,
      "VAR43": 1031,
      "##:(</w>": 1032,
      "VAR244</w>": 1033,
      "VAR245</w>": 1034,
      "VAR270</w>": 1035,
      ")?</w>": 1036,
      "##ic</w>": 1037,
      "33</w>": 1038,
      "##gic</w>": 1039,
      "logic</w>": 1040,
      "##001</w>": 1041,
      "VAR265</w>": 1042,
      "h5": 1043,
      "VAR252</w>": 1044,
      "):(</w>": 1045,
      "VAR251</w>": 1046,
      "VAR253</w>": 1047,
      "VAR248</w>": 1048,
      "128</w>": 1049,
      "b001": 1050,
      "19": 1051,
      "VAR241</w>": 1052,
      "##0011": 1053,
      "b000</w>": 1054,
      "36</w>": 1055,
      "]}</w>": 1056,
      "16": 1057,
      "VAR256</w>": 1058,
      "VAR249</w>": 1059,
      "(\"": 1060,
      "d5</w>": 1061,
      "VAR254</w>": 1062,
      "34</w>": 1063,
      "##00000</w>": 1064,
      "]>></w>": 1065,
      "VAR278</w>": 1066,
      "##011</w>": 1067,
      "VAR44": 1068,
      "VAR275</w>": 1069,
      "en</w>": 1070,
      "VAR259</w>": 1071,
      "##000": 1072,
      "VAR272</w>": 1073,
      "##23</w>": 1074,
      "VAR255</w>": 1075,
      "\");</w>": 1076,
      "##00000000000000000000000000000000</w>": 1077,
      "##????????": 1078,
      ")))</w>": 1079,
      "VAR283</w>": 1080,
      "##FFFF": 1081,
      "h00000000000000000000000000000000": 1082,
      "VAR260</w>": 1083,
      "VAR268</w>": 1084,
      "d7</w>": 1085,
      "h0000</w>": 1086,
      "h2</w>": 1087,
      "##ti": 1088,
      "37</w>": 1089,
      "VAR261</w>": 1090,
      "VAR264</w>": 1091,
      "d6</w>": 1092,
      "VAR291</w>": 1093,
      "VAR271</w>": 1094,
      "h0000000000000000000000000000000000000000000000000000000000000000</w>": 1095,
      "20": 1096,
      "VAR277</w>": 1097,
      "2000</w>": 1098,
      "VAR286</w>": 1099,
      "@*</w>": 1100,
      "VAR273</w>": 1101,
      ")];</w>": 1102,
      "b0000</w>": 1103,
      "VAR299</w>": 1104,
      "(((</w>": 1105,
      "##24</w>": 1106,
      "rea": 1107,
      "VAR282</w>": 1108,
      "##80</w>": 1109,
      ">></w>": 1110,
      "##03": 1111,
      "##cti": 1112,
      "##on</w>": 1113,
      "VAR267</w>": 1114,
      "##uncti": 1115,
      "##unction</w>": 1116,
      "VAR269</w>": 1117,
      "VAR292</w>": 1118,
      "50</w>": 1119,
      "VAR266</w>": 1120,
      "17": 1121,
      "07": 1122,
      "VAR300</w>": 1123,
      "MODULE3</w>": 1124,
      "d6": 1125,
      "*(</w>": 1126,
      "VAR285</w>": 1127,
      "===</w>": 1128,
      "VAR45": 1129,
      "d10</w>": 1130,
      "VAR284</w>": 1131,
      "VAR274</w>": 1132,
      "255</w>": 1133,
      "VAR302</w>": 1134,
      "<=": 1135,
      "VAR279</w>": 1136,
      "##en": 1137,
      "((": 1138,
      "VAR276</w>": 1139,
      "{{</w>": 1140,
      "##ar</w>": 1141,
      "gen": 1142,
      "##var</w>": 1143,
      "##0001": 1144,
      "genvar</w>": 1145,
      ")*</w>": 1146,
      "){</w>": 1147,
      "VAR297</w>": 1148,
      "()</w>": 1149,
      "VAR303</w>": 1150,
      "##000000</w>": 1151,
      "d8</w>": 1152,
      "VAR319</w>": 1153,
      "VAR313</w>": 1154,
      "]+</w>": 1155,
      "##))</w>": 1156,
      "##12</w>": 1157,
      "VAR280</w>": 1158,
      "VAR308</w>": 1159,
      "##66": 1160,
      "VAR295</w>": 1161,
      "VAR287</w>": 1162,
      "}}</w>": 1163,
      "23": 1164,
      "VAR289</w>": 1165,
      "d5": 1166,
      "VAR281</w>": 1167,
      "VAR293</w>": 1168,
      "b0011": 1169,
      "18": 1170,
      "##AAAAAAAA": 1171,
      ")]</w>": 1172,
      "h000000000000": 1173,
      "hc": 1174,
      "##ec": 1175,
      "##0001</w>": 1176,
      "VAR311</w>": 1177,
      "VAR288</w>": 1178,
      "VAR306</w>": 1179,
      "b001</w>": 1180,
      "h00000000</w>": 1181,
      "VAR320</w>": 1182,
      "##al": 1183,
      "##22</w>": 1184,
      "##40</w>": 1185,
      "b010</w>": 1186,
      "##id</w>": 1187,
      "wri": 1188,
      "write</w>": 1189,
      "val": 1190,
      "valid</w>": 1191,
      "hc</w>": 1192,
      "VAR323</w>": 1193,
      "b00000000": 1194,
      "##63": 1195,
      "VAR294</w>": 1196,
      "VAR309</w>": 1197,
      "VAR301</w>": 1198,
      ")|": 1199,
      "VAR335</w>": 1200,
      "},</w>": 1201,
      "VAR296</w>": 1202,
      "##));</w>": 1203,
      "VAR310</w>": 1204,
      "d7": 1205,
      "08": 1206,
      "##ect</w>": 1207,
      "d15</w>": 1208,
      "##lect</w>": 1209,
      "select</w>": 1210,
      "h3</w>": 1211,
      "##08": 1212,
      "VAR298</w>": 1213,
      "sel</w>": 1214,
      "d9": 1215,
      "38</w>": 1216,
      "VAR332</w>": 1217,
      "VAR317</w>": 1218,
      "VAR359</w>": 1219,
      "VAR305</w>": 1220,
      "52</w>": 1221,
      ",\\</w>": 1222,
      "b1111</w>": 1223,
      "d12</w>": 1224,
      "d9</w>": 1225,
      "##02": 1226,
      "(|</w>": 1227,
      "VAR316</w>": 1228,
      "##00011": 1229,
      "##44": 1230,
      "b111111": 1231,
      "d8": 1232,
      "b100</w>": 1233,
      "req</w>": 1234,
      "fs": 1235,
      "fsm</w>": 1236,
      "VAR325</w>": 1237,
      "hb": 1238,
      "VAR307</w>": 1239,
      "b011</w>": 1240,
      "##47</w>": 1241,
      "VAR314</w>": 1242,
      "MODULE5</w>": 1243,
      "##96</w>": 1244,
      "##0000000</w>": 1245,
      "##|(</w>": 1246,
      "##28</w>": 1247,
      "VAR304</w>": 1248,
      "d11</w>": 1249,
      "VAR322</w>": 1250,
      "VAR318</w>": 1251,
      "VAR327</w>": 1252,
      "VAR315</w>": 1253,
      "VAR328</w>": 1254,
      "b00011": 1255,
      "b1111": 1256,
      "})</w>": 1257,
      "##0101": 1258,
      "44</w>": 1259,
      "##48</w>": 1260,
      "320</w>": 1261,
      "##05": 1262,
      "##22": 1263,
      "d13</w>": 1264,
      "hf": 1265,
      "##43": 1266,
      "~((</w>": 1267,
      "##68</w>": 1268,
      "VAR312</w>": 1269,
      "##60</w>": 1270,
      "MODULE4</w>": 1271,
      ".\\</w>": 1272,
      "##26</w>": 1273,
      "60</w>": 1274,
      "<=#</w>": 1275,
      ")&": 1276,
      "d14</w>": 1277,
      "##16</w>": 1278,
      "##77": 1279,
      "VAR351</w>": 1280,
      "VAR321</w>": 1281,
      "##21</w>": 1282,
      "##64</w>": 1283,
      "VAR345</w>": 1284,
      "##90</w>": 1285,
      "##00000000</w>": 1286,
      "VAR334</w>": 1287,
      "##71</w>": 1288,
      "##63</w>": 1289,
      "h6</w>": 1290,
      "])),</w>": 1291,
      "41</w>": 1292,
      "##25</w>": 1293,
      "##27</w>": 1294,
      "##c5": 1295,
      "VAR329</w>": 1296,
      "##92</w>": 1297,
      "VAR326</w>": 1298,
      "51</w>": 1299,
      "##84</w>": 1300,
      "##ffff": 1301,
      "hF": 1302,
      "VAR372</w>": 1303,
      "##19</w>": 1304,
      "xor</w>": 1305,
      "##44</w>": 1306,
      "]&</w>": 1307,
      "##04</w>": 1308,
      "wr</w>": 1309,
      "]},</w>": 1310,
      "VAR349</w>": 1311,
      "59</w>": 1312,
      "h4</w>": 1313,
      "sum</w>": 1314,
      "rd</w>": 1315,
      "42</w>": 1316,
      "##15</w>": 1317,
      "##65</w>": 1318,
      "##91</w>": 1319,
      "##95</w>": 1320,
      "##73</w>": 1321,
      "VAR343</w>": 1322,
      "##*)</w>": 1323,
      "##61</w>": 1324,
      "##72</w>": 1325,
      "##14</w>": 1326,
      "##99</w>": 1327,
      "b111</w>": 1328,
      "VAR340</w>": 1329,
      "b101</w>": 1330,
      "VAR331</w>": 1331,
      "]}),</w>": 1332,
      "35": 1333,
      "VAR337</w>": 1334,
      "VAR324</w>": 1335,
      "VAR330</w>": 1336,
      "}:</w>": 1337,
      "53</w>": 1338,
      "b0001": 1339,
      "b0001</w>": 1340,
      "75</w>": 1341,
      "65</w>": 1342,
      "##70</w>": 1343,
      "43</w>": 1344,
      "62</w>": 1345,
      "##67</w>": 1346,
      "##08</w>": 1347,
      "##13</w>": 1348,
      "b111": 1349,
      "49</w>": 1350,
      "VAR341</w>": 1351,
      "h00": 1352,
      "##46</w>": 1353,
      "VAR336</w>": 1354,
      "VAR346</w>": 1355,
      "54</w>": 1356,
      "##76</w>": 1357,
      "VAR333</w>": 1358,
      "VAR344</w>": 1359,
      "##41</w>": 1360,
      "VAR338</w>": 1361,
      "h7</w>": 1362,
      "h3F": 1363,
      "##62</w>": 1364,
      "##88</w>": 1365,
      "##17</w>": 1366,
      "##11111111": 1367,
      "b1000</w>": 1368,
      "45</w>": 1369,
      "##75</w>": 1370,
      "##45</w>": 1371,
      "##79</w>": 1372,
      "##74</w>": 1373,
      "VAR371</w>": 1374,
      "##81</w>": 1375,
      "VAR339</w>": 1376,
      "##94</w>": 1377,
      "##43</w>": 1378,
      "##69</w>": 1379,
      "##30</w>": 1380,
      ")&&": 1381,
      "##42</w>": 1382,
      "b101": 1383,
      "case": 1384,
      "VAR347</w>": 1385,
      "##78</w>": 1386,
      "tri": 1387,
      "function</w>": 1388,
      "b1011": 1389,
      "##36</w>": 1390,
      "##function</w>": 1391,
      "endfunction</w>": 1392,
      "##98</w>": 1393,
      "##29</w>": 1394,
      "57</w>": 1395,
      "##97</w>": 1396,
      "]]": 1397,
      "());</w>": 1398,
      "##er": 1399,
      "##and</w>": 1400,
      "##33</w>": 1401,
      "##83</w>": 1402,
      ")||(</w>": 1403,
      "68</w>": 1404,
      "##93</w>": 1405,
      "##49</w>": 1406,
      "VAR342</w>": 1407,
      "##87</w>": 1408,
      "##18</w>": 1409,
      "VAR354</w>": 1410,
      ")));</w>": 1411,
      "##32</w>": 1412,
      "##03</w>": 1413,
      "##55</w>": 1414,
      "##09</w>": 1415,
      "##31</w>": 1416,
      "46</w>": 1417,
      "##07</w>": 1418,
      "##66</w>": 1419,
      "\"))</w>": 1420,
      "##c5c5": 1421,
      "]-</w>": 1422,
      "]|</w>": 1423,
      "VAR356</w>": 1424,
      "##02</w>": 1425,
      "VAR370</w>": 1426,
      "nand</w>": 1427,
      "]))</w>": 1428,
      "##77</w>": 1429,
      "##25": 1430,
      "b0010</w>": 1431,
      "##05</w>": 1432,
      "VAR360</w>": 1433,
      "##85</w>": 1434,
      "69</w>": 1435,
      "##35</w>": 1436,
      "70</w>": 1437,
      "##82</w>": 1438,
      "VAR350</w>": 1439,
      "##39</w>": 1440,
      "VAR353</w>": 1441,
      "##89</w>": 1442,
      "##06</w>": 1443,
      "@(": 1444,
      "VAR348</w>": 1445,
      "={</w>": 1446,
      "VAR362</w>": 1447,
      "(\"'</w>": 1448,
      "+~</w>": 1449,
      "1023</w>": 1450,
      "##86</w>": 1451,
      "b0100</w>": 1452,
      "##21": 1453,
      "@(*)</w>": 1454,
      "66</w>": 1455,
      "VAR357</w>": 1456,
      ")+": 1457,
      "##34</w>": 1458,
      "d15": 1459,
      "##<(</w>": 1460,
      "ir": 1461,
      "irq</w>": 1462,
      "##81": 1463,
      "read</w>": 1464,
      "h5</w>": 1465,
      "##83": 1466,
      "##sk</w>": 1467,
      "##0010</w>": 1468,
      "VAR355</w>": 1469,
      "VAR358</w>": 1470,
      "511</w>": 1471,
      "\"\"": 1472,
      "67</w>": 1473,
      "##111": 1474,
      "-(</w>": 1475,
      "VAR388</w>": 1476,
      "##FFF": 1477,
      "b110</w>": 1478,
      "VAR386</w>": 1479,
      "58</w>": 1480,
      "##56</w>": 1481,
      "##04": 1482,
      "##38</w>": 1483,
      "108</w>": 1484,
      "##37</w>": 1485,
      "(\",</w>": 1486,
      "##06": 1487,
      "##50</w>": 1488,
      "##0011</w>": 1489,
      "##ea": 1490,
      "VAR368</w>": 1491,
      "VAR363</w>": 1492,
      "VAR352</w>": 1493,
      "VAR361</w>": 1494,
      "d16</w>": 1495,
      "##52</w>": 1496,
      "VAR375</w>": 1497,
      "VAR384</w>": 1498,
      ":(</w>": 1499,
      "<<(</w>": 1500,
      "nor</w>": 1501,
      "\"\";</w>": 1502,
      "000": 1503,
      "VAR366</w>": 1504,
      "h0000000000000000": 1505,
      "VAR365</w>": 1506,
      "##07": 1507,
      "]<=~</w>": 1508,
      "93</w>": 1509,
      "d11": 1510,
      "b0011</w>": 1511,
      "}}),</w>": 1512,
      "(~": 1513,
      "92</w>": 1514,
      "VAR364</w>": 1515,
      "##????????????????": 1516,
      "##dy</w>": 1517,
      "ready</w>": 1518,
      "VAR387</w>": 1519,
      "##ff</w>": 1520,
      "b00000</w>": 1521,
      ")),</w>": 1522,
      "b0101</w>": 1523,
      "VAR367</w>": 1524,
      "VAR374</w>": 1525,
      "##(!</w>": 1526,
      "##42": 1527,
      "##AA</w>": 1528,
      "('</w>": 1529,
      "74</w>": 1530,
      "99</w>": 1531,
      "VAR377</w>": 1532,
      "hd": 1533,
      "101</w>": 1534,
      "VAR373</w>": 1535,
      ")+:</w>": 1536,
      "##51</w>": 1537,
      "##5555": 1538,
      "><</w>": 1539,
      "VAR378</w>": 1540,
      "##75": 1541,
      "##0111": 1542,
      "h9": 1543,
      "VAR369</w>": 1544,
      "ha": 1545,
      "~(": 1546,
      "##54</w>": 1547,
      "VAR380</w>": 1548,
      "b00001": 1549,
      "##{(</w>": 1550,
      "]),.</w>": 1551,
      "##29": 1552,
      "h10</w>": 1553,
      "102</w>": 1554,
      "VAR382</w>": 1555,
      "000</w>": 1556,
      "107</w>": 1557,
      "77</w>": 1558,
      "VAR376</w>": 1559,
      "+(</w>": 1560,
      "]:</w>": 1561,
      "]})</w>": 1562,
      "97</w>": 1563,
      "hf</w>": 1564,
      "98</w>": 1565,
      "##53</w>": 1566,
      "##0100</w>": 1567,
      "##59</w>": 1568,
      "##58</w>": 1569,
      "ac": 1570,
      "##or": 1571,
      "**</w>": 1572,
      "73</w>": 1573,
      "##33": 1574,
      "121</w>": 1575,
      "==": 1576,
      "##0110</w>": 1577,
      "VAR402</w>": 1578,
      "##57</w>": 1579,
      "VAR385</w>": 1580,
      "200</w>": 1581,
      ")}": 1582,
      "105</w>": 1583,
      "##ru": 1584,
      "81</w>": 1585,
      "h8</w>": 1586,
      "!(</w>": 1587,
      "b000000000000": 1588,
      "VAR397</w>": 1589,
      "106</w>": 1590,
      "##09": 1591,
      "]];</w>": 1592,
      "116</w>": 1593,
      "109</w>": 1594,
      "ack</w>": 1595,
      "h0000000000004": 1596,
      "113</w>": 1597,
      "VAR395</w>": 1598,
      "##00100</w>": 1599,
      "h000000000000000000000000</w>": 1600,
      "]]</w>": 1601,
      "VAR400</w>": 1602,
      "VAR392</w>": 1603,
      "124</w>": 1604,
      "##FFFFFFFF": 1605,
      "##79": 1606,
      "##BFF": 1607,
      "117</w>": 1608,
      "VAR379</w>": 1609,
      "123</w>": 1610,
      "h01</w>": 1611,
      "78</w>": 1612,
      "b1001</w>": 1613,
      "82</w>": 1614,
      "h000000000000BFF": 1615,
      "84</w>": 1616,
      "VAR401</w>": 1617,
      "VAR403</w>": 1618,
      "VAR424</w>": 1619,
      "##24": 1620,
      "VAR389</w>": 1621,
      "##(~</w>": 1622,
      "83</w>": 1623,
      "he": 1624,
      "125</w>": 1625,
      "((!</w>": 1626,
      "115</w>": 1627,
      "VAR394</w>": 1628,
      "85</w>": 1629,
      "##13": 1630,
      "VAR393</w>": 1631,
      "VAR407</w>": 1632,
      "##64": 1633,
      "VAR381</w>": 1634,
      "b1100</w>": 1635,
      "h3f": 1636,
      "114</w>": 1637,
      "casex</w>": 1638,
      "##00001": 1639,
      "##00110</w>": 1640,
      "89</w>": 1641,
      "110</w>": 1642,
      "h000</w>": 1643,
      "]+": 1644,
      "##28": 1645,
      "91</w>": 1646,
      "90</w>": 1647,
      "VAR412</w>": 1648,
      "##93": 1649,
      "b00011000</w>": 1650,
      "##AAAAAAAAAAAAAAAA": 1651,
      "b000011": 1652,
      "VAR383</w>": 1653,
      "VAR398</w>": 1654,
      ")(</w>": 1655,
      "##74": 1656,
      "VAR390</w>": 1657,
      ")&&(</w>": 1658,
      "=(</w>": 1659,
      "122</w>": 1660,
      "126</w>": 1661,
      "118</w>": 1662,
      "##78": 1663,
      "b1110</w>": 1664,
      "VAR391</w>": 1665,
      "]}};</w>": 1666,
      "1024</w>": 1667,
      "##68": 1668,
      "b1010</w>": 1669,
      "b0111</w>": 1670,
      "VAR396</w>": 1671,
      "##000110</w>": 1672,
      "##0111</w>": 1673,
      "VAR399</w>": 1674,
      "(&</w>": 1675,
      "VAR415</w>": 1676,
      "tri1</w>": 1677,
      "##49": 1678,
      "?????": 1679,
      "|(</w>": 1680,
      "VAR408</w>": 1681,
      "86</w>": 1682,
      "b0000000000000000</w>": 1683,
      "##AAAA</w>": 1684,
      "{~</w>": 1685,
      "hff": 1686,
      "();</w>": 1687,
      "##69": 1688,
      "b001111": 1689,
      "##?:</w>": 1690,
      "hff</w>": 1691,
      "hC": 1692,
      "d31</w>": 1693,
      "b0110</w>": 1694,
      "b1011</w>": 1695,
      "]+(</w>": 1696,
      "b0000000000000000": 1697,
      "h01": 1698,
      "##27": 1699,
      "VAR411</w>": 1700,
      "VAR405</w>": 1701,
      "VAR404</w>": 1702,
      "VAR417</w>": 1703,
      "hbf": 1704,
      "##23": 1705,
      "VAR409</w>": 1706,
      "b00000001</w>": 1707,
      "h000": 1708,
      "512</w>": 1709,
      "##6363": 1710,
      "##19": 1711,
      "94</w>": 1712,
      "]}}</w>": 1713,
      "001</w>": 1714,
      "199</w>": 1715,
      "tri0</w>": 1716,
      "VAR406</w>": 1717,
      "##65": 1718,
      "h9</w>": 1719,
      "00</w>": 1720,
      "##000000": 1721,
      "##01111": 1722,
      "##la": 1723,
      ")}}</w>": 1724,
      "VAR420</w>": 1725,
      "hF</w>": 1726,
      "h18</w>": 1727,
      "])?</w>": 1728,
      "b00001</w>": 1729,
      "h3F8": 1730,
      "135</w>": 1731,
      "h02</w>": 1732,
      "0x</w>": 1733,
      "b1001": 1734,
      "##AAAAAAAA</w>": 1735,
      "004</w>": 1736,
      "VAR410</w>": 1737,
      "129</w>": 1738,
      "d13": 1739,
      "d20</w>": 1740,
      "d18</w>": 1741,
      "##c5c5c5c5": 1742,
      "b1101</w>": 1743,
      "hB": 1744,
      "b0111": 1745,
      "MODULE6</w>": 1746,
      "h08</w>": 1747,
      "]<<</w>": 1748,
      "VAR416</w>": 1749,
      "ta": 1750,
      "task</w>": 1751,
      "endta": 1752,
      "endtask</w>": 1753,
      "##is": 1754,
      "VAR423</w>": 1755,
      "##85": 1756,
      "-:</w>": 1757,
      "VAR413</w>": 1758,
      "h20</w>": 1759,
      "['</w>": 1760,
      "h04</w>": 1761,
      "##73": 1762,
      "))|": 1763,
      ")\"": 1764,
      "133</w>": 1765,
      "casez</w>": 1766,
      "d30</w>": 1767,
      "138</w>": 1768,
      "1022</w>": 1769,
      "##16": 1770,
      "143</w>": 1771,
      "inter": 1772,
      "##??</w>": 1773,
      "???": 1774,
      "##pt</w>": 1775,
      "h42": 1776,
      "##FFFF</w>": 1777,
      "##rupt</w>": 1778,
      "interrupt</w>": 1779,
      "hFFFF": 1780,
      "b000001": 1781,
      "VAR414</w>": 1782,
      "!==</w>": 1783,
      "VAR418</w>": 1784,
      "##00010</w>": 1785,
      "d24</w>": 1786,
      "132</w>": 1787,
      "h40</w>": 1788,
      "b11000110</w>": 1789,
      "b000000</w>": 1790,
      "d25</w>": 1791,
      "b10011": 1792,
      ")/</w>": 1793,
      "131</w>": 1794,
      "b11111111</w>": 1795,
      "hFF</w>": 1796,
      "##(|</w>": 1797,
      "real</w>": 1798,
      "1000</w>": 1799,
      "d27</w>": 1800,
      "159</w>": 1801,
      "##87": 1802,
      "d17</w>": 1803,
      "##004</w>": 1804,
      "d21</w>": 1805,
      "b10000": 1806,
      "]=": 1807,
      "hA": 1808,
      "h11": 1809,
      "d18": 1810,
      "d19": 1811,
      "h03</w>": 1812,
      "hFF": 1813,
      "136</w>": 1814,
      "##0004</w>": 1815,
      "d28</w>": 1816,
      "07</w>": 1817,
      "144</w>": 1818,
      "##15": 1819,
      "##|((</w>": 1820,
      "d22</w>": 1821,
      "##ffer</w>": 1822,
      "buffer</w>": 1823,
      "d14": 1824,
      "(~(</w>": 1825,
      "d17": 1826,
      "d19</w>": 1827,
      ")||</w>": 1828,
      "##48": 1829,
      "hffff": 1830,
      "wea": 1831,
      "h30</w>": 1832,
      "weak": 1833,
      "hE": 1834,
      "##903": 1835,
      "##egis": 1836,
      "d29</w>": 1837,
      "{{(</w>": 1838,
      "207</w>": 1839,
      "003</w>": 1840,
      "b00111": 1841,
      "regis": 1842,
      "VAR422</w>": 1843,
      "register</w>": 1844,
      "fa": 1845,
      "false</w>": 1846,
      "d23</w>": 1847,
      "hc2": 1848,
      "160</w>": 1849,
      "d26</w>": 1850,
      "VAR419</w>": 1851,
      "asser": 1852,
      "assert</w>": 1853,
      "b110000": 1854,
      "191</w>": 1855,
      "h11</w>": 1856,
      "~|</w>": 1857,
      "##em": 1858,
      "##000000000</w>": 1859,
      "130</w>": 1860,
      "VAR429</w>": 1861,
      "VAR426</w>": 1862,
      "##000000000000</w>": 1863,
      "VAR433</w>": 1864,
      "))-</w>": 1865,
      "b01111": 1866,
      "192</w>": 1867,
      "))))</w>": 1868,
      "##0C": 1869,
      "d32</w>": 1870,
      "((~</w>": 1871,
      "b01100110</w>": 1872,
      "##cd": 1873,
      "d166": 1874,
      "##18": 1875,
      "40": 1876,
      "b00010</w>": 1877,
      "VAR427</w>": 1878,
      "##99": 1879,
      "##643": 1880,
      "##00011</w>": 1881,
      "mem": 1882,
      "b10000</w>": 1883,
      "}})</w>": 1884,
      "##ory</w>": 1885,
      "memory</w>": 1886,
      "011": 1887,
      ")\")</w>": 1888,
      "##35": 1889,
      "##72": 1890,
      "##0101</w>": 1891,
      "b00100</w>": 1892,
      ")&&((</w>": 1893,
      "h0000000000000000</w>": 1894,
      "pos</w>": 1895,
      "h05</w>": 1896,
      "b10000000</w>": 1897,
      "500</w>": 1898,
      "h14</w>": 1899,
      "h0000000000004000</w>": 1900,
      "##55555555": 1901,
      "VAR425</w>": 1902,
      "h0000000000004004</w>": 1903,
      "h06</w>": 1904,
      "206</w>": 1905,
      "09": 1906,
      "##38": 1907,
      "##45": 1908,
      "##001111": 1909,
      "]?</w>": 1910,
      "##~(</w>": 1911,
      "137</w>": 1912,
      "h000000000000BFF8</w>": 1913,
      "d16": 1914,
      "h000000000000BFFC</w>": 1915,
      "hA</w>": 1916,
      "##?(</w>": 1917,
      "b000000001</w>": 1918,
      "h12</w>": 1919,
      "##--": 1920,
      "MODULE7</w>": 1921,
      "]&": 1922,
      "))),</w>": 1923,
      "({": 1924,
      "VAR428</w>": 1925,
      "##((": 1926,
      "d12": 1927,
      "##f1</w>": 1928,
      "##ro": 1929,
      "h40000": 1930,
      "VAR437</w>": 1931,
      "))||((</w>": 1932,
      "hD": 1933,
      "##41": 1934,
      "VAR446</w>": 1935,
      "d63</w>": 1936,
      "],~</w>": 1937,
      "VAR434</w>": 1938,
      "&~</w>": 1939,
      "h09</w>": 1940,
      "01</w>": 1941,
      "o1</w>": 1942,
      "VAR447</w>": 1943,
      "h0000000000000004</w>": 1944,
      "##5566": 1945,
      "?????????": 1946,
      "##95": 1947,
      "##nc</w>": 1948,
      "##ync</w>": 1949,
      "b01000</w>": 1950,
      "h10000": 1951,
      "0d</w>": 1952,
      "##5503": 1953,
      "MODULE8</w>": 1954,
      "##01011": 1955,
      "h17</w>": 1956,
      "h20000": 1957,
      "##90381": 1958,
      "VAR432</w>": 1959,
      "d16690381": 1960,
      "##64320</w>": 1961,
      "##556664320</w>": 1962,
      "##5503556664320</w>": 1963,
      "d166903815503556664320</w>": 1964,
      "h07</w>": 1965,
      "VAR436</w>": 1966,
      "b000001</w>": 1967,
      "b110011": 1968,
      ")]),</w>": 1969,
      "##67": 1970,
      "##be": 1971,
      "##98": 1972,
      "VAR421</w>": 1973,
      "##61": 1974,
      "(\"%</w>": 1975,
      "VAR440</w>": 1976,
      "155</w>": 1977,
      "##00000000000</w>": 1978,
      "wor": 1979,
      "h16</w>": 1980,
      "word</w>": 1981,
      "224</w>": 1982,
      "[{</w>": 1983,
      "b11011": 1984,
      "(!": 1985,
      "223</w>": 1986,
      "sync</w>": 1987,
      "&&": 1988,
      "152</w>": 1989,
      "##ffff</w>": 1990,
      "139</w>": 1991,
      "h80000": 1992,
      "==\"</w>": 1993,
      "VAR458</w>": 1994,
      "h13</w>": 1995,
      "b11000000</w>": 1996,
      "fla": 1997,
      "flag</w>": 1998,
      "08</w>": 1999,
      "?????????????????": 2000,
      "b00001100</w>": 2001,
      "o2</w>": 2002,
      "##01001": 2003,
      "b0000000</w>": 2004,
      "149</w>": 2005,
      "]!": 2006,
      "##CE": 2007,
      "h15</w>": 2008,
      "hFFF": 2009,
      "##0000000000</w>": 2010,
      "==(</w>": 2011,
      "b11111</w>": 2012,
      "##0x</w>": 2013,
      "b01100000</w>": 2014,
      "##f0</w>": 2015,
      "##32": 2016,
      "##ty</w>": 2017,
      "##12": 2018,
      "168</w>": 2019,
      "055": 2020,
      "134</w>": 2021,
      "VAR430</w>": 2022,
      "});</w>": 2023,
      "226</w>": 2024,
      "##FF</w>": 2025,
      "##58": 2026,
      "##\");</w>": 2027,
      "VAR431</w>": 2028,
      "VAR445</w>": 2029,
      "##00001</w>": 2030,
      "~(|</w>": 2031,
      "VAR435</w>": 2032,
      "##111</w>": 2033,
      "150</w>": 2034,
      "151</w>": 2035,
      "##089": 2036,
      "~(((</w>": 2037,
      ",{</w>": 2038,
      "b10001</w>": 2039,
      "VAR443</w>": 2040,
      "001": 2041,
      "##ed": 2042,
      "b0101": 2043,
      "((((</w>": 2044,
      "}));</w>": 2045,
      "h02": 2046,
      "175</w>": 2047,
      "0002</w>": 2048,
      "VAR438</w>": 2049,
      "(*)</w>": 2050,
      "pro": 2051,
      "h000000</w>": 2052,
      "VAR439</w>": 2053,
      "]}==</w>": 2054,
      "???????": 2055,
      "VAR454</w>": 2056,
      "d922": 2057,
      "o3</w>": 2058,
      "##e8": 2059,
      "={{</w>": 2060,
      "##553": 2061,
      "=~</w>": 2062,
      "='</w>": 2063,
      "h03": 2064,
      "##100</w>": 2065,
      "h19</w>": 2066,
      "180</w>": 2067,
      "##EE": 2068,
      "##CC": 2069,
      "h0000000": 2070,
      "##63636363": 2071,
      "({\\</w>": 2072,
      "##qu": 2073,
      "VAR442</w>": 2074,
      "##11100</w>": 2075,
      ")))": 2076,
      "VAR451</w>": 2077,
      "##per": 2078,
      "##perty</w>": 2079,
      "b00000001": 2080,
      "VAR452</w>": 2081,
      "do</w>": 2082,
      "##010000": 2083,
      "##01100</w>": 2084,
      "b00000011</w>": 2085,
      "##hi": 2086,
      "h0F</w>": 2087,
      "##-(</w>": 2088,
      "480</w>": 2089,
      "o0</w>": 2090,
      "b00000110</w>": 2091,
      "0003</w>": 2092,
      ",~</w>": 2093,
      "hE</w>": 2094,
      "##b8": 2095,
      "b000000100</w>": 2096,
      "!=": 2097,
      "140</w>": 2098,
      "VAR444</w>": 2099,
      "MODULE1": 2100,
      "d255</w>": 2101,
      "##003": 2102,
      "MODULE9</w>": 2103,
      "##47": 2104,
      "179</w>": 2105,
      "property</w>": 2106,
      "##52": 2107,
      "!(|</w>": 2108,
      "240</w>": 2109,
      "tru": 2110,
      "##ba": 2111,
      "d64</w>": 2112,
      "true</w>": 2113,
      "++": 2114,
      "b00110000</w>": 2115,
      "232</w>": 2116,
      "b100000</w>": 2117,
      ",\"</w>": 2118,
      "h80</w>": 2119,
      "##00000000000000</w>": 2120,
      "163</w>": 2121,
      "##1111111111111111": 2122,
      "##53": 2123,
      "h3e": 2124,
      "dela": 2125,
      "weak1</w>": 2126,
      "delay</w>": 2127,
      "h000000": 2128,
      "156</w>": 2129,
      "176</w>": 2130,
      "239</w>": 2131,
      "##4424": 2132,
      "##b9": 2133,
      "##2977": 2134,
      "b001000</w>": 2135,
      "4096</w>": 2136,
      "]-(</w>": 2137,
      "154</w>": 2138,
      "VAR449</w>": 2139,
      "0004</w>": 2140,
      "hffff</w>": 2141,
      "##08925": 2142,
      "++)</w>": 2143,
      "##0e": 2144,
      "##7553": 2145,
      "##00111</w>": 2146,
      "d9227553": 2147,
      "##442408925": 2148,
      "##2977442408925": 2149,
      "d92275532977442408925": 2150,
      "d9227553297744240892571</w>": 2151,
      "whi": 2152,
      "165</w>": 2153,
      "167</w>": 2154,
      "b00110</w>": 2155,
      "while</w>": 2156,
      "?:</w>": 2157,
      "h0e": 2158,
      "03</w>": 2159,
      "??</w>": 2160,
      "d10": 2161,
      "h1c</w>": 2162,
      "b11111": 2163,
      "con": 2164,
      "##92": 2165,
      "##14": 2166,
      "MODULE10</w>": 2167,
      "##000000000000000000000</w>": 2168,
      "({(</w>": 2169,
      "hC</w>": 2170,
      "b01111100</w>": 2171,
      "166</w>": 2172,
      "!=\"</w>": 2173,
      "VAR464</w>": 2174,
      "<=(</w>": 2175,
      "nul": 2176,
      "##88": 2177,
      "h36</w>": 2178,
      ")):</w>": 2179,
      "164</w>": 2180,
      "null</w>": 2181,
      "0h</w>": 2182,
      "b10101": 2183,
      "b0111111": 2184,
      "]!=</w>": 2185,
      "##6e": 2186,
      "h22</w>": 2187,
      "148</w>": 2188,
      "##00111": 2189,
      "##c5c5c5c5c5c5c5c5": 2190,
      "161</w>": 2191,
      "h3F7": 2192,
      "ha</w>": 2193,
      "d25": 2194,
      "b00111100</w>": 2195,
      "h38</w>": 2196,
      "10000</w>": 2197,
      "216</w>": 2198,
      "101": 2199,
      "147</w>": 2200,
      "203</w>": 2201,
      "h24</w>": 2202,
      "145</w>": 2203,
      "142</w>": 2204,
      "he</w>": 2205,
      "h04": 2206,
      "))?</w>": 2207,
      "hB</w>": 2208,
      "##AAAAAAAAAAAAAAAAAAAAAAAAAAAAAAAA": 2209,
      "hD</w>": 2210,
      "}==</w>": 2211,
      "]});</w>": 2212,
      "b000010</w>": 2213,
      "VAR448</w>": 2214,
      "02</w>": 2215,
      "o4</w>": 2216,
      "141</w>": 2217,
      "198</w>": 2218,
      "##0003": 2219,
      "(@": 2220,
      "##51": 2221,
      "],!</w>": 2222,
      "(@(</w>": 2223,
      "010</w>": 2224,
      "]}})</w>": 2225,
      "VAR441</w>": 2226,
      "##500</w>": 2227,
      "b0000001": 2228,
      "169</w>": 2229,
      "162</w>": 2230,
      "208</w>": 2231,
      "##26": 2232,
      "153</w>": 2233,
      "184</w>": 2234,
      "hffffffff</w>": 2235,
      "d0": 2236,
      "b00011</w>": 2237,
      "##0000000000000000000000000000000000000000000000000000000000000000": 2238,
      "237</w>": 2239,
      "172</w>": 2240,
      "VAR453</w>": 2241,
      "hAAAAAAAA</w>": 2242,
      "h1f</w>": 2243,
      "h21</w>": 2244,
      "146</w>": 2245,
      "183</w>": 2246,
      "b1111111111": 2247,
      "##(((</w>": 2248,
      "h23</w>": 2249,
      "##FFFFFFFFFFFFFFFF": 2250,
      "##46": 2251,
      "##),.</w>": 2252,
      "##005": 2253,
      ")?(</w>": 2254,
      "##ex": 2255,
      "VAR457</w>": 2256,
      "04</w>": 2257,
      "##ux</w>": 2258,
      "##1111</w>": 2259,
      "171</w>": 2260,
      "##!(!</w>": 2261,
      "h08": 2262,
      "204</w>": 2263,
      "170</w>": 2264,
      "hd</w>": 2265,
      "##0a": 2266,
      "2047</w>": 2267,
      "100": 2268,
      "287</w>": 2269,
      "b1101": 2270,
      "157</w>": 2271,
      "h001": 2272,
      "o6</w>": 2273,
      "o5</w>": 2274,
      "##..": 2275,
      "d23": 2276,
      "##*(</w>": 2277,
      "##00101</w>": 2278,
      "158</w>": 2279,
      "##c7": 2280,
      "VAR450</w>": 2281,
      "o16": 2282,
      "080x</w>": 2283,
      "##tex": 2284,
      "##000111": 2285,
      "contex": 2286,
      "context</w>": 2287,
      "215</w>": 2288,
      "d128</w>": 2289,
      "##0000000000000</w>": 2290,
      "##008": 2291,
      "VAR455</w>": 2292,
      "188</w>": 2293,
      "##71": 2294,
      "##rg": 2295,
      "d21": 2296,
      "h3C": 2297,
      "##est</w>": 2298,
      "##EC": 2299,
      "requ": 2300,
      "h28</w>": 2301,
      "231</w>": 2302,
      "request</w>": 2303,
      "640</w>": 2304,
      "##b1": 2305,
      "##bf": 2306,
      "b01110</w>": 2307,
      "351</w>": 2308,
      "##96": 2309,
      "VAR465</w>": 2310,
      "250</w>": 2311,
      "195</w>": 2312,
      "197</w>": 2313,
      "hb</w>": 2314,
      "193</w>": 2315,
      "210</w>": 2316,
      "int</w>": 2317,
      "h41": 2318,
      "b01100</w>": 2319,
      "b001000000</w>": 2320,
      "##rgv": 2321,
      "##0E": 2322,
      "h0A</w>": 2323,
      "202</w>": 2324,
      "212</w>": 2325,
      "##110</w>": 2326,
      "##0d": 2327,
      "194</w>": 2328,
      "b11111110</w>": 2329,
      "##rgv1": 2330,
      "b00000010</w>": 2331,
      "b000100</w>": 2332,
      "]][</w>": 2333,
      "(!(</w>": 2334,
      "##0D": 2335,
      "##54": 2336,
      "##A8": 2337,
      "b1000000</w>": 2338,
      "##011011": 2339,
      "b0000001</w>": 2340,
      "h0c</w>": 2341,
      "190</w>": 2342,
      "VAR456</w>": 2343,
      "187</w>": 2344,
      "(~|</w>": 2345,
      "h3F80000": 2346,
      "h12": 2347,
      "b01001</w>": 2348,
      "173</w>": 2349,
      "225</w>": 2350,
      "174</w>": 2351,
      "352</w>": 2352,
      "211</w>": 2353,
      "##fi": 2354,
      "2500</w>": 2355,
      "VAR473</w>": 2356,
      "b10001": 2357,
      "062</w>": 2358,
      "weak0</w>": 2359,
      "##,{</w>": 2360,
      "247</w>": 2361,
      "##ef</w>": 2362,
      "h34</w>": 2363,
      "b01111</w>": 2364,
      "bufi": 2365,
      "186</w>": 2366,
      "189</w>": 2367,
      "MODULE12</w>": 2368,
      "h0C</w>": 2369,
      "b01011": 2370,
      "181</w>": 2371,
      "319</w>": 2372,
      "o7</w>": 2373,
      "##0B": 2374,
      "##91": 2375,
      "h07": 2376,
      "178</w>": 2377,
      "b11000011</w>": 2378,
      "##0F": 2379,
      "b01010</w>": 2380,
      "h38": 2381,
      "05</w>": 2382,
      "218</w>": 2383,
      "##76": 2384,
      "h3D": 2385,
      ")]};</w>": 2386,
      "177</w>": 2387,
      "##AAAAAAAAAAAAAAAA</w>": 2388,
      "384</w>": 2389,
      "065</w>": 2390,
      "\")": 2391,
      "##01000</w>": 2392,
      "d34</w>": 2393,
      "182</w>": 2394,
      "##ffffffff": 2395,
      "227</w>": 2396,
      "h3B": 2397,
      "##cd21": 2398,
      "06</w>": 2399,
      "100000</w>": 2400,
      "220</w>": 2401,
      "##bc": 2402,
      "d28": 2403,
      "205</w>": 2404,
      "b00000000000000000000000000000000</w>": 2405,
      "248</w>": 2406,
      "MODULE11</w>": 2407,
      "185</w>": 2408,
      "##ead</w>": 2409,
      "09</w>": 2410,
      "228</w>": 2411,
      "219</w>": 2412,
      "##CA": 2413,
      "h60</w>": 2414,
      "##rio": 2415,
      "???</w>": 2416,
      "VAR460</w>": 2417,
      "h00000</w>": 2418,
      ")+(</w>": 2419,
      "b0000000000</w>": 2420,
      "##it</w>": 2421,
      "b10010</w>": 2422,
      ">>></w>": 2423,
      "b00000000000000000000000000000000": 2424,
      "##0f": 2425,
      "h3E": 2426,
      "196</w>": 2427,
      "hbe": 2428,
      "b01011</w>": 2429,
      "##4383": 2430,
      "##----": 2431,
      "(\"\\</w>": 2432,
      "b1111111</w>": 2433,
      ")>></w>": 2434,
      "h1d</w>": 2435,
      "h0D</w>": 2436,
      "h0f</w>": 2437,
      "h0a</w>": 2438,
      "h8000</w>": 2439,
      "213</w>": 2440,
      "d40</w>": 2441,
      "209</w>": 2442,
      "230</w>": 2443,
      "201</w>": 2444,
      "##004": 2445,
      "h1a": 2446,
      "h55</w>": 2447,
      "217</w>": 2448,
      "##82": 2449,
      "##d1": 2450,
      "])};</w>": 2451,
      "d36</w>": 2452,
      "##f2</w>": 2453,
      "##&(~</w>": 2454,
      "b00101</w>": 2455,
      "214</w>": 2456,
      "##0A": 2457,
      "d20": 2458,
      "h31</w>": 2459,
      "229</w>": 2460,
      "##01111</w>": 2461,
      "h3A": 2462,
      "hcc</w>": 2463,
      "h001</w>": 2464,
      "##CF": 2465,
      "b010000</w>": 2466,
      "##931": 2467,
      "##({</w>": 2468,
      "##<<</w>": 2469,
      "d22": 2470,
      "h26</w>": 2471,
      "233</w>": 2472,
      "##8349": 2473,
      "&&(</w>": 2474,
      "222</w>": 2475,
      "h1b</w>": 2476,
      "d24": 2477,
      "h33</w>": 2478,
      "##59": 2479,
      "##6379": 2480,
      "359</w>": 2481,
      "d156379": 2482,
      "##063": 2483,
      "h1e</w>": 2484,
      "h06": 2485,
      "h39</w>": 2486,
      "##0619</w>": 2487,
      "##878349": 2488,
      "##584383": 2489,
      "d156379584383": 2490,
      "##8783490619</w>": 2491,
      "d1563795843838783490619</w>": 2492,
      "d26": 2493,
      "d39": 2494,
      "b000000001": 2495,
      "1000000</w>": 2496,
      "##\",</w>": 2497,
      "b10011</w>": 2498,
      "h0E</w>": 2499,
      ")],</w>": 2500,
      "236</w>": 2501,
      "235</w>": 2502,
      "b10100</w>": 2503,
      "221</w>": 2504,
      "d31": 2505,
      "d35</w>": 2506,
      "243</w>": 2507,
      "300</w>": 2508,
      "##bb": 2509,
      "VAR462</w>": 2510,
      "h25</w>": 2511,
      "234</w>": 2512,
      "b10101</w>": 2513,
      "##})</w>": 2514,
      "MODULE2": 2515,
      "h32</w>": 2516,
      "252</w>": 2517,
      "2048</w>": 2518,
      "##62": 2519,
      "b100000000</w>": 2520,
      "d33": 2521,
      "d38": 2522,
      "VAR459</w>": 2523,
      "b11001100</w>": 2524,
      "hAA</w>": 2525,
      "h3f</w>": 2526,
      "]),": 2527,
      "024</w>": 2528,
      "b00010000</w>": 2529,
      ":%</w>": 2530,
      "##31": 2531,
      "d33</w>": 2532,
      "##427": 2533,
      "81": 2534,
      "b01101</w>": 2535,
      "d60</w>": 2536,
      "21": 2537,
      "??:</w>": 2538,
      "b11001": 2539,
      "h1000000": 2540,
      ")&&</w>": 2541,
      "hFD": 2542,
      "288</w>": 2543,
      "##aa": 2544,
      "##57": 2545,
      "##x0C": 2546,
      "238</w>": 2547,
      "d97</w>": 2548,
      "b11111111111111": 2549,
      "hFFFFFFFF</w>": 2550,
      ")|</w>": 2551,
      "((~(</w>": 2552,
      "&(</w>": 2553,
      "383</w>": 2554,
      "~{</w>": 2555,
      "016</w>": 2556,
      "244</w>": 2557,
      "415</w>": 2558,
      "h0001</w>": 2559,
      "##010001": 2560,
      "]),!(!</w>": 2561,
      "416</w>": 2562,
      "o11</w>": 2563,
      "##84": 2564,
      "h1b": 2565,
      "b010000000</w>": 2566,
      "251</w>": 2567,
      "h2000000": 2568,
      "h78</w>": 2569,
      "d40": 2570,
      "]&~</w>": 2571,
      "h00000000": 2572,
      "##7f": 2573,
      "alu</w>": 2574,
      "b100011": 2575,
      "h1a</w>": 2576,
      "h35</w>": 2577,
      "hFFFF</w>": 2578,
      "h000000000000</w>": 2579,
      "##0b": 2580,
      "h1e": 2581,
      "##0010000": 2582,
      "##002": 2583,
      "h41</w>": 2584,
      "b00111</w>": 2585,
      "312</w>": 2586,
      "head</w>": 2587,
      "h39": 2588,
      "002</w>": 2589,
      "<='</w>": 2590,
      "}\");</w>": 2591,
      "017</w>": 2592,
      "##646": 2593,
      "32": 2594,
      "mux</w>": 2595,
      "VAR461</w>": 2596,
      "h29</w>": 2597,
      "d48</w>": 2598,
      "b10111": 2599,
      "##5555555555555555": 2600,
      "##0c": 2601,
      "h0b</w>": 2602,
      "0090</w>": 2603,
      "]={{</w>": 2604,
      "22": 2605,
      "hAAAAAAAAAAAAAAAA</w>": 2606,
      "b11000</w>": 2607,
      "h1c": 2608,
      "242</w>": 2609,
      "o10</w>": 2610,
      "##56": 2611,
      "##];</w>": 2612,
      "o1": 2613,
      "d29": 2614,
      "h0B</w>": 2615,
      "253</w>": 2616,
      "d37</w>": 2617,
      "0150</w>": 2618,
      "hFFFFFFFF": 2619,
      "b01001": 2620,
      "0546</w>": 2621,
      "(({</w>": 2622,
      "245</w>": 2623,
      "b00000100</w>": 2624,
      "##FFF</w>": 2625,
      "025</w>": 2626,
      "<={</w>": 2627,
      "246</w>": 2628,
      "241</w>": 2629,
      "##b44": 2630,
      "h05": 2631,
      "h3d": 2632,
      "0163</w>": 2633,
      "b11100</w>": 2634,
      "h0a": 2635,
      "b01000000</w>": 2636,
      "h27</w>": 2637,
      "b01101100</w>": 2638,
      "b000001000</w>": 2639,
      "24": 2640,
      "h18": 2641,
      "249</w>": 2642,
      "]}});</w>": 2643,
      "254</w>": 2644,
      "##000000000000000</w>": 2645,
      "##1f": 2646,
      "036</w>": 2647,
      "045</w>": 2648,
      "##01010101": 2649,
      "pe": 2650,
      "VAR491</w>": 2651,
      "##fff</w>": 2652,
      "##riod</w>": 2653,
      "period</w>": 2654,
      "ref</w>": 2655,
      "033</w>": 2656,
      "d78": 2657,
      "????</w>": 2658,
      "???:</w>": 2659,
      "h55": 2660,
      "])))</w>": 2661,
      "b00001000</w>": 2662,
      "##x0CO": 2663,
      "\":</w>": 2664,
      "##&(</w>": 2665,
      "##},</w>": 2666,
      "##01101</w>": 2667,
      "h10": 2668,
      "h0c": 2669,
      "h4000": 2670,
      "d37": 2671,
      "b0001000</w>": 2672,
      "b000010000</w>": 2673,
      "d39</w>": 2674,
      "33": 2675,
      "448</w>": 2676,
      ":'</w>": 2677,
      "o14</w>": 2678,
      "##IT": 2679,
      "h1f": 2680,
      "h0b": 2681,
      "h0d": 2682,
      "h8000": 2683,
      "360</w>": 2684,
      "479</w>": 2685,
      "##0000000000000000000000</w>": 2686,
      "d38</w>": 2687,
      ")&&(!</w>": 2688,
      "o12</w>": 2689,
      "o13</w>": 2690,
      "##17": 2691,
      "##0000011": 2692,
      "b0000010</w>": 2693,
      "h1d": 2694,
      "?????????????????????????????????": 2695,
      "(?</w>": 2696,
      "+(!</w>": 2697,
      "447</w>": 2698,
      "##36": 2699,
      "##FE": 2700,
      "##ver</w>": 2701,
      "0568</w>": 2702,
      "b0010000</w>": 2703,
      "##0511": 2704,
      "##CE01": 2705,
      ")&</w>": 2706,
      "##9b": 2707,
      "##db": 2708,
      "VAR467</w>": 2709,
      "b111111</w>": 2710,
      "##7777": 2711,
      "]?(</w>": 2712,
      "##+:</w>": 2713,
      "##000011": 2714,
      "h0d</w>": 2715,
      "h37</w>": 2716,
      "h44</w>": 2717,
      "d35": 2718,
      "b00100000</w>": 2719,
      "d88</w>": 2720,
      "363</w>": 2721,
      "##5000</w>": 2722,
      "##a3": 2723,
      "##?{</w>": 2724,
      "VAR463</w>": 2725,
      "MODULE13</w>": 2726,
      "d27": 2727,
      "032</w>": 2728,
      "h66</w>": 2729,
      ")|(</w>": 2730,
      "350</w>": 2731,
      "]&&</w>": 2732,
      "ty": 2733,
      "##2A": 2734,
      "h0e</w>": 2735,
      "b101001</w>": 2736,
      "typ": 2737,
      "##ET": 2738,
      "b000101": 2739,
      "h1F</w>": 2740,
      "031</w>": 2741,
      "h7f": 2742,
      "d41</w>": 2743,
      "069</w>": 2744,
      "b0000000001": 2745,
      "b10111</w>": 2746,
      "b00111000</w>": 2747,
      "##ETC": 2748,
      "##94": 2749,
      "d36": 2750,
      "h800": 2751,
      "(((!</w>": 2752,
      "bit</w>": 2753,
      "~^</w>": 2754,
      "##BIT": 2755,
      "##000100</w>": 2756,
      "bufif1</w>": 2757,
      "011</w>": 2758,
      "##DB": 2759,
      "VAR478</w>": 2760,
      "##01110</w>": 2761,
      "d32": 2762,
      "cover</w>": 2763,
      "d50</w>": 2764,
      "-;</w>": 2765,
      "MODULE14</w>": 2766,
      "d42</w>": 2767,
      "063</w>": 2768,
      ")%</w>": 2769,
      "##bd": 2770,
      "##010011": 2771,
      "b100011</w>": 2772,
      "b00000111</w>": 2773,
      "7500</w>": 2774,
      ":((</w>": 2775,
      "VAR472</w>": 2776,
      "h43</w>": 2777,
      "h86</w>": 2778,
      ")};</w>": 2779,
      "o15</w>": 2780,
      "##86": 2781,
      "##NCA": 2782,
      "##009</w>": 2783,
      "VAR469</w>": 2784,
      "h0f": 2785,
      "h42</w>": 2786,
      "d34": 2787,
      "007</w>": 2788,
      "h70</w>": 2789,
      "##NCAT": 2790,
      "263</w>": 2791,
      "270</w>": 2792,
      "MODULE3": 2793,
      "d127</w>": 2794,
      "}});</w>": 2795,
      "d56</w>": 2796,
      "h0001": 2797,
      "##EF": 2798,
      "VAR470</w>": 2799,
      "##??:</w>": 2800,
      "b010000": 2801,
      "h2a</w>": 2802,
      "b10110</w>": 2803,
      "##4235": 2804,
      "h3F800000</w>": 2805,
      "##((((": 2806,
      "(|(</w>": 2807,
      "100000000</w>": 2808,
      "h1000": 2809,
      "h3C</w>": 2810,
      "b11110</w>": 2811,
      "280</w>": 2812,
      "h3c": 2813,
      "400</w>": 2814,
      "hFFFFFFFFFFFF": 2815,
      "0x0CO": 2816,
      "364</w>": 2817,
      "?(</w>": 2818,
      "d80</w>": 2819,
      "st": 2820,
      "b11001</w>": 2821,
      "h1C</w>": 2822,
      "##220511": 2823,
      "##214235": 2824,
      "##6363636363636363": 2825,
      "##rgv1BIT": 2826,
      "##427646": 2827,
      "d78214235": 2828,
      "0x0CONCAT": 2829,
      "##220511427646": 2830,
      "d78214235220511427646": 2831,
      "d7821423522051142764673</w>": 2832,
      "272</w>": 2833,
      "}]</w>": 2834,
      "##1000</w>": 2835,
      "##97": 2836,
      "##4D": 2837,
      "##6a": 2838,
      "##C3": 2839,
      "VAR481</w>": 2840,
      "]))": 2841,
      "064</w>": 2842,
      "339</w>": 2843,
      "o20</w>": 2844,
      "##800000</w>": 2845,
      "##6f": 2846,
      "##d9": 2847,
      "##0111111": 2848,
      "h2d": 2849,
      "h50</w>": 2850,
      "<=~</w>": 2851,
      "4095</w>": 2852,
      "095</w>": 2853,
      "MODULE15</w>": 2854,
      "h00000001</w>": 2855,
      "##028": 2856,
      "b000100000</w>": 2857,
      "##75B": 2858,
      ")>": 2859,
      "313</w>": 2860,
      "342</w>": 2861,
      "o21</w>": 2862,
      "o30</w>": 2863,
      "o32": 2864,
      "b0000100</w>": 2865,
      "##A820</w>": 2866,
      "260</w>": 2867,
      "309</w>": 2868,
      "##ne</w>": 2869,
      "##:{</w>": 2870,
      "MODULE16</w>": 2871,
      "##01001</w>": 2872,
      "b0100000</w>": 2873,
      "h2f</w>": 2874,
      "none</w>": 2875,
      "009</w>": 2876,
      "047</w>": 2877,
      "h7c</w>": 2878,
      "h3F800004</w>": 2879,
      "271</w>": 2880,
      "=%</w>": 2881,
      "##01010</w>": 2882,
      "##011111": 2883,
      "008</w>": 2884,
      "##64A820</w>": 2885,
      "##EC64A820</w>": 2886,
      "##931EC64A820</w>": 2887,
      "hFD75B": 2888,
      "hFD75B931EC64A820</w>": 2889,
      "({{</w>": 2890,
      "2X</w>": 2891,
      "##ae": 2892,
      "VAR480</w>": 2893,
      "h2e": 2894,
      "b0110000</w>": 2895,
      "d43</w>": 2896,
      "310</w>": 2897,
      "]}:</w>": 2898,
      "257</w>": 2899,
      "h2b</w>": 2900,
      "015</w>": 2901,
      "/(</w>": 2902,
      "340</w>": 2903,
      "344</w>": 2904,
      "800</w>": 2905,
      "d00</w>": 2906,
      "VAR476</w>": 2907,
      "b000000010</w>": 2908,
      "h09": 2909,
      "h2000": 2910,
      "b00000000001": 2911,
      "?????</w>": 2912,
      ")))))</w>": 2913,
      "111": 2914,
      "##2c": 2915,
      "##(&</w>": 2916,
      "##=(</w>": 2917,
      "##00010001": 2918,
      "b000000000</w>": 2919,
      "b11101</w>": 2920,
      "096</w>": 2921,
      "o22</w>": 2922,
      "o16</w>": 2923,
      "##DD": 2924,
      "h3a</w>": 2925,
      "d65</w>": 2926,
      "b000000000000</w>": 2927,
      "hFE": 2928,
      "b01111110</w>": 2929,
      "291</w>": 2930,
      "323</w>": 2931,
      "##1c": 2932,
      "##ac": 2933,
      "##f3": 2934,
      "VAR474</w>": 2935,
      "h1A</w>": 2936,
      "]}})": 2937,
      "055</w>": 2938,
      "##ETCd1": 2939,
      "o26</w>": 2940,
      "o25</w>": 2941,
      "##993": 2942,
      "##40": 2943,
      "##((~</w>": 2944,
      "##,(</w>": 2945,
      "VAR475</w>": 2946,
      "##010111": 2947,
      "h1f1</w>": 2948,
      "h4a</w>": 2949,
      "039</w>": 2950,
      "d44</w>": 2951,
      "d47</w>": 2952,
      "b001100</w>": 2953,
      "b111110</w>": 2954,
      ")>>></w>": 2955,
      "375</w>": 2956,
      "337</w>": 2957,
      "441</w>": 2958,
      "417</w>": 2959,
      "b11010</w>": 2960,
      "h3c</w>": 2961,
      "h3F</w>": 2962,
      "b000000000001": 2963,
      "d72</w>": 2964,
      "b11100000</w>": 2965,
      "o23</w>": 2966,
      "o24</w>": 2967,
      "o27</w>": 2968,
      "}))</w>": 2969,
      "b100100</w>": 2970,
      "h61</w>": 2971,
      "261</w>": 2972,
      "o17</w>": 2973,
      "o31</w>": 2974,
      "VAR471</w>": 2975,
      "h19": 2976,
      "##FFE": 2977,
      "h45</w>": 2978,
      "0128": 2979,
      "##000E": 2980,
      "d51</w>": 2981,
      "b101011</w>": 2982,
      "?????:</w>": 2983,
      "????:</w>": 2984,
      "h0e0</w>": 2985,
      "01280x</w>": 2986,
      "pu": 2987,
      "##39": 2988,
      "##6c": 2989,
      "h4c": 2990,
      "040</w>": 2991,
      "048</w>": 2992,
      "h65": 2993,
      "d73</w>": 2994,
      "\")))</w>": 2995,
      "pulse</w>": 2996,
      "(&(~</w>": 2997,
      "275</w>": 2998,
      "343</w>": 2999,
      ":-</w>": 3000,
      "o3": 3001,
      "##0000001": 3002,
      "d197</w>": 3003,
      "b000011</w>": 3004,
      "h0f0</w>": 3005,
      "023</w>": 3006,
      "h79": 3007,
      "h7d": 3008,
      "056</w>": 3009,
      "b0010010</w>": 3010,
      "h3f7": 3011,
      "b00000101</w>": 3012,
      "367</w>": 3013,
      "335</w>": 3014,
      "409</w>": 3015,
      "VAR466</w>": 3016,
      "h2c</w>": 3017,
      "h6c</w>": 3018,
      "d49</w>": 3019,
      "b001001</w>": 3020,
      "b00001111</w>": 3021,
      "hbf7": 3022,
      "348</w>": 3023,
      "[(((</w>": 3024,
      "ti": 3025,
      "##ef": 3026,
      "##meout</w>": 3027,
      "h13": 3028,
      "h21": 3029,
      "h2b": 3030,
      "h4000000": 3031,
      "d46</w>": 3032,
      "##0808": 3033,
      "##ead": 3034,
      "h42c": 3035,
      "##CE01CE01": 3036,
      "timeout</w>": 3037,
      "(),.</w>": 3038,
      "324</w>": 3039,
      "347</w>": 3040,
      "426</w>": 3041,
      "##37": 3042,
      "##6d": 3043,
      "MODULE17</w>": 3044,
      "h2f2</w>": 3045,
      "h69</w>": 3046,
      "h6a": 3047,
      "d45</w>": 3048,
      "h54</w>": 3049,
      ")\",</w>": 3050,
      "26": 3051,
      "311</w>": 3052,
      "326</w>": 3053,
      "321</w>": 3054,
      "390</w>": 3055,
      "349</w>": 3056,
      "},{</w>": 3057,
      "##000000001": 3058,
      "1152": 3059,
      "h1B</w>": 3060,
      "h49</w>": 3061,
      "035</w>": 3062,
      "h6d": 3063,
      "d52</w>": 3064,
      "354</w>": 3065,
      "b100101</w>": 3066,
      "hc2c": 3067,
      "(^</w>": 3068,
      "295</w>": 3069,
      "269</w>": 3070,
      "346</w>": 3071,
      "423</w>": 3072,
      "h4d": 3073,
      "006</w>": 3074,
      "014</w>": 3075,
      "h72</w>": 3076,
      "h65</w>": 3077,
      "d59</w>": 3078,
      "356</w>": 3079,
      "**(</w>": 3080,
      "279</w>": 3081,
      "325</w>": 3082,
      "pul": 3083,
      "##80000</w>": 3084,
      "##2E": 3085,
      "VAR468</w>": 3086,
      "##???:</w>": 3087,
      "259</w>": 3088,
      "h23": 3089,
      "h46</w>": 3090,
      "h6c": 3091,
      "072</w>": 3092,
      "d70</w>": 3093,
      "b101111": 3094,
      "??????</w>": 3095,
      "115200</w>": 3096,
      "pull": 3097,
      "00003": 3098,
      "264</w>": 3099,
      "380</w>": 3100,
      "333</w>": 3101,
      "50000000</w>": 3102,
      "=\"</w>": 3103,
      "h7c": 3104,
      "h6b": 3105,
      "##CCC</w>": 3106,
      "00003a": 3107,
      "293</w>": 3108,
      "327</w>": 3109,
      "##044": 3110,
      "VAR482</w>": 3111,
      "h3b": 3112,
      "258</w>": 3113,
      "))));</w>": 3114,
      "019</w>": 3115,
      "079</w>": 3116,
      "hCCCC</w>": 3117,
      "hBA</w>": 3118,
      "!((</w>": 3119,
      "(-</w>": 3120,
      ")*(</w>": 3121,
      "36": 3122,
      "328</w>": 3123,
      "345</w>": 3124,
      "450</w>": 3125,
      "##01011</w>": 3126,
      "##00000000000000000000000</w>": 3127,
      "h1E</w>": 3128,
      "005</w>": 3129,
      "038</w>": 3130,
      "018</w>": 3131,
      "h7e": 3132,
      "088</w>": 3133,
      "b111111111": 3134,
      "358</w>": 3135,
      "hFFFFF": 3136,
      "265</w>": 3137,
      "408</w>": 3138,
      "=-</w>": 3139,
      "tr": 3140,
      "##2a": 3141,
      "b11011</w>": 3142,
      "h2000</w>": 3143,
      "15000</w>": 3144,
      "353</w>": 3145,
      "tri</w>": 3146,
      "29": 3147,
      "273</w>": 3148,
      "308</w>": 3149,
      "369</w>": 3150,
      "h14": 3151,
      "h48</w>": 3152,
      "h5c": 3153,
      "071</w>": 3154,
      "080</w>": 3155,
      "297</w>": 3156,
      "361</w>": 3157,
      "370</w>": 3158,
      "307</w>": 3159,
      "655": 3160,
      "||(</w>": 3161,
      "##ee": 3162,
      "VAR484</w>": 3163,
      "h2c": 3164,
      "027</w>": 3165,
      "##001001": 3166,
      "h74</w>": 3167,
      "h7a": 3168,
      "d68</w>": 3169,
      "d62</w>": 3170,
      "d55</w>": 3171,
      "d53</w>": 3172,
      "355</w>": 3173,
      "]+((</w>": 3174,
      "##EE00": 3175,
      "268</w>": 3176,
      "267</w>": 3177,
      "283</w>": 3178,
      "376</w>": 3179,
      "021</w>": 3180,
      "034</w>": 3181,
      "060</w>": 3182,
      "h5d": 3183,
      "d54</w>": 3184,
      "087</w>": 3185,
      "?????????????": 3186,
      "391</w>": 3187,
      "332</w>": 3188,
      "]*</w>": 3189,
      "VAR477</w>": 3190,
      "MODULE18</w>": 3191,
      "h3a": 3192,
      "])+:</w>": 3193,
      "h2d</w>": 3194,
      "028</w>": 3195,
      "030</w>": 3196,
      "b001111</w>": 3197,
      "368</w>": 3198,
      "373</w>": 3199,
      "336</w>": 3200,
      "377</w>": 3201,
      "338</w>": 3202,
      "##5d": 3203,
      "##34": 3204,
      "##89": 3205,
      "##='</w>": 3206,
      "h32": 3207,
      "h4a": 3208,
      "013</w>": 3209,
      "054</w>": 3210,
      "h6e": 3211,
      "074</w>": 3212,
      "d57</w>": 3213,
      "d83</w>": 3214,
      "##2222": 3215,
      "357</w>": 3216,
      ")}})</w>": 3217,
      "hfff": 3218,
      "28": 3219,
      "262</w>": 3220,
      "281</w>": 3221,
      "289</w>": 3222,
      "371</w>": 3223,
      "398</w>": 3224,
      "331</w>": 3225,
      "382</w>": 3226,
      "639</w>": 3227,
      "d01": 3228,
      "##0f</w>": 3229,
      "h22": 3230,
      "h2a": 3231,
      "046</w>": 3232,
      "058</w>": 3233,
      "##111111111111": 3234,
      "???????:</w>": 3235,
      "284</w>": 3236,
      "299</w>": 3237,
      "278</w>": 3238,
      "266</w>": 3239,
      "39": 3240,
      "365</w>": 3241,
      "329</w>": 3242,
      "318</w>": 3243,
      "306</w>": 3244,
      "403</w>": 3245,
      "407</w>": 3246,
      "[~</w>": 3247,
      "dis": 3248,
      "##BB": 3249,
      "##(~(</w>": 3250,
      "VAR483</w>": 3251,
      "##00001111": 3252,
      "##0101111": 3253,
      "b100010</w>": 3254,
      "h17": 3255,
      "h100</w>": 3256,
      "h73</w>": 3257,
      "b11110000</w>": 3258,
      "b11011011</w>": 3259,
      "8192</w>": 3260,
      "disable</w>": 3261,
      "276</w>": 3262,
      "274</w>": 3263,
      "277</w>": 3264,
      "392</w>": 3265,
      "304</w>": 3266,
      "314</w>": 3267,
      "362</w>": 3268,
      "387</w>": 3269,
      "366</w>": 3270,
      "385</w>": 3271,
      "b100001": 3272,
      "b1001111": 3273,
      "h15": 3274,
      "h1D</w>": 3275,
      "h33": 3276,
      "020</w>": 3277,
      "044</w>": 3278,
      "041</w>": 3279,
      "h69": 3280,
      "]}})}</w>": 3281,
      "37": 3282,
      "322</w>": 3283,
      "317</w>": 3284,
      "393</w>": 3285,
      "##4E": 3286,
      "d256</w>": 3287,
      "h3b</w>": 3288,
      "h2e</w>": 3289,
      "h4d</w>": 3290,
      "012</w>": 3291,
      ")])</w>": 3292,
      "##635": 3293,
      "d71</w>": 3294,
      "b000111": 3295,
      "hfe</w>": 3296,
      "b01111111</w>": 3297,
      "10000": 3298,
      "292</w>": 3299,
      "285</w>": 3300,
      "330</w>": 3301,
      "378</w>": 3302,
      "302</w>": 3303,
      "440</w>": 3304,
      ":{</w>": 3305,
      "##IN": 3306,
      "##0038": 3307,
      "026</w>": 3308,
      "022</w>": 3309,
      "b000101</w>": 3310,
      "##011110</w>": 3311,
      "]=(</w>": 3312,
      "282</w>": 3313,
      "315</w>": 3314,
      "303</w>": 3315,
      "305</w>": 3316,
      "424</w>": 3317,
      "##0000111": 3318,
      "h34": 3319,
      "h3e</w>": 3320,
      "029</w>": 3321,
      "h73": 3322,
      "050</w>": 3323,
      "051</w>": 3324,
      "h5e": 3325,
      "d61</w>": 3326,
      "081</w>": 3327,
      "hfc</w>": 3328,
      "##FFFFFFFFFFFFFFFFFFFFFFFFFFFFFFFF": 3329,
      ")<<</w>": 3330,
      "372</w>": 3331,
      "399</w>": 3332,
      "429</w>": 3333,
      "406</w>": 3334,
      "459</w>": 3335,
      "600</w>": 3336,
      "##(-</w>": 3337,
      "h401": 3338,
      "037</w>": 3339,
      "h00000": 3340,
      "h75</w>": 3341,
      "052</w>": 3342,
      "b001010</w>": 3343,
      "]],</w>": 3344,
      "b0000000000000000000000000000": 3345,
      "##--------": 3346,
      "##INV": 3347,
      "296</w>": 3348,
      "290</w>": 3349,
      "294</w>": 3350,
      "31": 3351,
      "397</w>": 3352,
      "389</w>": 3353,
      "un": 3354,
      "##800</w>": 3355,
      "##EA": 3356,
      "##000001</w>": 3357,
      "##00000001": 3358,
      "MODULE21</w>": 3359,
      "d66</w>": 3360,
      "090</w>": 3361,
      "091</w>": 3362,
      "316</w>": 3363,
      "433</w>": 3364,
      "}];</w>": 3365,
      "##1b": 3366,
      "##4c": 3367,
      "d294</w>": 3368,
      "b010101": 3369,
      "049</w>": 3370,
      "h72": 3371,
      "h76</w>": 3372,
      "h7b": 3373,
      "059</w>": 3374,
      "053</w>": 3375,
      "h6f": 3376,
      "061</w>": 3377,
      "h58</w>": 3378,
      "070</w>": 3379,
      "b0000000000000001</w>": 3380,
      "b100001</w>": 3381,
      "094</w>": 3382,
      "098</w>": 3383,
      "286</w>": 3384,
      "379</w>": 3385,
      "334</w>": 3386,
      "<(</w>": 3387,
      "##202": 3388,
      "d163": 3389,
      "##AAA</w>": 3390,
      "h1C": 3391,
      "d380</w>": 3392,
      "042</w>": 3393,
      "057</w>": 3394,
      "h59</w>": 3395,
      "b001101</w>": 3396,
      "086</w>": 3397,
      "083</w>": 3398,
      "b00001010</w>": 3399,
      "=='</w>": 3400,
      "b0000110</w>": 3401,
      "394</w>": 3402,
      "386</w>": 3403,
      "431</w>": 3404,
      "##iti": 3405,
      "##ve</w>": 3406,
      "##ow": 3407,
      "##miti": 3408,
      "VAR479</w>": 3409,
      "h3A</w>": 3410,
      "043</w>": 3411,
      "##rimiti": 3412,
      "h5a": 3413,
      "h52</w>": 3414,
      "##000C": 3415,
      "d58</w>": 3416,
      "##rimitive</w>": 3417,
      "092</w>": 3418,
      "097</w>": 3419,
      "38": 3420,
      "395</w>": 3421,
      "381</w>": 3422,
      "401</w>": 3423,
      "##0a</w>": 3424,
      "##dc": 3425,
      "##IF": 3426,
      "b0100100</w>": 3427,
      "h68</w>": 3428,
      "066</w>": 3429,
      "067</w>": 3430,
      "h59": 3431,
      "h53</w>": 3432,
      "076</w>": 3433,
      "085</w>": 3434,
      "084</w>": 3435,
      "d81</w>": 3436,
      "##rgv108": 3437,
      "099</w>": 3438,
      "27": 3439,
      "34": 3440,
      "301</w>": 3441,
      "396</w>": 3442,
      "|({</w>": 3443,
      "d178</w>": 3444,
      "h0A": 3445,
      "h7f</w>": 3446,
      "h64</w>": 3447,
      "b001001": 3448,
      "b000110</w>": 3449,
      "b000111</w>": 3450,
      "hdead": 3451,
      "]={</w>": 3452,
      "##beef</w>": 3453,
      "405</w>": 3454,
      "438</w>": 3455,
      "##2D": 3456,
      "##fc": 3457,
      "##fe": 3458,
      "##[%</w>": 3459,
      "##009": 3460,
      "##007": 3461,
      "MODULE19</w>": 3462,
      "b110111": 3463,
      "h47</w>": 3464,
      "h81</w>": 3465,
      "d447</w>": 3466,
      ")]=</w>": 3467,
      "068</w>": 3468,
      "(\"[%</w>": 3469,
      "075</w>": 3470,
      "hcb</w>": 3471,
      "082</w>": 3472,
      "???????</w>": 3473,
      "b01111000</w>": 3474,
      "+((</w>": 3475,
      "341</w>": 3476,
      "452</w>": 3477,
      "510</w>": 3478,
      "d04</w>": 3479,
      "##EN": 3480,
      "##TH": 3481,
      "]<<(</w>": 3482,
      "h4b": 3483,
      "h77</w>": 3484,
      "h88</w>": 3485,
      "h83</w>": 3486,
      "h67</w>": 3487,
      "073</w>": 3488,
      "077</w>": 3489,
      "hc1": 3490,
      "d77</w>": 3491,
      "h002</w>": 3492,
      "##c5c5c5c5c5c5c5c5c5c5c5c5c5c5c5c5": 3493,
      "##rgv1BIT635": 3494,
      "0x0CONCATIF": 3495,
      "##INVrgv108": 3496,
      "hdeadbeef</w>": 3497,
      "##ENINVrgv108": 3498,
      "##THENINVrgv108": 3499,
      "##rgv1BIT635THENINVrgv108": 3500,
      "0x0CONCATIFrgv1BIT635THENINVrgv108": 3501,
      "093</w>": 3502,
      "388</w>": 3503,
      "428</w>": 3504,
      "421</w>": 3505,
      "404</w>": 3506,
      "402</w>": 3507,
      "435</w>": 3508,
      "d01</w>": 3509,
      "##608": 3510,
      "##{{": 3511,
      "(\"\");</w>": 3512,
      "078</w>": 3513,
      "089</w>": 3514,
      "))||</w>": 3515,
      "1T</w>": 3516,
      "298</w>": 3517,
      "420</w>": 3518,
      "427</w>": 3519,
      "436</w>": 3520,
      "##ng": 3521,
      "125000</w>": 3522,
      "d177": 3523,
      "h3d</w>": 3524,
      "h2C</w>": 3525,
      "h2AAAAAAAA</w>": 3526,
      "h400": 3527,
      "h7d</w>": 3528,
      "h7a</w>": 3529,
      "d490</w>": 3530,
      "h51</w>": 3531,
      "hc0</w>": 3532,
      "##../</w>": 3533,
      "0000</w>": 3534,
      "10000000</w>": 3535,
      "425</w>": 3536,
      "461</w>": 3537,
      "50000</w>": 3538,
      "5000</w>": 3539,
      "90": 3540,
      "by": 3541,
      "##0cd": 3542,
      "##6E": 3543,
      "##6f</w>": 3544,
      "VAR486</w>": 3545,
      "MODULE28</w>": 3546,
      "h57</w>": 3547,
      "d67</w>": 3548,
      "##444": 3549,
      "d82</w>": 3550,
      "h000000000000000000000000000</w>": 3551,
      "????????</w>": 3552,
      "byte</w>": 3553,
      "0001</w>": 3554,
      "468</w>": 3555,
      "464</w>": 3556,
      "432</w>": 3557,
      "623</w>": 3558,
      "]|": 3559,
      "d03</w>": 3560,
      "##805": 3561,
      "##AB": 3562,
      "##CD": 3563,
      "##={</w>": 3564,
      "}}}</w>": 3565,
      "h37": 3566,
      "h4e": 3567,
      "h71</w>": 3568,
      "h56</w>": 3569,
      "##000F": 3570,
      "b1001111</w>": 3571,
      "b1111111111111111</w>": 3572,
      "430</w>": 3573,
      "h0100</w>": 3574,
      "##4f": 3575,
      "##ES</w>": 3576,
      "d109</w>": 3577,
      "h4000</w>": 3578,
      "h428": 3579,
      "h000004": 3580,
      "h5b": 3581,
      "d504</w>": 3582,
      "b00000000000</w>": 3583,
      "d96</w>": 3584,
      "b1111001</w>": 3585,
      "442</w>": 3586,
      "607</w>": 3587,
      "7S": 3588,
      "##2C": 3589,
      "##6D": 3590,
      "##FD": 3591,
      "MODULE20</w>": 3592,
      "MODULE24</w>": 3593,
      "h1000</w>": 3594,
      "b010011": 3595,
      "h7e</w>": 3596,
      "h7b</w>": 3597,
      "b101010</w>": 3598,
      "),(</w>": 3599,
      "411</w>": 3600,
      "410</w>": 3601,
      "454</w>": 3602,
      "d07</w>": 3603,
      "##628": 3604,
      "##ER": 3605,
      "##IES</w>": 3606,
      "MODULE5": 3607,
      "##018": 3608,
      "h3E</w>": 3609,
      ")){</w>": 3610,
      "h00000004</w>": 3611,
      "h84</w>": 3612,
      "d76</w>": 3613,
      "d79</w>": 3614,
      "d84</w>": 3615,
      "b100111</w>": 3616,
      "7SER": 3617,
      "7SERIES</w>": 3618,
      "463</w>": 3619,
      "414</w>": 3620,
      "467</w>": 3621,
      "445</w>": 3622,
      "439</w>": 3623,
      "434</w>": 3624,
      "437</w>": 3625,
      "d02</w>": 3626,
      "d125": 3627,
      "b110000</w>": 3628,
      "])));</w>": 3629,
      "##667</w>": 3630,
      "hf0</w>": 3631,
      "477</w>": 3632,
      "ne": 3633,
      "##080</w>": 3634,
      "##5a": 3635,
      "##6C": 3636,
      "##AE": 3637,
      "##e9": 3638,
      "])]</w>": 3639,
      "##fff": 3640,
      "d69</w>": 3641,
      "d74</w>": 3642,
      "d85</w>": 3643,
      "b1111000</w>": 3644,
      "hBC</w>": 3645,
      "20000</w>": 3646,
      "374</w>": 3647,
      "444</w>": 3648,
      "449</w>": 3649,
      "525</w>": 3650,
      "512": 3651,
      "d05</w>": 3652,
      "##6F": 3653,
      "##**": 3654,
      "d100</w>": 3655,
      "h82</w>": 3656,
      "h63</w>": 3657,
      "163": 3658,
      "##0001011": 3659,
      "##688": 3660,
      "??????:</w>": 3661,
      "&(~</w>": 3662,
      "465</w>": 3663,
      "455</w>": 3664,
      "456</w>": 3665,
      "d09</w>": 3666,
      "{((</w>": 3667,
      "##0c</w>": 3668,
      "##0b</w>": 3669,
      "##[(</w>": 3670,
      "VAR489</w>": 3671,
      "d212</w>": 3672,
      "0056</w>": 3673,
      "h5f": 3674,
      "b001110</w>": 3675,
      "d87</w>": 3676,
      "b00001110</w>": 3677,
      "#\"": 3678,
      "469</w>": 3679,
      "451</w>": 3680,
      "453</w>": 3681,
      "?(-</w>": 3682,
      "]:{</w>": 3683,
      "##043": 3684,
      "##2B": 3685,
      "##^{</w>": 3686,
      "b100110</w>": 3687,
      "b0000011</w>": 3688,
      "h1F": 3689,
      "b0100000000000000</w>": 3690,
      "h43": 3691,
      "h62</w>": 3692,
      "d481</w>": 3693,
      "b0011001</w>": 3694,
      "d75</w>": 3695,
      ")&(</w>": 3696,
      "b0000000000000</w>": 3697,
      "?????????????????????????": 3698,
      "type</w>": 3699,
      "0x0CONCATIFrgv1BIT635THENINVrgv108ETCd1": 3700,
      "000000</w>": 3701,
      "496</w>": 3702,
      "474</w>": 3703,
      "505</w>": 3704,
      "d06</w>": 3705,
      "##2F": 3706,
      "##4B": 3707,
      "##6C</w>": 3708,
      "##006": 3709,
      "VAR485</w>": 3710,
      "MODULE4": 3711,
      "d192</w>": 3712,
      "h1ff</w>": 3713,
      "b010101</w>": 3714,
      "]):</w>": 3715,
      "d45": 3716,
      "b001011": 3717,
      "##c51": 3718,
      "b000000000000000000000000": 3719,
      "hFFFFFF</w>": 3720,
      "b10011001</w>": 3721,
      ",%</w>": 3722,
      "472</w>": 3723,
      "446</w>": 3724,
      "462</w>": 3725,
      "458</w>": 3726,
      "457</w>": 3727,
      "=((</w>": 3728,
      "##5D": 3729,
      "##4d": 3730,
      "]}]</w>": 3731,
      "]}));</w>": 3732,
      "d30": 3733,
      "b0110011</w>": 3734,
      "h80000000</w>": 3735,
      "h000000000000000000000000000000000000</w>": 3736,
      "d512</w>": 3737,
      "d78</w>": 3738,
      "hFFFFFFFFFFFFFFFF</w>": 3739,
      "##000E000E": 3740,
      "##EE00EE00": 3741,
      "!(!</w>": 3742,
      "422</w>": 3743,
      "490</w>": 3744,
      "471</w>": 3745,
      "443</w>": 3746,
      "509</w>": 3747,
      "d08</w>": 3748,
      "##5B": 3749,
      "##3d": 3750,
      "##8a": 3751,
      "##475": 3752,
      "##C7": 3753,
      "##C001": 3754,
      "##mux</w>": 3755,
      "MODULE26</w>": 3756,
      "12500</w>": 3757,
      "b110101": 3758,
      "h2f": 3759,
      "h63": 3760,
      "d420</w>": 3761,
      "hc6</w>": 3762,
      "b101000</w>": 3763,
      "==='</w>": 3764,
      "b00000000000000000000": 3765,
      "504</w>": 3766,
      "=!</w>": 3767,
      "][(</w>": 3768,
      "{!</w>": 3769,
      "}),.</w>": 3770,
      "##0x": 3771,
      "##527": 3772,
      "##8E": 3773,
      "##240</w>": 3774,
      "##4c</w>": 3775,
      "##>(</w>": 3776,
      "MODULE23</w>": 3777,
      "##0100001": 3778,
      "h16": 3779,
      "]):(</w>": 3780,
      "h4c</w>": 3781,
      "h429": 3782,
      "h85</w>": 3783,
      "hc29": 3784,
      "##4444": 3785,
      "(~(|</w>": 3786,
      "bufif0</w>": 3787,
      "8191</w>": 3788,
      "492</w>": 3789,
      "470</w>": 3790,
      "413</w>": 3791,
      "514</w>": 3792,
      "lut</w>": 3793,
      "##5A": 3794,
      "##704": 3795,
      "##^(</w>": 3796,
      "##0100011": 3797,
      "##000000000000000000</w>": 3798,
      "b1100011": 3799,
      "h0000001": 3800,
      "##0707": 3801,
      "##011111</w>": 3802,
      "))||(</w>": 3803,
      "\"../</w>": 3804,
      "484</w>": 3805,
      "488</w>": 3806,
      "418</w>": 3807,
      "486</w>": 3808,
      "501</w>": 3809,
      "530</w>": 3810,
      "518</w>": 3811,
      "##3c": 3812,
      "h102": 3813,
      "))}": 3814,
      "))+</w>": 3815,
      "h4f</w>": 3816,
      "b11111111": 3817,
      "##09e": 3818,
      "b011111</w>": 3819,
      ")?{</w>": 3820,
      "412</w>": 3821,
      "481</w>": 3822,
      "498</w>": 3823,
      "<<<</w>": 3824,
      "=((~</w>": 3825,
      "xn": 3826,
      "~&</w>": 3827,
      "##7d": 3828,
      "##2e": 3829,
      "##C1</w>": 3830,
      "##],</w>": 3831,
      "d144</w>": 3832,
      "h100": 3833,
      "##11111": 3834,
      "d319</w>": 3835,
      "h79</w>": 3836,
      "512x": 3837,
      "xnor</w>": 3838,
      "473</w>": 3839,
      "483</w>": 3840,
      "466</w>": 3841,
      "519</w>": 3842,
      "543</w>": 3843,
      "h90</w>": 3844,
      "##201": 3845,
      "##|{</w>": 3846,
      "VAR488</w>": 3847,
      "d120</w>": 3848,
      "h27": 3849,
      "h2A</w>": 3850,
      "h4e</w>": 3851,
      "##056</w>": 3852,
      "~(~</w>": 3853,
      "b0000000000000010</w>": 3854,
      "475</w>": 3855,
      "##0e</w>": 3856,
      "##1e": 3857,
      "##7e": 3858,
      "##c9": 3859,
      "##mp": 3860,
      "MODULE22</w>": 3861,
      "d108": 3862,
      "d132</w>": 3863,
      "demux</w>": 3864,
      "##0303": 3865,
      "##0001001": 3866,
      "##215": 3867,
      "##????????????????????????????????": 3868,
      "##rong": 3869,
      "strong": 3870,
      "strong0</w>": 3871,
      ")?": 3872,
      "460</w>": 3873,
      "419</w>": 3874,
      "494</w>": 3875,
      "d55": 3876,
      "h96</w>": 3877,
      "##2f": 3878,
      "##6B": 3879,
      "##FE</w>": 3880,
      "##AD": 3881,
      "d168</w>": 3882,
      "##0110111": 3883,
      "b010111</w>": 3884,
      "h3B</w>": 3885,
      "noti": 3886,
      "h5be": 3887,
      "##AAAAAAAAAAAA": 3888,
      "hf8</w>": 3889,
      "##ort</w>": 3890,
      "##edef</w>": 3891,
      "##6ef3": 3892,
      "typedef</w>": 3893,
      "##00380038": 3894,
      "1X</w>": 3895,
      "491</w>": 3896,
      "489</w>": 3897,
      "##7c": 3898,
      "}})": 3899,
      "##ff53": 3900,
      "b001011</w>": 3901,
      "##00110011": 3902,
      "((|</w>": 3903,
      "##6666": 3904,
      "##213": 3905,
      "##3333": 3906,
      "h00000008</w>": 3907,
      "d03": 3908,
      "||((</w>": 3909,
      "##5e": 3910,
      "##3D": 3911,
      "##8d": 3912,
      "##2b": 3913,
      "##AC": 3914,
      "##010000</w>": 3915,
      "##011001": 3916,
      "]}}};</w>": 3917,
      "b010100</w>": 3918,
      "h28": 3919,
      "##000000000000000000000000000000000000000000000000": 3920,
      "##000101</w>": 3921,
      "##05688": 3922,
      "d150</w>": 3923,
      "##83d9": 3924,
      "b01110110</w>": 3925,
      "##67ae": 3926,
      "?????????????????????": 3927,
      "]!=(</w>": 3928,
      "##0e527": 3929,
      "##54ff53": 3930,
      "16384</w>": 3931,
      "h5be0cd": 3932,
      "495</w>": 3933,
      "520</w>": 3934,
      "##4f</w>": 3935,
      "##600</w>": 3936,
      "##ce</w>": 3937,
      "d131</w>": 3938,
      "b0011111111": 3939,
      "h3D</w>": 3940,
      "b011000</w>": 3941,
      "0565</w>": 3942,
      "h81": 3943,
      "b00000000001</w>": 3944,
      "##0807": 3945,
      "d95</w>": 3946,
      "##b440": 3947,
      "##77777777": 3948,
      "(%</w>": 3949,
      "(.": 3950,
      "499</w>": 3951,
      "521</w>": 3952,
      "667</w>": 3953,
      "h99</w>": 3954,
      "imp": 3955,
      "{(~</w>": 3956,
      "VAR490</w>": 3957,
      "h101": 3958,
      "h35": 3959,
      "))&": 3960,
      "b01100011</w>": 3961,
      "h5f</w>": 3962,
      "d90</w>": 3963,
      "##432</w>": 3964,
      "h002A": 3965,
      "d112</w>": 3966,
      "(~(~</w>": 3967,
      "b0000100000000000</w>": 3968,
      "hc2a": 3969,
      "import</w>": 3970,
      ",(</w>": 3971,
      "3000</w>": 3972,
      "487</w>": 3973,
      "515</w>": 3974,
      "508</w>": 3975,
      "575</w>": 3976,
      "##80": 3977,
      "##208": 3978,
      "##4b": 3979,
      "d160</w>": 3980,
      "##000000000000000000000000</w>": 3981,
      "h0F": 3982,
      "h49": 3983,
      "h4f": 3984,
      "h51": 3985,
      "b0000000000001</w>": 3986,
      "b1100111</w>": 3987,
      "b1101111</w>": 3988,
      "????????:</w>": 3989,
      "##00000000000000000000000000000000000000000000000000000000000000000000000000000000000000000000000000000000000000000000000000000000": 3990,
      "320x": 3991,
      "b0000000001000000</w>": 3992,
      "320x240</w>": 3993,
      "476</w>": 3994,
      "493</w>": 3995,
      "578</w>": 3996,
      "##878": 3997,
      "##200</w>": 3998,
      "##4F": 3999,
      "##de": 4000,
      "##CB": 4001,
      "##016</w>": 4002,
      "h1B": 4003,
      "])},</w>": 4004,
      "h205": 4005,
      "h00001": 4006,
      "b0010011</w>": 4007,
      "d93</w>": 4008,
      "d91</w>": 4009,
      "b11111100</w>": 4010,
      "##051": 4011,
      "b111000</w>": 4012,
      "d153</w>": 4013,
      "d115</w>": 4014,
      "h9009</w>": 4015,
      "hae": 4016,
      "h42a": 4017,
      "h42b": 4018,
      "hFFFFE": 4019,
      "hc2b": 4020,
      "?????????</w>": 4021,
      "b10011111</w>": 4022,
      "##09e667</w>": 4023,
      "517</w>": 4024,
      "503</w>": 4025,
      "768</w>": 4026,
      ":;</w>": 4027,
      "##999</w>": 4028,
      "##242": 4029,
      "##ce": 4030,
      "MODULE27</w>": 4031,
      "b1000110</w>": 4032,
      "h1E": 4033,
      "h2D</w>": 4034,
      "h4b</w>": 4035,
      "h75": 4036,
      "b000000000001</w>": 4037,
      "08h</w>": 4038,
      "d99</w>": 4039,
      "d92</w>": 4040,
      "d86</w>": 4041,
      "d89</w>": 4042,
      "##685": 4043,
      "b0111111</w>": 4044,
      "##4D4</w>": 4045,
      "478</w>": 4046,
      "576</w>": 4047,
      "536</w>": 4048,
      "533</w>": 4049,
      "767</w>": 4050,
      "h000000000</w>": 4051,
      "##5E": 4052,
      "##4A": 4053,
      "##4b</w>": 4054,
      "##655": 4055,
      "##622": 4056,
      "##((!</w>": 4057,
      "##==": 4058,
      "##-:</w>": 4059,
      "MODULE25</w>": 4060,
      "d130</w>": 4061,
      "h0AAAAAAAA</w>": 4062,
      "h25": 4063,
      "h5c</w>": 4064,
      "h5a</w>": 4065,
      "##0011001": 4066,
      "((&</w>": 4067,
      "##029": 4068,
      "##0001111": 4069,
      "b1111111111</w>": 4070,
      "b0001110</w>": 4071,
      "hf5</w>": 4072,
      "##333": 4073,
      "##739": 4074,
      "hE00000</w>": 4075,
      "(!(|</w>": 4076,
      "&&!</w>": 4077,
      "h00000002</w>": 4078,
      "b10101010</w>": 4079,
      "b0000000010000000</w>": 4080,
      "##6ef372": 4081,
      "##83d9ab": 4082,
      "##67ae85": 4083,
      "##0e527fa": 4084,
      "*((</w>": 4085,
      "00000000</w>": 4086,
      "1000000000</w>": 4087,
      "482</w>": 4088,
      "522</w>": 4089,
      "513</w>": 4090,
      "507</w>": 4091,
      "538</w>": 4092,
      "554</w>": 4093,
      "799</w>": 4094,
      "##8F": 4095,
      "##266": 4096,
      "endp": 4097,
      "d104</w>": 4098,
      "d108</w>": 4099,
      "b010001</w>": 4100,
      "b0010000000000000</w>": 4101,
      "##035": 4102,
      "##025": 4103,
      "##023": 4104,
      "b11100110</w>": 4105,
      "b11100111</w>": 4106,
      "##218": 4107,
      "\"\",</w>": 4108,
      "##7827": 4109,
      "b10000001</w>": 4110,
      "b11111000</w>": 4111,
      "h5be0cd19": 4112,
      "&!</w>": 4113,
      ",-</w>": 4114,
      "497</w>": 4115,
      "485</w>": 4116,
      "535</w>": 4117,
      "552</w>": 4118,
      "?'</w>": 4119,
      "}=</w>": 4120,
      "##0C</w>": 4121,
      "##6e</w>": 4122,
      "##6F</w>": 4123,
      "##in": 4124,
      "##0000001</w>": 4125,
      "MODULE32</w>": 4126,
      "}},{</w>": 4127,
      "b010111": 4128,
      "h200": 4129,
      "h44D4</w>": 4130,
      "h8c": 4131,
      "h6f</w>": 4132,
      "(({(</w>": 4133,
      "b0011000</w>": 4134,
      "##633": 4135,
      "d94</w>": 4136,
      "##057</w>": 4137,
      "(~((</w>": 4138,
      "##000F000F": 4139,
      "\",": 4140,
      "2T</w>": 4141,
      "327": 4142,
      "524</w>": 4143,
      "540</w>": 4144,
      "516</w>": 4145,
      "wa": 4146,
      "{!(!</w>": 4147,
      "##5F": 4148,
      "##8000000</w>": 4149,
      "##4C": 4150,
      "##|(~</w>": 4151,
      "##*);</w>": 4152,
      "VAR487</w>": 4153,
      "d155": 4154,
      "d133</w>": 4155,
      "d102</w>": 4156,
      "1021</w>": 4157,
      "b110100</w>": 4158,
      "h041": 4159,
      "b010110</w>": 4160,
      "h2E</w>": 4161,
      "h68": 4162,
      "##111111111111</w>": 4163,
      "b10110000</w>": 4164,
      "##FFFE": 4165,
      "~(&</w>": 4166,
      "b00111111</w>": 4167,
      "h0002</w>": 4168,
      "b01110000</w>": 4169,
      "##a3c": 4170,
      "(.*);</w>": 4171,
      "wait</w>": 4172,
      "0010</w>": 4173,
      "40000</w>": 4174,
      "541</w>": 4175,
      "551</w>": 4176,
      "##0d</w>": 4177,
      "##077": 4178,
      "##9e": 4179,
      "110000</w>": 4180,
      "d101</w>": 4181,
      "d107</w>": 4182,
      "d105</w>": 4183,
      "}}},</w>": 4184,
      "b0100001</w>": 4185,
      "h5e</w>": 4186,
      "hc28": 4187,
      "hbc</w>": 4188,
      "##058</w>": 4189,
      "]])</w>": 4190,
      "##074": 4191,
      "d111</w>": 4192,
      ")}};</w>": 4193,
      "b0000000000000100</w>": 4194,
      "hFFFE": 4195,
      "##bb67ae85": 4196,
      "##9b05688": 4197,
      "##6a09e667</w>": 4198,
      "##c510e527fa": 4199,
      "##54ff53a3c": 4200,
      "##6ef372bb67ae85": 4201,
      "##83d9ab9b05688": 4202,
      "##c510e527fa54ff53a3c": 4203,
      "##6ef372bb67ae856a09e667</w>": 4204,
      "##83d9ab9b05688c510e527fa54ff53a3c": 4205,
      "##83d9ab9b05688c510e527fa54ff53a3c6ef372bb67ae856a09e667</w>": 4206,
      ")-:</w>": 4207,
      "528</w>": 4208,
      "527</w>": 4209,
      "532</w>": 4210,
      "h011</w>": 4211,
      "##877": 4212,
      "##7D": 4213,
      "##aa</w>": 4214,
      "##f9": 4215,
      "##signed</w>": 4216,
      "d142</w>": 4217,
      "d136</w>": 4218,
      "d135</w>": 4219,
      "d106</w>": 4220,
      "]}}^{</w>": 4221,
      "h31": 4222,
      "])&": 4223,
      "b01101000</w>": 4224,
      "##00100000</w>": 4225,
      "0100</w>": 4226,
      "b00011111</w>": 4227,
      "##111111111</w>": 4228,
      "##7500</w>": 4229,
      "##239": 4230,
      "0110</w>": 4231,
      "##1f83d9ab9b05688c510e527fa54ff53a3c6ef372bb67ae856a09e667</w>": 4232,
      "unsigned</w>": 4233,
      "##000C000C": 4234,
      "##C001C001": 4235,
      "h5be0cd191f83d9ab9b05688c510e527fa54ff53a3c6ef372bb67ae856a09e667</w>": 4236,
      ")\"</w>": 4237,
      "523</w>": 4238,
      "544</w>": 4239,
      "565</w>": 4240,
      "502</w>": 4241,
      "##0F</w>": 4242,
      "##5b": 4243,
      "##906": 4244,
      "##4a</w>": 4245,
      "##40000</w>": 4246,
      "##6b": 4247,
      "##eb": 4248,
      "##!(</w>": 4249,
      "##/(</w>": 4250,
      "##112</w>": 4251,
      "d140</w>": 4252,
      "d163</w>": 4253,
      "b1100000</w>": 4254,
      "h29": 4255,
      "h2B</w>": 4256,
      "h83": 4257,
      "h6e</w>": 4258,
      "##030</w>": 4259,
      "##032": 4260,
      "b0000000001</w>": 4261,
      "##020100</w>": 4262,
      "d151</w>": 4263,
      "d152</w>": 4264,
      "b1000010</w>": 4265,
      "10000010</w>": 4266,
      "h0410000</w>": 4267,
      ",\"": 4268,
      "555</w>": 4269,
      "506</w>": 4270,
      ">>(</w>": 4271,
      "[%</w>": 4272,
      "##902": 4273,
      "##4e</w>": 4274,
      "##677": 4275,
      "##F2</w>": 4276,
      "##cod": 4277,
      "##C1": 4278,
      "##up</w>": 4279,
      "d103</w>": 4280,
      "d200</w>": 4281,
      "h0B": 4282,
      "b010010</w>": 4283,
      "b01100010</w>": 4284,
      "0170</w>": 4285,
      "d451</w>": 4286,
      "h5d</w>": 4287,
      "##FFFFF</w>": 4288,
      "hFE</w>": 4289,
      "he0</w>": 4290,
      "##697": 4291,
      "##154": 4292,
      "##AAAAAAAAAAAAAAAAAAAAAAAAAAAAAAAAAAAAAAAAAAAAAAAAAAAAAAAAAAAAAAAA": 4293,
      "##0DE": 4294,
      "pullup</w>": 4295,
      "##coder</w>": 4296,
      "545</w>": 4297,
      "587</w>": 4298,
      "531</w>": 4299,
      "](</w>": 4300,
      "rand</w>": 4301,
      "##10": 4302,
      "##2D</w>": 4303,
      "d146</w>": 4304,
      "]})": 4305,
      "b110010</w>": 4306,
      "d254</w>": 4307,
      "h202": 4308,
      "0161</w>": 4309,
      "h0000000</w>": 4310,
      "h801": 4311,
      "h802": 4312,
      "h5b</w>": 4313,
      "b00011100</w>": 4314,
      "##065": 4315,
      "0009</w>": 4316,
      "d119</w>": 4317,
      "b0000000000010000</w>": 4318,
      "547</w>": 4319,
      "590</w>": 4320,
      "549</w>": 4321,
      "556</w>": 4322,
      "559</w>": 4323,
      "7800000</w>": 4324,
      "##041</w>": 4325,
      "##5f": 4326,
      "##6c</w>": 4327,
      "##d3": 4328,
      "##ed</w>": 4329,
      "##fd": 4330,
      "##0078": 4331,
      "##0100111": 4332,
      "d129</w>": 4333,
      "d137</w>": 4334,
      "h1A": 4335,
      "0076</w>": 4336,
      "0042</w>": 4337,
      "h87</w>": 4338,
      "h6b</w>": 4339,
      "d98</w>": 4340,
      "hFB": 4341,
      "##048": 4342,
      "##759": 4343,
      "##0111111</w>": 4344,
      "??????????</w>": 4345,
      "]||</w>": 4346,
      "\"%</w>": 4347,
      "570</w>": 4348,
      "579</w>": 4349,
      "550</w>": 4350,
      "928</w>": 4351,
      "primitive</w>": 4352,
      "##cc": 4353,
      "d148</w>": 4354,
      "d125</w>": 4355,
      "d149</w>": 4356,
      "}}&</w>": 4357,
      "d208</w>": 4358,
      "b01000000000</w>": 4359,
      "])&</w>": 4360,
      "h2F</w>": 4361,
      "0033</w>": 4362,
      "0215</w>": 4363,
      "0259</w>": 4364,
      "h82": 4365,
      "h89</w>": 4366,
      "b0010100</w>": 4367,
      "##080000000</w>": 4368,
      "d118</w>": 4369,
      "d114</w>": 4370,
      "h9c</w>": 4371,
      "heb</w>": 4372,
      "0111</w>": 4373,
      "##ack": 4374,
      "526</w>": 4375,
      "539</w>": 4376,
      "553</w>": 4377,
      "?,</w>": 4378,
      "d02": 4379,
      "h98</w>": 4380,
      "})": 4381,
      "~|(</w>": 4382,
      "##1d": 4383,
      "##403": 4384,
      "##b2": 4385,
      "##ee</w>": 4386,
      "##000011</w>": 4387,
      "h0C": 4388,
      "h45": 4389,
      "0203</w>": 4390,
      "##00101": 4391,
      "0101</w>": 4392,
      "h6d</w>": 4393,
      "b0010101": 4394,
      "b0010101</w>": 4395,
      "##088</w>": 4396,
      "b1111111111111111111111": 4397,
      "b101100</w>": 4398,
      "hde</w>": 4399,
      "b00001101</w>": 4400,
      "b0011111": 4401,
      "##0000001111": 4402,
      "b1101101</w>": 4403,
      "new</w>": 4404,
      ")==</w>": 4405,
      "560</w>": 4406,
      "546</w>": 4407,
      "598</w>": 4408,
      "534</w>": 4409,
      "537</w>": 4410,
      "699</w>": 4411,
      "##040</w>": 4412,
      "##8b": 4413,
      "##808": 4414,
      "##ad": 4415,
      "##b7": 4416,
      "##pea": 4417,
      "##lo": 4418,
      "##00000111": 4419,
      "repea": 4420,
      "##113": 4421,
      "128000000</w>": 4422,
      "d103": 4423,
      "d161</w>": 4424,
      "d176</w>": 4425,
      "d141</w>": 4426,
      "d145</w>": 4427,
      "d139</w>": 4428,
      "d165": 4429,
      "b10000000000</w>": 4430,
      "b110001</w>": 4431,
      "b11011110</w>": 4432,
      "b010011</w>": 4433,
      "h3ff</w>": 4434,
      "h403": 4435,
      "0092</w>": 4436,
      "0214</w>": 4437,
      "0171</w>": 4438,
      "h805": 4439,
      "##631</w>": 4440,
      "b0001111</w>": 4441,
      "hf7</w>": 4442,
      "hF0</w>": 4443,
      "b10100000</w>": 4444,
      "b101110</w>": 4445,
      "d117</w>": 4446,
      "b10010000</w>": 4447,
      "b011100</w>": 4448,
      "hFFC": 4449,
      "?????????:</w>": 4450,
      "##6e8</w>": 4451,
      "##55555555555555555555555555555555": 4452,
      "repeat</w>": 4453,
      "(&(</w>": 4454,
      "548</w>": 4455,
      "599</w>": 4456,
      "569</w>": 4457,
      "558</w>": 4458,
      "96e8</w>": 4459,
      "h91</w>": 4460,
      "##020</w>": 4461,
      "##9d": 4462,
      "##7F": 4463,
      "##404": 4464,
      "##6d</w>": 4465,
      "##6a</w>": 4466,
      "##dow": 4467,
      "##('</w>": 4468,
      "##DC": 4469,
      "##DF</w>": 4470,
      "##\";</w>": 4471,
      "VAR495</w>": 4472,
      "d124</w>": 4473,
      "d167</w>": 4474,
      "d143</w>": 4475,
      "d134</w>": 4476,
      "d138</w>": 4477,
      "b110110</w>": 4478,
      "h100000</w>": 4479,
      "d250</w>": 4480,
      "h200</w>": 4481,
      "0030</w>": 4482,
      "0162</w>": 4483,
      "0177</w>": 4484,
      "h78": 4485,
      "h803": 4486,
      "h61": 4487,
      "h67": 4488,
      "b1110000</w>": 4489,
      "]]};</w>": 4490,
      "d110</w>": 4491,
      "d116</w>": 4492,
      "##ffffffffffff</w>": 4493,
      "##CF03": 4494,
      "32768</w>": 4495,
      "##0DE42": 4496,
      ")}</w>": 4497,
      "}<": 4498,
      "##8000</w>": 4499,
      "##211": 4500,
      "##2000</w>": 4501,
      "##207": 4502,
      "##be</w>": 4503,
      "##00000011": 4504,
      "##00000000000000000</w>": 4505,
      "##???</w>": 4506,
      "b1100001": 4507,
      "d210</w>": 4508,
      "))?{</w>": 4509,
      "0084</w>": 4510,
      "0031</w>": 4511,
      "0225</w>": 4512,
      "0148</w>": 4513,
      "0181</w>": 4514,
      "h6a</w>": 4515,
      "b00100100</w>": 4516,
      "b00011110</w>": 4517,
      "##fffff</w>": 4518,
      "##838": 4519,
      "d113</w>": 4520,
      "##135": 4521,
      "hFFF</w>": 4522,
      "b0011101</w>": 4523,
      "b1111111111111": 4524,
      "b11011100</w>": 4525,
      "+:(</w>": 4526,
      "529</w>": 4527,
      "656</w>": 4528,
      "720</w>": 4529,
      "d05": 4530,
      "edge</w>": 4531,
      "h010</w>": 4532,
      "##3B": 4533,
      "##4e": 4534,
      "##e3": 4535,
      "##f7": 4536,
      "##ma": 4537,
      "##MUL": 4538,
      "##Kb</w>": 4539,
      "##000010</w>": 4540,
      "d121</w>": 4541,
      "b1000000000000000</w>": 4542,
      "b1100110</w>": 4543,
      "])&(~</w>": 4544,
      "b011001</w>": 4545,
      "b01100001</w>": 4546,
      "0045</w>": 4547,
      "0043</w>": 4548,
      "0036</w>": 4549,
      "0029</w>": 4550,
      "0077</w>": 4551,
      "0260</w>": 4552,
      "0279</w>": 4553,
      "0274</w>": 4554,
      "0205</w>": 4555,
      "0239</w>": 4556,
      "0336</w>": 4557,
      "0120</w>": 4558,
      "0140</w>": 4559,
      "0144</w>": 4560,
      "0172</w>": 4561,
      "0142</w>": 4562,
      "0193</w>": 4563,
      "0151</w>": 4564,
      "0154</w>": 4565,
      "h00003": 4566,
      "h7FFF</w>": 4567,
      "##000111</w>": 4568,
      "hFC</w>": 4569,
      "##8343": 4570,
      "(~&</w>": 4571,
      "hdd</w>": 4572,
      "##7574": 4573,
      "b000000000000000000000000000000</w>": 4574,
      "b10000110</w>": 4575,
      "b0011100</w>": 4576,
      "##01011100001": 4577,
      "0011</w>": 4578,
      "595</w>": 4579,
      "561</w>": 4580,
      "594</w>": 4581,
      "542</w>": 4582,
      "632</w>": 4583,
      "h95</w>": 4584,
      "pack": 4585,
      "##1B": 4586,
      "##800": 4587,
      "##609": 4588,
      "##AF": 4589,
      "##c3": 4590,
      "##C0</w>": 4591,
      "##)))</w>": 4592,
      "##1101": 4593,
      "d123</w>": 4594,
      "d144": 4595,
      "d143": 4596,
      "d165</w>": 4597,
      "b110101</w>": 4598,
      "d253</w>": 4599,
      "])|": 4600,
      "25000000</w>": 4601,
      "h4001": 4602,
      "#(\"</w>": 4603,
      "0032</w>": 4604,
      "0038</w>": 4605,
      "0037</w>": 4606,
      "0053</w>": 4607,
      "0058</w>": 4608,
      "0220</w>": 4609,
      "0247</w>": 4610,
      "0261</w>": 4611,
      "0213</w>": 4612,
      "0344</w>": 4613,
      "0374</w>": 4614,
      "0331</w>": 4615,
      "0335</w>": 4616,
      "0180</w>": 4617,
      "0160</w>": 4618,
      "0184</w>": 4619,
      "0130</w>": 4620,
      "0155</w>": 4621,
      "0159</w>": 4622,
      "0405</w>": 4623,
      "h8c</w>": 4624,
      "h6F": 4625,
      "h6C": 4626,
      "1599</w>": 4627,
      "h58": 4628,
      "##033": 4629,
      "##666</w>": 4630,
      "b111100</w>": 4631,
      "##c5c</w>": 4632,
      "b111001": 4633,
      "haf</w>": 4634,
      "b0000101</w>": 4635,
      "##338": 4636,
      "b00000000000001</w>": 4637,
      "b0000000000001000</w>": 4638,
      "b0111000</w>": 4639,
      "b1001100</w>": 4640,
      "b011110</w>": 4641,
      "h0800</w>": 4642,
      "1005</w>": 4643,
      "##000001100000</w>": 4644,
      "1B</w>": 4645,
      "155": 4646,
      "37500</w>": 4647,
      "564</w>": 4648,
      "572</w>": 4649,
      "562</w>": 4650,
      "586</w>": 4651,
      "557</w>": 4652,
      "614</w>": 4653,
      "603</w>": 4654,
      "631</w>": 4655,
      "605</w>": 4656,
      ":\\</w>": 4657,
      "]>": 4658,
      "h94</w>": 4659,
      "##5c": 4660,
      "##8B": 4661,
      "##911": 4662,
      "##708": 4663,
      "##2d": 4664,
      "##400": 4665,
      "##fb": 4666,
      "##mo": 4667,
      "d122</w>": 4668,
      "b1100000000": 4669,
      "d243": 4670,
      "h201": 4671,
      "h47": 4672,
      "b011010</w>": 4673,
      "b011011</w>": 4674,
      "0048</w>": 4675,
      "0034</w>": 4676,
      "0284</w>": 4677,
      "0218</w>": 4678,
      "0232</w>": 4679,
      "0323</w>": 4680,
      "0315</w>": 4681,
      "0381</w>": 4682,
      "0128</w>": 4683,
      "0127</w>": 4684,
      "0199</w>": 4685,
      "0143</w>": 4686,
      "0131</w>": 4687,
      "0186</w>": 4688,
      "0157</w>": 4689,
      "0448</w>": 4690,
      "0414</w>": 4691,
      "0455</w>": 4692,
      "h6E": 4693,
      "b00011011</w>": 4694,
      "hf4</w>": 4695,
      "b101101</w>": 4696,
      "b1011011</w>": 4697,
      "##81C3": 4698,
      "##078": 4699,
      "##555555": 4700,
      "##496": 4701,
      "b10010010</w>": 4702,
      "##671": 4703,
      "h3F7FF": 4704,
      "))&&": 4705,
      "\".": 4706,
      "1001</w>": 4707,
      "30": 4708,
      "581</w>": 4709,
      "566</w>": 4710,
      "589</w>": 4711,
      "647</w>": 4712,
      "608</w>": 4713,
      "784</w>": 4714,
      "752</w>": 4715,
      "##568": 4716,
      "##9E": 4717,
      "##929": 4718,
      "##722": 4719,
      "##4a": 4720,
      "##60": 4721,
      "##6b</w>": 4722,
      "##613": 4723,
      "##TO": 4724,
      "##});</w>": 4725,
      "##008</w>": 4726,
      "##00F": 4727,
      "##002</w>": 4728,
      "MODULE30</w>": 4729,
      "d180</w>": 4730,
      "d147</w>": 4731,
      "##01101": 4732,
      "b00000011": 4733,
      "b110011</w>": 4734,
      "h10000000</w>": 4735,
      "d201</w>": 4736,
      "d240</w>": 4737,
      "d216</w>": 4738,
      "h020</w>": 4739,
      "])],</w>": 4740,
      "h2D": 4741,
      "0022</w>": 4742,
      "0041</w>": 4743,
      "0049</w>": 4744,
      "0055</w>": 4745,
      "0050</w>": 4746,
      "0211</w>": 4747,
      "0240</w>": 4748,
      "0296</w>": 4749,
      "0248</w>": 4750,
      "0226</w>": 4751,
      "0263</w>": 4752,
      "0241</w>": 4753,
      "0281</w>": 4754,
      "0243</w>": 4755,
      "0255</w>": 4756,
      "0277</w>": 4757,
      "0256</w>": 4758,
      "0251</w>": 4759,
      "0360</w>": 4760,
      "0391</w>": 4761,
      "0367</w>": 4762,
      "0397</w>": 4763,
      "0382</w>": 4764,
      "0192</w>": 4765,
      "0191</w>": 4766,
      "0173</w>": 4767,
      "0108</w>": 4768,
      "0141</w>": 4769,
      "0136</w>": 4770,
      "0183</w>": 4771,
      "0182</w>": 4772,
      "0153</w>": 4773,
      "0410</w>": 4774,
      "0428</w>": 4775,
      "0492</w>": 4776,
      "0491</w>": 4777,
      "0499</w>": 4778,
      "0479</w>": 4779,
      "0493</w>": 4780,
      "0407</w>": 4781,
      "0456</w>": 4782,
      "h00001000</w>": 4783,
      "h71": 4784,
      "0504</w>": 4785,
      "0503</w>": 4786,
      "0506</w>": 4787,
      "h80": 4788,
      "h5c5c5c5c5c5c5c5c5c5c5c5c5c5c5c5c5": 4789,
      "##1111111111</w>": 4790,
      "b1010000</w>": 4791,
      "##c5c5c5c</w>": 4792,
      "##2144</w>": 4793,
      "d159</w>": 4794,
      "hd8</w>": 4795,
      "b0011111</w>": 4796,
      "##272": 4797,
      "##c5c5c5c5c5c5c5c</w>": 4798,
      "##161": 4799,
      "b10000010</w>": 4800,
      "hAC</w>": 4801,
      "##c5c5c5c5c5c5c5c5c5c5c5c5c5c5c5c</w>": 4802,
      "##riori": 4803,
      "##63636363636363636363636363636363": 4804,
      "##rgv1BITS": 4805,
      "0x0CONCATrgv1BITS": 4806,
      "##010111101011100001": 4807,
      "b00000000000000000000000000000001</w>": 4808,
      "##MUL0": 4809,
      "h5c5c5c5c5c5c5c5c5c5c5c5c5c5c5c5c5c5c5c5c5c5c5c5c5c5c5c5c5c5c5c5c</w>": 4810,
      "\"\\</w>": 4811,
      "571</w>": 4812,
      "610</w>": 4813,
      "671</w>": 4814,
      "604</w>": 4815,
      "606</w>": 4816,
      "]></w>": 4817,
      "aut": 4818,
      "hab": 4819,
      "priori": 4820,
      "{(((</w>": 4821,
      "##187": 4822,
      "##522": 4823,
      "##6D</w>": 4824,
      "##tic</w>": 4825,
      "##now": 4826,
      "##ledge</w>": 4827,
      "##oma": 4828,
      "##know": 4829,
      "##003</w>": 4830,
      "VAR492</w>": 4831,
      "##1110</w>": 4832,
      "d126</w>": 4833,
      "d191</w>": 4834,
      "b110111</w>": 4835,
      "0063</w>": 4836,
      "0079</w>": 4837,
      "0093</w>": 4838,
      "0051</w>": 4839,
      "0054</w>": 4840,
      "0264</w>": 4841,
      "0291</w>": 4842,
      "0295</w>": 4843,
      "0273</w>": 4844,
      "0288</w>": 4845,
      "0245</w>": 4846,
      "0269</w>": 4847,
      "0230</w>": 4848,
      "0242</w>": 4849,
      "0236</w>": 4850,
      "0283</w>": 4851,
      "0287</w>": 4852,
      "0390</w>": 4853,
      "0384</w>": 4854,
      "0372</w>": 4855,
      "0314</w>": 4856,
      "0124</w>": 4857,
      "0168</w>": 4858,
      "0165</w>": 4859,
      "0198</w>": 4860,
      "0133</w>": 4861,
      "0187</w>": 4862,
      "0132</w>": 4863,
      "0156</w>": 4864,
      "0411</w>": 4865,
      "0416</w>": 4866,
      "0425</w>": 4867,
      "0404</w>": 4868,
      "0476</w>": 4869,
      "0488</w>": 4870,
      "0478</w>": 4871,
      "0429</w>": 4872,
      "0418</w>": 4873,
      "0403</w>": 4874,
      "0439</w>": 4875,
      "0486</w>": 4876,
      "0438</w>": 4877,
      "h000001": 4878,
      "h8f</w>": 4879,
      "h62": 4880,
      "b0010001</w>": 4881,
      "((~": 4882,
      "b0011010</w>": 4883,
      "##0888": 4884,
      "b1111110</w>": 4885,
      "hfd</w>": 4886,
      "b1110111</w>": 4887,
      "h0080</w>": 4888,
      "b10100100</w>": 4889,
      "d156</w>": 4890,
      "d158</w>": 4891,
      "d154</w>": 4892,
      "d157</w>": 4893,
      "##0403": 4894,
      "0008</w>": 4895,
      "##757": 4896,
      "haa</w>": 4897,
      "~({</w>": 4898,
      "acknow": 4899,
      "h018</w>": 4900,
      "b00010101</w>": 4901,
      "pulldow": 4902,
      "automa": 4903,
      "priority</w>": 4904,
      "acknowledge</w>": 4905,
      "pulldown</w>": 4906,
      "automatic</w>": 4907,
      "&~(</w>": 4908,
      "584</w>": 4909,
      "585</w>": 4910,
      "622</w>": 4911,
      "615</w>": 4912,
      "h92</w>": 4913,
      "h97</w>": 4914,
      "##2e8": 4915,
      "##681": 4916,
      "##F0</w>": 4917,
      "##A0</w>": 4918,
      "##ct</w>": 4919,
      "##f82": 4920,
      "##E7": 4921,
      "d164</w>": 4922,
      "h10003": 4923,
      "d203": 4924,
      "d227</w>": 4925,
      "0024</w>": 4926,
      "0080</w>": 4927,
      "0061</w>": 4928,
      "0072</w>": 4929,
      "0074</w>": 4930,
      "0081</w>": 4931,
      "0078</w>": 4932,
      "0087</w>": 4933,
      "0066</w>": 4934,
      "0059</w>": 4935,
      "0271</w>": 4936,
      "0292</w>": 4937,
      "0204</w>": 4938,
      "0265</w>": 4939,
      "0270</w>": 4940,
      "0233</w>": 4941,
      "0209</w>": 4942,
      "0231</w>": 4943,
      "0207</w>": 4944,
      "0266</w>": 4945,
      "0202</w>": 4946,
      "0237</w>": 4947,
      "0300</w>": 4948,
      "0311</w>": 4949,
      "0320</w>": 4950,
      "0324</w>": 4951,
      "0328</w>": 4952,
      "0368</w>": 4953,
      "0304</w>": 4954,
      "0399</w>": 4955,
      "0308</w>": 4956,
      "0376</w>": 4957,
      "0375</w>": 4958,
      "0394</w>": 4959,
      "0383</w>": 4960,
      "0303</w>": 4961,
      "0104</w>": 4962,
      "0146</w>": 4963,
      "0179</w>": 4964,
      "0169</w>": 4965,
      "0149</w>": 4966,
      "0139</w>": 4967,
      "0152</w>": 4968,
      "0412</w>": 4969,
      "0496</w>": 4970,
      "0463</w>": 4971,
      "0484</w>": 4972,
      "0465</w>": 4973,
      "0473</w>": 4974,
      "0408</w>": 4975,
      "0413</w>": 4976,
      "0417</w>": 4977,
      "0483</w>": 4978,
      "0435</w>": 4979,
      "0482</w>": 4980,
      "0489</w>": 4981,
      "0406</w>": 4982,
      "0451</w>": 4983,
      "0454</w>": 4984,
      "0509</w>": 4985,
      "0505</w>": 4986,
      "h57": 4987,
      "h52": 4988,
      "hc24": 4989,
      "d710</w>": 4990,
      "b0001100</w>": 4991,
      "b111011</w>": 4992,
      "h00FFE": 4993,
      "hd5</w>": 4994,
      "b000000000000000</w>": 4995,
      "he8</w>": 4996,
      "h42c7": 4997,
      "hc2c7": 4998,
      "0113</w>": 4999,
      "##((((</w>": 5000,
      "d1024</w>": 5001,
      "b11111111111": 5002,
      "##01000100000001": 5003,
      "b0000000000100000</w>": 5004,
      "512x36</w>": 5005,
      "}<=</w>": 5006,
      "596</w>": 5007,
      "563</w>": 5008,
      "592</w>": 5009,
      "591</w>": 5010,
      "573</w>": 5011,
      "567</w>": 5012,
      "574</w>": 5013,
      "601</w>": 5014,
      "620</w>": 5015,
      "624</w>": 5016,
      "612</w>": 5017,
      "[('</w>": 5018,
      "d08": 5019,
      "##503": 5020,
      "##400</w>": 5021,
      "##425": 5022,
      "##602": 5023,
      "##a9": 5024,
      "##c7</w>": 5025,
      "##DD</w>": 5026,
      "##}:</w>": 5027,
      "##000001": 5028,
      "##0151": 5029,
      "d1000</w>": 5030,
      "d184</w>": 5031,
      "d162</w>": 5032,
      "d181</w>": 5033,
      "]}),.</w>": 5034,
      "d222</w>": 5035,
      "))+:</w>": 5036,
      "h40000000</w>": 5037,
      "h425": 5038,
      "b0110001</w>": 5039,
      "0040</w>": 5040,
      "0026</w>": 5041,
      "0027</w>": 5042,
      "0075</w>": 5043,
      "0069</w>": 5044,
      "0083</w>": 5045,
      "0082</w>": 5046,
      "0039</w>": 5047,
      "0200</w>": 5048,
      "0224</w>": 5049,
      "0228</w>": 5050,
      "0268</w>": 5051,
      "0219</w>": 5052,
      "0246</w>": 5053,
      "0262</w>": 5054,
      "0217</w>": 5055,
      "0275</w>": 5056,
      "0249</w>": 5057,
      "0286</w>": 5058,
      "0254</w>": 5059,
      "0253</w>": 5060,
      "0257</w>": 5061,
      "0301</w>": 5062,
      "0322</w>": 5063,
      "0347</w>": 5064,
      "0316</w>": 5065,
      "0321</w>": 5066,
      "0364</w>": 5067,
      "0327</w>": 5068,
      "0319</w>": 5069,
      "0361</w>": 5070,
      "0370</w>": 5071,
      "0388</w>": 5072,
      "0369</w>": 5073,
      "0318</w>": 5074,
      "0307</w>": 5075,
      "0389</w>": 5076,
      "0306</w>": 5077,
      "0334</w>": 5078,
      "0356</w>": 5079,
      "0353</w>": 5080,
      "0358</w>": 5081,
      "0357</w>": 5082,
      "0147</w>": 5083,
      "0196</w>": 5084,
      "0121</w>": 5085,
      "0164</w>": 5086,
      "0175</w>": 5087,
      "0178</w>": 5088,
      "0109</w>": 5089,
      "0166</w>": 5090,
      "0189</w>": 5091,
      "0106</w>": 5092,
      "0158</w>": 5093,
      "0400</w>": 5094,
      "0401</w>": 5095,
      "0424</w>": 5096,
      "0447</w>": 5097,
      "0427</w>": 5098,
      "0419</w>": 5099,
      "0495</w>": 5100,
      "0461</w>": 5101,
      "0472</w>": 5102,
      "0441</w>": 5103,
      "0474</w>": 5104,
      "0481</w>": 5105,
      "0469</w>": 5106,
      "0442</w>": 5107,
      "0436</w>": 5108,
      "0449</w>": 5109,
      "0487</w>": 5110,
      "0432</w>": 5111,
      "0409</w>": 5112,
      "0402</w>": 5113,
      "0485</w>": 5114,
      "0434</w>": 5115,
      "0458</w>": 5116,
      "0514</w>": 5117,
      "0502</w>": 5118,
      "h53": 5119,
      "b0010111</w>": 5120,
      "hc3</w>": 5121,
      "##4343": 5122,
      "h003": 5123,
      "h0010</w>": 5124,
      "h0020</w>": 5125,
      "b101111</w>": 5126,
      "##0479": 5127,
      "0007</w>": 5128,
      "b0000000000001": 5129,
      "##AAAAAAAAAAAAAAAAAAAAAAAAAAAAAAAA</w>": 5130,
      "##011110111": 5131,
      "b00000100000</w>": 5132,
      "0118</w>": 5133,
      "##0101100</w>": 5134,
      "&&~</w>": 5135,
      "0018</w>": 5136,
      "0014</w>": 5137,
      "h3F7FFF": 5138,
      "h0400</w>": 5139,
      "hFFFFFFFFFFFFFF": 5140,
      "##----------------": 5141,
      "notif0</w>": 5142,
      "##01011110101110000101000100000001": 5143,
      ")'": 5144,
      ",!</w>": 5145,
      "583</w>": 5146,
      "593</w>": 5147,
      "582</w>": 5148,
      "680</w>": 5149,
      "628</w>": 5150,
      "616</w>": 5151,
      "655</w>": 5152,
      "666</w>": 5153,
      "657</w>": 5154,
      "781</w>": 5155,
      "896</w>": 5156,
      "868</w>": 5157,
      "833</w>": 5158,
      "^(</w>": 5159,
      "hAAA</w>": 5160,
      "##066": 5161,
      "##1C": 5162,
      "##803": 5163,
      "##924": 5164,
      "##703": 5165,
      "##405": 5166,
      "##E8</w>": 5167,
      "d179</w>": 5168,
      "d189</w>": 5169,
      "],|</w>": 5170,
      "d224</w>": 5171,
      "d204</w>": 5172,
      "d217</w>": 5173,
      "d249</w>": 5174,
      "d202</w>": 5175,
      "h444": 5176,
      "0020</w>": 5177,
      "0068</w>": 5178,
      "0060</w>": 5179,
      "0071</w>": 5180,
      "0025</w>": 5181,
      "0044</w>": 5182,
      "0065</w>": 5183,
      "0091</w>": 5184,
      "0070</w>": 5185,
      "0088</w>": 5186,
      "0098</w>": 5187,
      "0085</w>": 5188,
      "0086</w>": 5189,
      "0216</w>": 5190,
      "0244</w>": 5191,
      "0267</w>": 5192,
      "0208</w>": 5193,
      "0294</w>": 5194,
      "0278</w>": 5195,
      "0298</w>": 5196,
      "0297</w>": 5197,
      "0285</w>": 5198,
      "0235</w>": 5199,
      "0282</w>": 5200,
      "0289</w>": 5201,
      "0206</w>": 5202,
      "0238</w>": 5203,
      "0250</w>": 5204,
      "0252</w>": 5205,
      "0258</w>": 5206,
      "0312</w>": 5207,
      "0340</w>": 5208,
      "0326</w>": 5209,
      "0371</w>": 5210,
      "0317</w>": 5211,
      "0330</w>": 5212,
      "0398</w>": 5213,
      "0333</w>": 5214,
      "0349</w>": 5215,
      "0332</w>": 5216,
      "0366</w>": 5217,
      "0339</w>": 5218,
      "0338</w>": 5219,
      "0350</w>": 5220,
      "0352</w>": 5221,
      "0351</w>": 5222,
      "0123</w>": 5223,
      "0122</w>": 5224,
      "0126</w>": 5225,
      "0188</w>": 5226,
      "0174</w>": 5227,
      "0197</w>": 5228,
      "0102</w>": 5229,
      "0105</w>": 5230,
      "0138</w>": 5231,
      "0137</w>": 5232,
      "0420</w>": 5233,
      "0423</w>": 5234,
      "0422</w>": 5235,
      "0440</w>": 5236,
      "0421</w>": 5237,
      "0464</w>": 5238,
      "0490</w>": 5239,
      "0471</w>": 5240,
      "0415</w>": 5241,
      "0467</w>": 5242,
      "0462</w>": 5243,
      "0475</w>": 5244,
      "0445</w>": 5245,
      "0498</w>": 5246,
      "0452</w>": 5247,
      "0453</w>": 5248,
      "h00000100</w>": 5249,
      "h7F</w>": 5250,
      "0512</w>": 5251,
      "0536</w>": 5252,
      "0532</w>": 5253,
      "h5F</w>": 5254,
      "b00100000000</w>": 5255,
      "b0010111": 5256,
      "d511</w>": 5257,
      "##0001111</w>": 5258,
      "hbd": 5259,
      "b0001111": 5260,
      "hfb</w>": 5261,
      "b00010001</w>": 5262,
      "b111001</w>": 5263,
      ")&&(~</w>": 5264,
      "##2102": 5265,
      "##428": 5266,
      "b00001001</w>": 5267,
      "##ruct</w>": 5268,
      "b000000000000001</w>": 5269,
      "he6</w>": 5270,
      "##00001001": 5271,
      "b00111111": 5272,
      "hC0</w>": 5273,
      "hFFE": 5274,
      "hFFD": 5275,
      "0116</w>": 5276,
      "0119</w>": 5277,
      "0117</w>": 5278,
      "##0011111": 5279,
      "b0000000100100000</w>": 5280,
      "b000000000000000000000000000000000000000000000000": 5281,
      "d4096</w>": 5282,
      "3333</w>": 5283,
      "struct</w>": 5284,
      "##EADB": 5285,
      "endprimitive</w>": 5286,
      "packed</w>": 5287,
      "##mos</w>": 5288,
      "1010</w>": 5289,
      "580</w>": 5290,
      "597</w>": 5291,
      "611</w>": 5292,
      "617</w>": 5293,
      "609</w>": 5294,
      "602</w>": 5295,
      "634</w>": 5296,
      "652</w>": 5297,
      "750</w>": 5298,
      "::</w>": 5299,
      "{|</w>": 5300,
      "{-</w>": 5301,
      "##513": 5302,
      "##585": 5303,
      "##3A": 5304,
      "##801": 5305,
      "##7C</w>": 5306,
      "##6E</w>": 5307,
      "##F8</w>": 5308,
      "##c1": 5309,
      "##E4</w>": 5310,
      "##}}</w>": 5311,
      "d199</w>": 5312,
      "]}))</w>": 5313,
      "],(</w>": 5314,
      "d232</w>": 5315,
      "d231</w>": 5316,
      "])?": 5317,
      "decoder</w>": 5318,
      "b01100100</w>": 5319,
      "0047</w>": 5320,
      "0096</w>": 5321,
      "0064</w>": 5322,
      "0099</w>": 5323,
      "0046</w>": 5324,
      "0097</w>": 5325,
      "0035</w>": 5326,
      "0052</w>": 5327,
      "0057</w>": 5328,
      "0201</w>": 5329,
      "0210</w>": 5330,
      "0223</w>": 5331,
      "0280</w>": 5332,
      "0212</w>": 5333,
      "0221</w>": 5334,
      "0290</w>": 5335,
      "0272</w>": 5336,
      "0229</w>": 5337,
      "0293</w>": 5338,
      "0234</w>": 5339,
      "0363</w>": 5340,
      "0325</w>": 5341,
      "0365</w>": 5342,
      "0346</w>": 5343,
      "0341</w>": 5344,
      "0343</w>": 5345,
      "0378</w>": 5346,
      "0329</w>": 5347,
      "0393</w>": 5348,
      "0387</w>": 5349,
      "0355</w>": 5350,
      "0377</w>": 5351,
      "0386</w>": 5352,
      "##0010101": 5353,
      "0190</w>": 5354,
      "0125</w>": 5355,
      "0167</w>": 5356,
      "0176</w>": 5357,
      "0145</w>": 5358,
      "0194</w>": 5359,
      "0103</w>": 5360,
      "0185</w>": 5361,
      "0134</w>": 5362,
      "0480</w>": 5363,
      "0468</w>": 5364,
      "0460</w>": 5365,
      "0446</w>": 5366,
      "0494</w>": 5367,
      "0443</w>": 5368,
      "0430</w>": 5369,
      "0477</w>": 5370,
      "d56": 5371,
      "##636</w>": 5372,
      "d980</w>": 5373,
      "##00011111": 5374,
      "b111010</w>": 5375,
      "h004</w>": 5376,
      "b10110110</w>": 5377,
      "b1011111</w>": 5378,
      "0005</w>": 5379,
      "hdc</w>": 5380,
      "ha1</w>": 5381,
      "hea</w>": 5382,
      "b0011110</w>": 5383,
      "##000000010</w>": 5384,
      "h3F8000": 5385,
      "b011101</w>": 5386,
      "hffffff</w>": 5387,
      "0112</w>": 5388,
      "({~</w>": 5389,
      "0019</w>": 5390,
      "##b800": 5391,
      "##11111111111111111111111111111111": 5392,
      "1002</w>": 5393,
      "b10001000</w>": 5394,
      "?????????????????????????????????????????": 5395,
      "0s</w>": 5396,
      "588</w>": 5397,
      "812</w>": 5398,
      "959</w>": 5399,
      "]\\</w>": 5400,
      "hAAAAAAAAAAAAAAAAAAAAAAAAAAAAAAAA": 5401,
      "}={</w>": 5402,
      "##569": 5403,
      "##376": 5404,
      "##3063": 5405,
      "##709": 5406,
      "##4C</w>": 5407,
      "##4000</w>": 5408,
      "##6A": 5409,
      "##603": 5410,
      "##cf": 5411,
      "##CC</w>": 5412,
      "##kx": 5413,
      "MODULE29</w>": 5414,
      "##01000000</w>": 5415,
      "d190</w>": 5416,
      "d170</w>": 5417,
      "d174</w>": 5418,
      "d169</w>": 5419,
      "d155</w>": 5420,
      "d248</w>": 5421,
      "h402": 5422,
      "0023</w>": 5423,
      "0028</w>": 5424,
      "0067</w>": 5425,
      "0094</w>": 5426,
      "0222</w>": 5427,
      "0227</w>": 5428,
      "0276</w>": 5429,
      "0310</w>": 5430,
      "0380</w>": 5431,
      "0396</w>": 5432,
      "0348</w>": 5433,
      "0392</w>": 5434,
      "0373</w>": 5435,
      "0313</w>": 5436,
      "0362</w>": 5437,
      "0379</w>": 5438,
      "0342</w>": 5439,
      "0309</w>": 5440,
      "0305</w>": 5441,
      "0385</w>": 5442,
      "0359</w>": 5443,
      "0129</w>": 5444,
      "0107</w>": 5445,
      "0426</w>": 5446,
      "0444</w>": 5447,
      "0470</w>": 5448,
      "0497</w>": 5449,
      "0433</w>": 5450,
      "0431</w>": 5451,
      "0466</w>": 5452,
      "0437</w>": 5453,
      "0450</w>": 5454,
      "h000002": 5455,
      "h7C</w>": 5456,
      "0501</w>": 5457,
      "0511</w>": 5458,
      "0510</w>": 5459,
      "0521</w>": 5460,
      "0517</w>": 5461,
      "0530</w>": 5462,
      "h804": 5463,
      "(((~(</w>": 5464,
      "h00000000000000": 5465,
      "##638": 5466,
      "hb0</w>": 5467,
      "##050</w>": 5468,
      "hf6</w>": 5469,
      "##11111111111</w>": 5470,
      "b10111111</w>": 5471,
      "##062": 5472,
      "b00001000000</w>": 5473,
      "##0913": 5474,
      "hfff</w>": 5475,
      "h019</w>": 5476,
      "b1001011</w>": 5477,
      "b100111": 5478,
      "0115</w>": 5479,
      "0114</w>": 5480,
      "h4000001": 5481,
      "??????????:</w>": 5482,
      "???????????:</w>": 5483,
      "##01001001": 5484,
      "0550</w>": 5485,
      "0015</w>": 5486,
      "0017</w>": 5487,
      "b11111011</w>": 5488,
      "h3F7F": 5489,
      "##0080000000</w>": 5490,
      "##EF01": 5491,
      "b01000001</w>": 5492,
      "##44479": 5493,
      "##0000000000000000000000000000000000000000000000000080000000</w>": 5494,
      "##0101111010111000010100010000000101011110101110000101000100000001": 5495,
      "568</w>": 5496,
      "668</w>": 5497,
      "626</w>": 5498,
      "621</w>": 5499,
      "670</w>": 5500,
      "613</w>": 5501,
      "650</w>": 5502,
      "700</w>": 5503,
      "8000</w>": 5504,
      "999</w>": 5505,
      "{'</w>": 5506,
      "##366": 5507,
      "##485": 5508,
      "##e7": 5509,
      "##BF</w>": 5510,
      "##iqu": 5511,
      "125": 5512,
      "d101": 5513,
      "d196</w>": 5514,
      "d171</w>": 5515,
      "d172</w>": 5516,
      "d193</w>": 5517,
      "d166</w>": 5518,
      "h104</w>": 5519,
      "d220</w>": 5520,
      "d228</w>": 5521,
      "d225</w>": 5522,
      "d213</w>": 5523,
      "d207</w>": 5524,
      "h204": 5525,
      "0095</w>": 5526,
      "0073</w>": 5527,
      "0089</w>": 5528,
      "0299</w>": 5529,
      "0395</w>": 5530,
      "0337</w>": 5531,
      "0195</w>": 5532,
      "0135</w>": 5533,
      "0459</w>": 5534,
      "h00000010</w>": 5535,
      "h77": 5536,
      "05d</w>": 5537,
      "0540</w>": 5538,
      "0548</w>": 5539,
      "0526</w>": 5540,
      "0515</w>": 5541,
      "0508</w>": 5542,
      "0513</w>": 5543,
      "0539</w>": 5544,
      "0534</w>": 5545,
      "h86": 5546,
      "d480</w>": 5547,
      "b0010011": 5548,
      "b0010000000</w>": 5549,
      "h0000000000000001</w>": 5550,
      "b00000000001111": 5551,
      "d81": 5552,
      "d885": 5553,
      "hb8</w>": 5554,
      "##221": 5555,
      "hf3</w>": 5556,
      "hf1</w>": 5557,
      "##431": 5558,
      "h00C": 5559,
      "hd0</w>": 5560,
      "hd6</w>": 5561,
      "hdb</w>": 5562,
      "h9009": 5563,
      "ha4</w>": 5564,
      "he1</w>": 5565,
      "h0002": 5566,
      "b1001000</w>": 5567,
      "b10011000</w>": 5568,
      "hA0</w>": 5569,
      "b11000010</w>": 5570,
      "0016</w>": 5571,
      "0013</w>": 5572,
      "?????????????????????????????????????????????????????????????????": 5573,
      "##08080808": 5574,
      "uniqu": 5575,
      "##****": 5576,
      "unique</w>": 5577,
      "(..": 5578,
      ")/(</w>": 5579,
      "1000001100000</w>": 5580,
      "500000</w>": 5581,
      "619</w>": 5582,
      "669</w>": 5583,
      "683</w>": 5584,
      "637</w>": 5585,
      "654</w>": 5586,
      "712</w>": 5587,
      "704</w>": 5588,
      "8x</w>": 5589,
      "::": 5590,
      "di": 5591,
      "h93</w>": 5592,
      "##9B": 5593,
      "##9009</w>": 5594,
      "##b3": 5595,
      "##.);</w>": 5596,
      "##*;</w>": 5597,
      "VAR494</w>": 5598,
      "##000000009009</w>": 5599,
      "MODULE33</w>": 5600,
      "d195</w>": 5601,
      "d173</w>": 5602,
      "d194</w>": 5603,
      "d177</w>": 5604,
      "d185</w>": 5605,
      "h1001": 5606,
      "h10001": 5607,
      "d226</w>": 5608,
      "d215</w>": 5609,
      "d203</w>": 5610,
      "d209</w>": 5611,
      "d205</w>": 5612,
      "d238</w>": 5613,
      "d252</w>": 5614,
      "h3fff</w>": 5615,
      "h4B</w>": 5616,
      "h4003": 5617,
      "0345</w>": 5618,
      "0302</w>": 5619,
      "0354</w>": 5620,
      "0457</w>": 5621,
      "h000003": 5622,
      "0500</w>": 5623,
      "0527</w>": 5624,
      "0542</w>": 5625,
      "0549</w>": 5626,
      "0537</w>": 5627,
      "h8a</w>": 5628,
      "b0010001": 5629,
      "b0010110</w>": 5630,
      "<=\"</w>": 5631,
      "b0011011</w>": 5632,
      "hc8": 5633,
      "hc9</w>": 5634,
      "hc4</w>": 5635,
      "b11111101</w>": 5636,
      "##010101</w>": 5637,
      "##0605": 5638,
      "##011101</w>": 5639,
      "h9e</w>": 5640,
      "ha0</w>": 5641,
      "hab</w>": 5642,
      "he4</w>": 5643,
      "h3f7f": 5644,
      "##7479": 5645,
      "hbf7f": 5646,
      "##6563": 5647,
      "hE0</w>": 5648,
      "0552</w>": 5649,
      "o322": 5650,
      "hfffe</w>": 5651,
      "90s": 5652,
      "]>=</w>": 5653,
      "##EADBEE": 5654,
      "h9009000000009009</w>": 5655,
      "(...);</w>": 5656,
      "::*;</w>": 5657,
      "dist</w>": 5658,
      ")></w>": 5659,
      "577</w>": 5660,
      "625</w>": 5661,
      "627</w>": 5662,
      "681</w>": 5663,
      "694</w>": 5664,
      "643</w>": 5665,
      "629</w>": 5666,
      "618</w>": 5667,
      "658</w>": 5668,
      "717</w>": 5669,
      "875</w>": 5670,
      "906</w>": 5671,
      "hAA": 5672,
      "nmos</w>": 5673,
      "##508": 5674,
      "##744": 5675,
      "##477": 5676,
      "##601": 5677,
      "##A6</w>": 5678,
      "##a1</w>": 5679,
      "##c0</w>": 5680,
      "##e0</w>": 5681,
      "##f8": 5682,
      "##DC</w>": 5683,
      "##0040</w>": 5684,
      "MODULE45</w>": 5685,
      "##01000000000000000000000</w>": 5686,
      "d188</w>": 5687,
      "d198</w>": 5688,
      "d183</w>": 5689,
      "d187</w>": 5690,
      "##0000000000000000000</w>": 5691,
      "d247</w>": 5692,
      "d221</w>": 5693,
      "d219</w>": 5694,
      "d244</w>": 5695,
      "d245</w>": 5696,
      "d243</w>": 5697,
      "d229</w>": 5698,
      "d239</w>": 5699,
      "d206</w>": 5700,
      "d237</w>": 5701,
      "h080</w>": 5702,
      "##FFC": 5703,
      "b0100000000</w>": 5704,
      "b01100111</w>": 5705,
      "h00001</w>": 5706,
      "0520</w>": 5707,
      "0522</w>": 5708,
      "0528</w>": 5709,
      "0516</w>": 5710,
      "0525</w>": 5711,
      "0519</w>": 5712,
      "0541</w>": 5713,
      "0533</w>": 5714,
      "h800</w>": 5715,
      "1500</w>": 5716,
      "0623</w>": 5717,
      "0624</w>": 5718,
      "0643</w>": 5719,
      "hc2</w>": 5720,
      "##0202": 5721,
      "d856": 5722,
      "hb6</w>": 5723,
      "hb1</w>": 5724,
      "hbd</w>": 5725,
      "b111101</w>": 5726,
      "b11110000001111": 5727,
      "##229": 5728,
      "hfa</w>": 5729,
      "h002": 5730,
      "h008</w>": 5731,
      "0006</w>": 5732,
      "##098": 5733,
      "he3</w>": 5734,
      "he7</w>": 5735,
      "hee</w>": 5736,
      "b00111110</w>": 5737,
      "b1000001</w>": 5738,
      "h110</w>": 5739,
      "(!(&</w>": 5740,
      "0553</w>": 5741,
      "h0200</w>": 5742,
      "b00000001000</w>": 5743,
      "b0000000100000000</w>": 5744,
      "##CE01CE01CE01CE01": 5745,
      "b01010101</w>": 5746,
      "))&&((</w>": 5747,
      "\"./</w>": 5748,
      "b1111000000111100</w>": 5749,
      "\".</w>": 5750,
      "0t</w>": 5751,
      "1011</w>": 5752,
      "684</w>": 5753,
      "665</w>": 5754,
      "679</w>": 5755,
      "630</w>": 5756,
      "698</w>": 5757,
      "633</w>": 5758,
      "685</w>": 5759,
      "635</w>": 5760,
      "686</w>": 5761,
      "653</w>": 5762,
      "771</w>": 5763,
      "897</w>": 5764,
      "834</w>": 5765,
      "949</w>": 5766,
      "hAAAA</w>": 5767,
      "}{</w>": 5768,
      "##0D</w>": 5769,
      "##0A</w>": 5770,
      "##070</w>": 5771,
      "##502": 5772,
      "##205": 5773,
      "##4d</w>": 5774,
      "##A5</w>": 5775,
      "##C7</w>": 5776,
      "##B2</w>": 5777,
      "##1195": 5778,
      "##015": 5779,
      "d175</w>": 5780,
      "}}}": 5781,
      "1020</w>": 5782,
      "b0000011": 5783,
      "h1003": 5784,
      "d211</w>": 5785,
      "d223</w>": 5786,
      "d214</w>": 5787,
      "d241</w>": 5788,
      "d230</w>": 5789,
      "d218</w>": 5790,
      "d234</w>": 5791,
      "d251</w>": 5792,
      "h0D": 5793,
      "h040</w>": 5794,
      "h48": 5795,
      "b011111": 5796,
      "0062</w>": 5797,
      "0547</w>": 5798,
      "0545</w>": 5799,
      "0507</w>": 5800,
      "0535</w>": 5801,
      "0538</w>": 5802,
      "h8e</w>": 5803,
      "h8d</w>": 5804,
      "d413": 5805,
      "b00100101</w>": 5806,
      "##001110</w>": 5807,
      "h000000000000000000000000000000000000000000000000</w>": 5808,
      "##ence</w>": 5809,
      "hc8</w>": 5810,
      "hca</w>": 5811,
      "b00000000010</w>": 5812,
      "b11110111</w>": 5813,
      "hf9</w>": 5814,
      "hFC": 5815,
      "b00010000000</w>": 5816,
      "b0001000000000000</w>": 5817,
      "b11101111</w>": 5818,
      "h003</w>": 5819,
      "b1011111111111111</w>": 5820,
      "h000000000000000000000000000000</w>": 5821,
      "##42929": 5822,
      "##7581": 5823,
      "ha6</w>": 5824,
      "ha9</w>": 5825,
      "ha3</w>": 5826,
      "hae</w>": 5827,
      "he5</w>": 5828,
      "##7485": 5829,
      "##782": 5830,
      "##2722": 5831,
      "##2355": 5832,
      "##614": 5833,
      "0551</w>": 5834,
      "0012</w>": 5835,
      "b0101000</w>": 5836,
      "##quence</w>": 5837,
      "b00000010000</w>": 5838,
      "b11111111111</w>": 5839,
      "b1000111</w>": 5840,
      "b01000010</w>": 5841,
      "b10000101</w>": 5842,
      "(|(~</w>": 5843,
      "690</w>": 5844,
      "672</w>": 5845,
      "682</w>": 5846,
      "638</w>": 5847,
      "651</w>": 5848,
      "776</w>": 5849,
      "706</w>": 5850,
      "832</w>": 5851,
      "882</w>": 5852,
      "837</w>": 5853,
      "923</w>": 5854,
      "960</w>": 5855,
      "]<</w>": 5856,
      "h111": 5857,
      "##0c7": 5858,
      "##963": 5859,
      "##b4": 5860,
      "##006</w>": 5861,
      "MODULE11": 5862,
      "##010001</w>": 5863,
      "d182</w>": 5864,
      "d186</w>": 5865,
      "##????</w>": 5866,
      "##0110101": 5867,
      "b1101001": 5868,
      "d246</w>": 5869,
      "d242</w>": 5870,
      "d236</w>": 5871,
      "d235</w>": 5872,
      "d238": 5873,
      "h2E": 5874,
      "0021</w>": 5875,
      "h7fff</w>": 5876,
      "0524</w>": 5877,
      "0544</w>": 5878,
      "0543</w>": 5879,
      "0531</w>": 5880,
      "h5A</w>": 5881,
      "d50913": 5882,
      "hce</w>": 5883,
      "##000111111": 5884,
      "hb4</w>": 5885,
      "hba</w>": 5886,
      "hfe": 5887,
      "hf2</w>": 5888,
      "hd3</w>": 5889,
      "hda</w>": 5890,
      "h9d</w>": 5891,
      "h9b</w>": 5892,
      "ha2</w>": 5893,
      "hef</w>": 5894,
      "hec</w>": 5895,
      "##785": 5896,
      "b00000000000000001": 5897,
      "##198": 5898,
      "b0000010000000000</w>": 5899,
      "]&&": 5900,
      "hD0</w>": 5901,
      "0558</w>": 5902,
      "0554</w>": 5903,
      "b11111001</w>": 5904,
      "b0000001000000000</w>": 5905,
      "b0101101</w>": 5906,
      "##0fc": 5907,
      "b01001001</w>": 5908,
      "d1252</w>": 5909,
      "##55555555</w>": 5910,
      "d5091301": 5911,
      ")\\</w>": 5912,
      "696</w>": 5913,
      "664</w>": 5914,
      "692</w>": 5915,
      "691</w>": 5916,
      "688</w>": 5917,
      "678</w>": 5918,
      "636</w>": 5919,
      "697</w>": 5920,
      "687</w>": 5921,
      "689</w>": 5922,
      "659</w>": 5923,
      "740</w>": 5924,
      "728</w>": 5925,
      "748</w>": 5926,
      "760</w>": 5927,
      "719</w>": 5928,
      "730</w>": 5929,
      "736</w>": 5930,
      "783</w>": 5931,
      "735</w>": 5932,
      "879</w>": 5933,
      "836</w>": 5934,
      "831</w>": 5935,
      "835</w>": 5936,
      "904</w>": 5937,
      "903</w>": 5938,
      "|(~</w>": 5939,
      "##105": 5940,
      "##511": 5941,
      "##b3</w>": 5942,
      "##E3": 5943,
      "##))": 5944,
      "VAR493</w>": 5945,
      "}}})</w>": 5946,
      "b1100011</w>": 5947,
      "h108</w>": 5948,
      "h102</w>": 5949,
      "d233</w>": 5950,
      "h0AAAAAAAAAAAA": 5951,
      "h2008": 5952,
      "))]</w>": 5953,
      "h4C</w>": 5954,
      "h4F</w>": 5955,
      "b01100101</w>": 5956,
      "b01101110</w>": 5957,
      "0523</w>": 5958,
      "0560</w>": 5959,
      "0529</w>": 5960,
      "0518</w>": 5961,
      "h8b</w>": 5962,
      "##001100</w>": 5963,
      "d53": 5964,
      "b00000000100</w>": 5965,
      "##634": 5966,
      "##443": 5967,
      "hb7</w>": 5968,
      "hbe</w>": 5969,
      "b1110011</w>": 5970,
      "h004": 5971,
      "h3FF</w>": 5972,
      "##256</w>": 5973,
      "##813": 5974,
      "hdf1</w>": 5975,
      "##293": 5976,
      "he9</w>": 5977,
      "hed</w>": 5978,
      "b0000111</w>": 5979,
      "h0008</w>": 5980,
      "h0004</w>": 5981,
      "???????????</w>": 5982,
      "0556</w>": 5983,
      "0555</w>": 5984,
      "h00000080</w>": 5985,
      "h04000000</w>": 5986,
      "1007</w>": 5987,
      "b10001110</w>": 5988,
      "b10111101</w>": 5989,
      "##FFFFFFFFFFFFFFFFFFFFFFFFFFFFFFFFFFFFFFFFFFFFFFFFFFFFFFFFFFFFFFFF": 5990,
      "##0403020100</w>": 5991,
      ")'(</w>": 5992,
      "h0AAAAAAAAAAAAAAA</w>": 5993,
      "())</w>": 5994,
      ")^</w>": 5995,
      "1004</w>": 5996,
      "648</w>": 5997,
      "660</w>": 5998,
      "663</w>": 5999,
      "662</w>": 6000,
      "645</w>": 6001,
      "723</w>": 6002,
      "724</w>": 6003,
      "780</w>": 6004,
      "722</w>": 6005,
      "726</w>": 6006,
      "716</w>": 6007,
      "721</w>": 6008,
      "725</w>": 6009,
      "727</w>": 6010,
      "745</w>": 6011,
      "718</w>": 6012,
      "703</w>": 6013,
      "777</w>": 6014,
      "782</w>": 6015,
      "786</w>": 6016,
      "734</w>": 6017,
      "738</w>": 6018,
      "737</w>": 6019,
      "895</w>": 6020,
      "889</w>": 6021,
      "856</w>": 6022,
      "900</w>": 6023,
      "927</w>": 6024,
      "992</w>": 6025,
      "930</w>": 6026,
      ">=(</w>": 6027,
      "##0B</w>": 6028,
      "##180</w>": 6029,
      "##9F": 6030,
      "##204": 6031,
      "##A3</w>": 6032,
      "##a3</w>": 6033,
      "##b5</w>": 6034,
      "##c0": 6035,
      "##c1</w>": 6036,
      "##E2</w>": 6037,
      "##00000101": 6038,
      "MODULE31</w>": 6039,
      "##010111</w>": 6040,
      "1100</w>": 6041,
      "b1000000000</w>": 6042,
      "1011": 6043,
      "d280</w>": 6044,
      "h395": 6045,
      "h4D</w>": 6046,
      "d324": 6047,
      "d368": 6048,
      "b01101101</w>": 6049,
      "h7D</w>": 6050,
      "0588</w>": 6051,
      "0566</w>": 6052,
      "0577</w>": 6053,
      "h8e": 6054,
      "##FFFFFFFF</w>": 6055,
      "d67": 6056,
      "d664": 6057,
      "((((((": 6058,
      "##00010101": 6059,
      "hc5</w>": 6060,
      "hcf</w>": 6061,
      "##alu</w>": 6062,
      ")|(!</w>": 6063,
      "hb3</w>": 6064,
      "hb2</w>": 6065,
      "hd2</w>": 6066,
      "h9f</w>": 6067,
      "h9a</w>": 6068,
      "ha5</w>": 6069,
      "had</w>": 6070,
      "hff8": 6071,
      "hA1</w>": 6072,
      "##153": 6073,
      "b0111101</w>": 6074,
      "????????????:</w>": 6075,
      "0559</w>": 6076,
      "0557</w>": 6077,
      "h00000003</w>": 6078,
      "b1010101</w>": 6079,
      "1003</w>": 6080,
      "\")?</w>": 6081,
      "}})};</w>": 6082,
      "!(": 6083,
      "0f</w>": 6084,
      "695</w>": 6085,
      "673</w>": 6086,
      "661</w>": 6087,
      "676</w>": 6088,
      "675</w>": 6089,
      "674</w>": 6090,
      "693</w>": 6091,
      "649</w>": 6092,
      "677</w>": 6093,
      "701</w>": 6094,
      "711</w>": 6095,
      "710</w>": 6096,
      "764</w>": 6097,
      "763</w>": 6098,
      "744</w>": 6099,
      "715</w>": 6100,
      "765</w>": 6101,
      "714</w>": 6102,
      "713</w>": 6103,
      "779</w>": 6104,
      "742</w>": 6105,
      "778</w>": 6106,
      "707</w>": 6107,
      "766</w>": 6108,
      "702</w>": 6109,
      "705</w>": 6110,
      "880</w>": 6111,
      "860</w>": 6112,
      "871</w>": 6113,
      "884</w>": 6114,
      "870</w>": 6115,
      "874</w>": 6116,
      "878</w>": 6117,
      "883</w>": 6118,
      "885</w>": 6119,
      "838</w>": 6120,
      "853</w>": 6121,
      "924</w>": 6122,
      "922</w>": 6123,
      "996</w>": 6124,
      "926</w>": 6125,
      "990</w>": 6126,
      "925</w>": 6127,
      "991</w>": 6128,
      "973</w>": 6129,
      "961</w>": 6130,
      "967</w>": 6131,
      "975</w>": 6132,
      "979</w>": 6133,
      "929</w>": 6134,
      "932</w>": 6135,
      "955</w>": 6136,
      "905</w>": 6137,
      "985</w>": 6138,
      "939</w>": 6139,
      "950</w>": 6140,
      "951</w>": 6141,
      "??": 6142,
      "{(": 6143,
      "}+": 6144,
      "##0E</w>": 6145,
      "##125</w>": 6146,
      "##9C</w>": 6147,
      "##243": 6148,
      "##4A</w>": 6149,
      "##cc</w>": 6150,
      "##e6": 6151,
      "##CD</w>": 6152,
      "##E7</w>": 6153,
      "##B8</w>": 6154,
      "##B7</w>": 6155,
      "##{~</w>": 6156,
      "d122": 6157,
      "##00000000000000000000</w>": 6158,
      "}}:</w>": 6159,
      "}},(</w>": 6160,
      "h101</w>": 6161,
      "h1002": 6162,
      "h1FFF</w>": 6163,
      "d201": 6164,
      "h088</w>": 6165,
      "h4E</w>": 6166,
      "h424": 6167,
      "d303": 6168,
      "b01101001</w>": 6169,
      "b01101010</w>": 6170,
      "0561</w>": 6171,
      "0567</w>": 6172,
      "0575</w>": 6173,
      "0581</w>": 6174,
      "0578</w>": 6175,
      "0583</w>": 6176,
      "0593</w>": 6177,
      "h810</w>": 6178,
      "0640</w>": 6179,
      "0626</w>": 6180,
      "0635</w>": 6181,
      "0634</w>": 6182,
      "b00100010</w>": 6183,
      "b00100111</w>": 6184,
      "hc1</w>": 6185,
      "hc19": 6186,
      "##631": 6187,
      "##0800</w>": 6188,
      "##441": 6189,
      "b1111111": 6190,
      "hb9</w>": 6191,
      "hbf</w>": 6192,
      "hbb</w>": 6193,
      "b000111111": 6194,
      "b0001010</w>": 6195,
      "h0040</w>": 6196,
      "d1514</w>": 6197,
      "hd4</w>": 6198,
      "hd1</w>": 6199,
      "hd7</w>": 6200,
      "ha8</w>": 6201,
      "b0000000000000001": 6202,
      "he2</w>": 6203,
      "##13000": 6204,
      "##935": 6205,
      "b00000000000000001</w>": 6206,
      "h01000000</w>": 6207,
      "hFFFFF</w>": 6208,
      "1016</w>": 6209,
      "b111111111111</w>": 6210,
      "65536</w>": 6211,
      "b10000100</w>": 6212,
      "10000011</w>": 6213,
      "h1C0DE42": 6214,
      "d457479": 6215,
      "))}}</w>": 6216,
      "##81C381C3": 6217,
      "d36893": 6218,
      "\"-</w>": 6219,
      "(|{</w>": 6220,
      "10000000000</w>": 6221,
      "368": 6222,
      "644</w>": 6223,
      "641</w>": 6224,
      "795</w>": 6225,
      "770</w>": 6226,
      "708</w>": 6227,
      "746</w>": 6228,
      "741</w>": 6229,
      "743</w>": 6230,
      "729</w>": 6231,
      "733</w>": 6232,
      "732</w>": 6233,
      "709</w>": 6234,
      "731</w>": 6235,
      "758</w>": 6236,
      "840</w>": 6237,
      "804</w>": 6238,
      "899</w>": 6239,
      "805</w>": 6240,
      "858</w>": 6241,
      "857</w>": 6242,
      "910</w>": 6243,
      "948</w>": 6244,
      "963</w>": 6245,
      "995</w>": 6246,
      "976</w>": 6247,
      "988</w>": 6248,
      "917</w>": 6249,
      "994</w>": 6250,
      "933</w>": 6251,
      "993</w>": 6252,
      "952</w>": 6253,
      "954</w>": 6254,
      "953</w>": 6255,
      "9600</w>": 6256,
      "{{{</w>": 6257,
      "##5A</w>": 6258,
      "##521": 6259,
      "##263": 6260,
      "##209": 6261,
      "##268": 6262,
      "##692</w>": 6263,
      "##fc</w>": 6264,
      "##ED": 6265,
      "##ng</w>": 6266,
      "##007</w>": 6267,
      "##0041</w>": 6268,
      "wit": 6269,
      "##011001111": 6270,
      "h123": 6271,
      "d244": 6272,
      "h034</w>": 6273,
      "h059</w>": 6274,
      "]}},{</w>": 6275,
      "b010001": 6276,
      "h4A</w>": 6277,
      "d355": 6278,
      "b0110110</w>": 6279,
      "b01101111</w>": 6280,
      "0571</w>": 6281,
      "0570</w>": 6282,
      "0562</w>": 6283,
      "0647</w>": 6284,
      "0614</w>": 6285,
      "0613</w>": 6286,
      "0636</w>": 6287,
      "0629</w>": 6288,
      "0649</w>": 6289,
      "##6627": 6290,
      "hc7</w>": 6291,
      "hcd</w>": 6292,
      "b000000001111": 6293,
      "##0285": 6294,
      "##00011001": 6295,
      "hb5</w>": 6296,
      "##43333": 6297,
      "##ffffff</w>": 6298,
      "hFD</w>": 6299,
      "b1110001</w>": 6300,
      "b1011000</w>": 6301,
      "hd9</w>": 6302,
      "hdf</w>": 6303,
      "ha7</w>": 6304,
      "hac</w>": 6305,
      "##692": 6306,
      "b1001010</w>": 6307,
      "b1001110</w>": 6308,
      "b10000011</w>": 6309,
      "b11000011": 6310,
      "##5555555555555555</w>": 6311,
      "1013</w>": 6312,
      "##00000000000000000000000000000000000000000000000000000000000000000000000000000000": 6313,
      "d2048</w>": 6314,
      "b11001010</w>": 6315,
      "b00010100</w>": 6316,
      "?????????????????????????????": 6317,
      "##b440b9": 6318,
      "##int</w>": 6319,
      "##00780078": 6320,
      "h44443333": 6321,
      "##b80042": 6322,
      "h444433332222": 6323,
      "!(&</w>": 6324,
      "(^(</w>": 6325,
      ")<</w>": 6326,
      "646</w>": 6327,
      "642</w>": 6328,
      "747</w>": 6329,
      "761</w>": 6330,
      "762</w>": 6331,
      "788</w>": 6332,
      "787</w>": 6333,
      "755</w>": 6334,
      "785</w>": 6335,
      "789</w>": 6336,
      "811</w>": 6337,
      "890</w>": 6338,
      "892</w>": 6339,
      "891</w>": 6340,
      "873</w>": 6341,
      "872</w>": 6342,
      "813</w>": 6343,
      "876</w>": 6344,
      "888</w>": 6345,
      "881</w>": 6346,
      "894</w>": 6347,
      "869</w>": 6348,
      "898</w>": 6349,
      "893</w>": 6350,
      "887</w>": 6351,
      "877</w>": 6352,
      "839</w>": 6353,
      "886</w>": 6354,
      "850</w>": 6355,
      "852</w>": 6356,
      "901</w>": 6357,
      "921</w>": 6358,
      "964</w>": 6359,
      "965</w>": 6360,
      "943</w>": 6361,
      "918</w>": 6362,
      "931</w>": 6363,
      "907</w>": 6364,
      "902</w>": 6365,
      "989</w>": 6366,
      "934</w>": 6367,
      "958</w>": 6368,
      ">[</w>": 6369,
      "{(~(</w>": 6370,
      "##079</w>": 6371,
      "##1F</w>": 6372,
      "##169": 6373,
      "##3e": 6374,
      "##9c": 6375,
      "##955": 6376,
      "##4D</w>": 6377,
      "##6000</w>": 6378,
      "##F4</w>": 6379,
      "##F1</w>": 6380,
      "##C2</w>": 6381,
      "##B5</w>": 6382,
      "##DA": 6383,
      "##D1</w>": 6384,
      "##gra": 6385,
      "##]};</w>": 6386,
      "##00b": 6387,
      "]<=#</w>": 6388,
      "]}];</w>": 6389,
      "b0000111": 6390,
      "b11011111</w>": 6391,
      "d208": 6392,
      "h032</w>": 6393,
      "h2005": 6394,
      "##001000</w>": 6395,
      "h0000028": 6396,
      "h7ff": 6397,
      "0584</w>": 6398,
      "0591</w>": 6399,
      "0573</w>": 6400,
      "0574</w>": 6401,
      "0569</w>": 6402,
      "h8d": 6403,
      "h6B</w>": 6404,
      "h656": 6405,
      "d400</w>": 6406,
      "0610</w>": 6407,
      "0667</w>": 6408,
      "0633</w>": 6409,
      "0618</w>": 6410,
      "0632</w>": 6411,
      "0631</w>": 6412,
      "0639</w>": 6413,
      "0606</w>": 6414,
      "0653</w>": 6415,
      "##0008</w>": 6416,
      "d655": 6417,
      "d74": 6418,
      "b1111011</w>": 6419,
      "##059</w>": 6420,
      "##055</w>": 6421,
      "##052</w>": 6422,
      "##777": 6423,
      "##fffffff</w>": 6424,
      "b11100100</w>": 6425,
      "b1011110</w>": 6426,
      "##250</w>": 6427,
      "(~(&</w>": 6428,
      "hdead</w>": 6429,
      "##753": 6430,
      "##288": 6431,
      "##745": 6432,
      "hCC</w>": 6433,
      "##0111100</w>": 6434,
      "hA2</w>": 6435,
      "b11000001</w>": 6436,
      "##001111000110</w>": 6437,
      "h100003": 6438,
      "h1000001": 6439,
      "b1100111": 6440,
      "##6744": 6441,
      "b0101010</w>": 6442,
      "h02000000</w>": 6443,
      "h3F7FFFF": 6444,
      "1018</w>": 6445,
      "b10001001</w>": 6446,
      "##000000001000000001": 6447,
      "b10111100</w>": 6448,
      "##0000111010</w>": 6449,
      "neg</w>": 6450,
      "hae68": 6451,
      "\",\"</w>": 6452,
      "h6E69": 6453,
      "d3246627": 6454,
      "h1C0DE4201</w>": 6455,
      "##00000000000000000000000000000000000000000000000000000000000000000000000000000000080000000</w>": 6456,
      "##gram</w>": 6457,
      "h000002800000000000000000000000000000000000000000000000000000000000000000000000000000000080000000</w>": 6458,
      "69b": 6459,
      "792</w>": 6460,
      "772</w>": 6461,
      "774</w>": 6462,
      "794</w>": 6463,
      "798</w>": 6464,
      "793</w>": 6465,
      "739</w>": 6466,
      "847</w>": 6467,
      "821</w>": 6468,
      "845</w>": 6469,
      "829</w>": 6470,
      "855</w>": 6471,
      "806</w>": 6472,
      "854</w>": 6473,
      "859</w>": 6474,
      "911</w>": 6475,
      "980</w>": 6476,
      "947</w>": 6477,
      "971</w>": 6478,
      "984</w>": 6479,
      "919</w>": 6480,
      "972</w>": 6481,
      "970</w>": 6482,
      "946</w>": 6483,
      "962</w>": 6484,
      "945</w>": 6485,
      "974</w>": 6486,
      "978</w>": 6487,
      "936</w>": 6488,
      "983</w>": 6489,
      "987</w>": 6490,
      "966</w>": 6491,
      "977</w>": 6492,
      "982</w>": 6493,
      "986</w>": 6494,
      "956</w>": 6495,
      "937</w>": 6496,
      "957</w>": 6497,
      "?((</w>": 6498,
      "##3f": 6499,
      "##811": 6500,
      "##8000": 6501,
      "##807": 6502,
      "##948": 6503,
      "##2bf": 6504,
      "##4E</w>": 6505,
      "##415": 6506,
      "##623": 6507,
      "##619": 6508,
      "##FC</w>": 6509,
      "##AB</w>": 6510,
      "##AF</w>": 6511,
      "##CFFF": 6512,
      "##E00": 6513,
      "##D8</w>": 6514,
      "##{{{</w>": 6515,
      "##0079": 6516,
      "d102": 6517,
      "##011111111111</w>": 6518,
      "b110001": 6519,
      "d202": 6520,
      "d213": 6521,
      "h044</w>": 6522,
      "b0100011</w>": 6523,
      "h391": 6524,
      "])^(</w>": 6525,
      "b01101": 6526,
      "b01101011</w>": 6527,
      "##00101011": 6528,
      "h7ff</w>": 6529,
      "0590</w>": 6530,
      "0592</w>": 6531,
      "0576</w>": 6532,
      "0585</w>": 6533,
      "0589</w>": 6534,
      "h89": 6535,
      "d41": 6536,
      "d4000</w>": 6537,
      ")][</w>": 6538,
      "0600</w>": 6539,
      "0628</w>": 6540,
      "0625</w>": 6541,
      "0627</w>": 6542,
      "0644</w>": 6543,
      "0615</w>": 6544,
      "0675</w>": 6545,
      "0642</w>": 6546,
      "0602</w>": 6547,
      "0637</w>": 6548,
      "0650</w>": 6549,
      "0652</w>": 6550,
      "h5D</w>": 6551,
      "b0001101</w>": 6552,
      "b11110110</w>": 6553,
      "##010100</w>": 6554,
      "b0001001</w>": 6555,
      "b0001011</w>": 6556,
      "b11101110</w>": 6557,
      "h007</w>": 6558,
      "b10100001</w>": 6559,
      "d11805": 6560,
      "##0111011": 6561,
      "hac": 6562,
      "##27c": 6563,
      "b01110001</w>": 6564,
      "b00111001</w>": 6565,
      "##ema": 6566,
      "1014</w>": 6567,
      "1006</w>": 6568,
      "?????????????????????????????????????????????????": 6569,
      "b10111110</w>": 6570,
      "512x72</w>": 6571,
      "b1111111111111000</w>": 6572,
      "d4574792": 6573,
      "69b2</w>": 6574,
      ",'</w>": 6575,
      "/*</w>": 6576,
      "000001": 6577,
      "1111</w>": 6578,
      "796</w>": 6579,
      "790</w>": 6580,
      "791</w>": 6581,
      "773</w>": 6582,
      "775</w>": 6583,
      "769</w>": 6584,
      "797</w>": 6585,
      "749</w>": 6586,
      "756</w>": 6587,
      "754</w>": 6588,
      "753</w>": 6589,
      "759</w>": 6590,
      "757</w>": 6591,
      "801</w>": 6592,
      "810</w>": 6593,
      "848</w>": 6594,
      "816</w>": 6595,
      "864</w>": 6596,
      "863</w>": 6597,
      "844</w>": 6598,
      "815</w>": 6599,
      "814</w>": 6600,
      "867</w>": 6601,
      "808</w>": 6602,
      "846</w>": 6603,
      "841</w>": 6604,
      "843</w>": 6605,
      "830</w>": 6606,
      "842</w>": 6607,
      "849</w>": 6608,
      "803</w>": 6609,
      "809</w>": 6610,
      "807</w>": 6611,
      "802</w>": 6612,
      "851</w>": 6613,
      "920</w>": 6614,
      "912</w>": 6615,
      "916</w>": 6616,
      "915</w>": 6617,
      "914</w>": 6618,
      "908</w>": 6619,
      "913</w>": 6620,
      "935</w>": 6621,
      "938</w>": 6622,
      "h011": 6623,
      "rnd</w>": 6624,
      "##0bc": 6625,
      "##147</w>": 6626,
      "##968</w>": 6627,
      "##705": 6628,
      "##600": 6629,
      "##642": 6630,
      "##a7</w>": 6631,
      "##fe</w>": 6632,
      "##ED</w>": 6633,
      "##EB</w>": 6634,
      "##im": 6635,
      "##D9</w>": 6636,
      "##0100000000": 6637,
      "d124": 6638,
      "##0000000000000000000000000</w>": 6639,
      "}}));</w>": 6640,
      "##plema": 6641,
      "h120</w>": 6642,
      "])}</w>": 6643,
      "h20001": 6644,
      "h2003": 6645,
      "h2004": 6646,
      "h423": 6647,
      "h40003": 6648,
      "d300</w>": 6649,
      "d320</w>": 6650,
      "b0110111</w>": 6651,
      "h00002000</w>": 6652,
      "0580</w>": 6653,
      "0595</w>": 6654,
      "0587</w>": 6655,
      "0582</w>": 6656,
      "0586</w>": 6657,
      "sequence</w>": 6658,
      "0620</w>": 6659,
      "0604</w>": 6660,
      "0646</w>": 6661,
      "0651</w>": 6662,
      "##000100001": 6663,
      "1843": 6664,
      "hffa": 6665,
      "h006</w>": 6666,
      "##818": 6667,
      "##067": 6668,
      "##33d": 6669,
      "##1316": 6670,
      "##4961": 6671,
      "b0111001</w>": 6672,
      "b10011100</w>": 6673,
      "]=={</w>": 6674,
      "d147574": 6675,
      "hffffff": 6676,
      "hfffffff": 6677,
      "b01111011</w>": 6678,
      "h40000001": 6679,
      "h4000002": 6680,
      "h00000005</w>": 6681,
      "1019</w>": 6682,
      "1015</w>": 6683,
      "1012</w>": 6684,
      "##2642": 6685,
      "1008</w>": 6686,
      "b1000101</w>": 6687,
      "b111111111111111111": 6688,
      "d4095</w>": 6689,
      "h00010000</w>": 6690,
      "65535</w>": 6691,
      "##66666666": 6692,
      "##7777777777777777": 6693,
      ",\"%</w>": 6694,
      "d24349": 6695,
      "d5607": 6696,
      "h00000200</w>": 6697,
      "b0000000000111100</w>": 6698,
      "90sim": 6699,
      "d66408": 6700,
      "90simplema": 6701,
      "751</w>": 6702,
      "865</w>": 6703,
      "861</w>": 6704,
      "862</w>": 6705,
      "866</w>": 6706,
      "940</w>": 6707,
      "968</w>": 6708,
      "944</w>": 6709,
      "941</w>": 6710,
      "981</w>": 6711,
      "969</w>": 6712,
      "942</w>": 6713,
      "998</w>": 6714,
      "997</w>": 6715,
      "^~</w>": 6716,
      "glo": 6717,
      "##0FFE": 6718,
      "##1F": 6719,
      "##1E": 6720,
      "##F5</w>": 6721,
      "##A9</w>": 6722,
      "##f7</w>": 6723,
      "##EA</w>": 6724,
      "##B7": 6725,
      "##BD</w>": 6726,
      "##D0</w>": 6727,
      "##!=</w>": 6728,
      "##005</w>": 6729,
      "##116</w>": 6730,
      "1250</w>": 6731,
      "##01903": 6732,
      "d174": 6733,
      "],{(</w>": 6734,
      "d285</w>": 6735,
      "h2001": 6736,
      "h400</w>": 6737,
      "d384</w>": 6738,
      "#()</w>": 6739,
      "##001011": 6740,
      "##001001</w>": 6741,
      "##5587": 6742,
      "0596</w>": 6743,
      "0564</w>": 6744,
      "0563</w>": 6745,
      "0572</w>": 6746,
      "0579</w>": 6747,
      "0594</w>": 6748,
      "0597</w>": 6749,
      "h6C</w>": 6750,
      "d448</w>": 6751,
      "0601</w>": 6752,
      "0611</w>": 6753,
      "0648</w>": 6754,
      "0616</w>": 6755,
      "0621</w>": 6756,
      "0619</w>": 6757,
      "0665</w>": 6758,
      "0661</w>": 6759,
      "0608</w>": 6760,
      "0617</w>": 6761,
      "0645</w>": 6762,
      "0630</w>": 6763,
      "0603</w>": 6764,
      "0609</w>": 6765,
      "0607</w>": 6766,
      "0638</w>": 6767,
      "0659</w>": 6768,
      "h5B</w>": 6769,
      "##001101</w>": 6770,
      "(\"\"": 6771,
      "d640</w>": 6772,
      "b00110001</w>": 6773,
      "hc3": 6774,
      "hc25": 6775,
      "##ecd": 6776,
      "b00000000111": 6777,
      "##0203": 6778,
      "##0298": 6779,
      "b1111011111111111</w>": 6780,
      "##433</w>": 6781,
      "b1110001": 6782,
      "b10100101</w>": 6783,
      "##8315": 6784,
      "##073": 6785,
      ")}),</w>": 6786,
      "##7414": 6787,
      "hC8</w>": 6788,
      "h3F800001</w>": 6789,
      "b10010101</w>": 6790,
      "b10000111</w>": 6791,
      "h112</w>": 6792,
      "d1756</w>": 6793,
      "b00111010</w>": 6794,
      "(!((</w>": 6795,
      "##ed8": 6796,
      "program</w>": 6797,
      "##01000011": 6798,
      "##bal</w>": 6799,
      "b1111101</w>": 6800,
      "1017</w>": 6801,
      "b1000100</w>": 6802,
      "b01011000</w>": 6803,
      "##cd21b8": 6804,
      "d2877": 6805,
      "b00000000000000000000000000000000000000000000000000</w>": 6806,
      "b10001100</w>": 6807,
      "?????????????:</w>": 6808,
      "b10011110</w>": 6809,
      "h00000400</w>": 6810,
      ")?((</w>": 6811,
      "notif1</w>": 6812,
      "##====": 6813,
      "])&&(</w>": 6814,
      "d88544": 6815,
      "d21398": 6816,
      "d560781": 6817,
      "global</w>": 6818,
      "&{</w>": 6819,
      "):": 6820,
      "201": 6821,
      "6000</w>": 6822,
      "7000": 6823,
      "7999</w>": 6824,
      "80": 6825,
      "820</w>": 6826,
      "823</w>": 6827,
      "824</w>": 6828,
      "822</w>": 6829,
      "828</w>": 6830,
      "826</w>": 6831,
      "825</w>": 6832,
      "827</w>": 6833,
      "819</w>": 6834,
      "817</w>": 6835,
      "818</w>": 6836,
      "909</w>": 6837,
      "h55555555555555555555555555555555": 6838,
      "|!</w>": 6839,
      "}:{</w>": 6840,
      "##8B</w>": 6841,
      "##8D": 6842,
      "##7f</w>": 6843,
      "##704</w>": 6844,
      "##4B</w>": 6845,
      "##F6</w>": 6846,
      "##A8</w>": 6847,
      "##A1</w>": 6848,
      "##A00</w>": 6849,
      "##a4</w>": 6850,
      "##f8</w>": 6851,
      "##E0</w>": 6852,
      "##EF</w>": 6853,
      "##EE</w>": 6854,
      "##B3</w>": 6855,
      "##BA</w>": 6856,
      "##DB</w>": 6857,
      "##um</w>": 6858,
      "enum</w>": 6859,
      "MODULE35</w>": 6860,
      "MODULE34</w>": 6861,
      "d175": 6862,
      "##00000000000000000000000000</w>": 6863,
      "##011001</w>": 6864,
      "h100001": 6865,
      "d272</w>": 6866,
      "b010000000000</w>": 6867,
      "])?(</w>": 6868,
      "h2C": 6869,
      "h4002": 6870,
      "d326</w>": 6871,
      "d346": 6872,
      "##555</w>": 6873,
      "0599</w>": 6874,
      "0598</w>": 6875,
      "0612</w>": 6876,
      "0622</w>": 6877,
      "0668</w>": 6878,
      "0664</w>": 6879,
      "0671</w>": 6880,
      "0676</w>": 6881,
      "0641</w>": 6882,
      "0655</w>": 6883,
      "0656</w>": 6884,
      "0657</w>": 6885,
      "h5C</w>": 6886,
      "b00100001</w>": 6887,
      "##0003</w>": 6888,
      "##FFFFFF</w>": 6889,
      "##038</w>": 6890,
      "b00110100</w>": 6891,
      "hc22": 6892,
      "hc23": 6893,
      "b000000000100</w>": 6894,
      "##630</w>": 6895,
      "##638</w>": 6896,
      "##0233": 6897,
      "##4464": 6898,
      "##05e</w>": 6899,
      "##0522": 6900,
      "h3FC": 6901,
      "##2522": 6902,
      "##0429": 6903,
      "(~{</w>": 6904,
      "##4200</w>": 6905,
      "##4277": 6906,
      "##4207": 6907,
      "##01110000</w>": 6908,
      "h3f5": 6909,
      "##789": 6910,
      "b001111111": 6911,
      "h0005": 6912,
      "##191": 6913,
      "b10010001</w>": 6914,
      "b000001000000</w>": 6915,
      "##4896</w>": 6916,
      ")))?</w>": 6917,
      "h00000020</w>": 6918,
      "b11111010</w>": 6919,
      "b0000001000</w>": 6920,
      "h08000000</w>": 6921,
      "1009</w>": 6922,
      "h001F</w>": 6923,
      "##0de": 6924,
      "##011011011": 6925,
      "##ffffffffffffffff": 6926,
      "##01111111": 6927,
      "h428a": 6928,
      "##07070707": 6929,
      "d6715": 6930,
      "}+{</w>": 6931,
      "'{</w>": 6932,
      ",{(</w>": 6933,
      "200000</w>": 6934,
      "##0be": 6935,
      "##122": 6936,
      "##348": 6937,
      "##9E</w>": 6938,
      "##927": 6939,
      "##973": 6940,
      "##972": 6941,
      "##747</w>": 6942,
      "##200": 6943,
      "##228</w>": 6944,
      "##618": 6945,
      "##AE</w>": 6946,
      "##a4": 6947,
      "##b7</w>": 6948,
      "##c0c": 6949,
      "##CE</w>": 6950,
      "##B9</w>": 6951,
      "##D4</w>": 6952,
      "####</w>": 6953,
      "##118</w>": 6954,
      "##000000001</w>": 6955,
      "1280</w>": 6956,
      "d173": 6957,
      "b00001111": 6958,
      "b0000001111": 6959,
      "d278</w>": 6960,
      "d282</w>": 6961,
      "d286</w>": 6962,
      "h068": 6963,
      "##FFC3": 6964,
      "b0100010</w>": 6965,
      "h20000000</w>": 6966,
      "h40": 6967,
      "##555": 6968,
      "d4427": 6969,
      "0663</w>": 6970,
      "0662</w>": 6971,
      "0605</w>": 6972,
      "b00101100</w>": 6973,
      "##0011010</w>": 6974,
      "##00110110</w>": 6975,
      "(\"##</w>": 6976,
      "##FFFFFFF</w>": 6977,
      "##0379": 6978,
      "##00010000</w>": 6979,
      "b00110011</w>": 6980,
      "b000000000010</w>": 6981,
      ")||": 6982,
      "d9522": 6983,
      "##444</w>": 6984,
      "d800</w>": 6985,
      "##0101010</w>": 6986,
      "##053</w>": 6987,
      "hFB</w>": 6988,
      "hFA</w>": 6989,
      "h00800000</w>": 6990,
      "b1010010</w>": 6991,
      "b10110101</w>": 6992,
      "##83e": 6993,
      "##0404": 6994,
      "##0604": 6995,
      "hd5a": 6996,
      "##7549": 6997,
      "b0000100000</w>": 6998,
      "##33c9": 6999,
      "hef": 7000,
      "##2892": 7001,
      "##687": 7002,
      "##4907": 7003,
      "##6953": 7004,
      "h014</w>": 7005,
      "b1001001</w>": 7006,
      "##162": 7007,
      "b10011010</w>": 7008,
      "b1000011</w>": 7009,
      "hffffffffffffffff</w>": 7010,
      "##3565": 7011,
      "????????????</w>": 7012,
      "b11001110</w>": 7013,
      "&&(!</w>": 7014,
      "hFFFD": 7015,
      "b0000000100</w>": 7016,
      "b10111010</w>": 7017,
      "##db7</w>": 7018,
      "hfff8</w>": 7019,
      "##000011110000</w>": 7020,
      "b01010100</w>": 7021,
      "d1770888": 7022,
      "##000E000E000E000E": 7023,
      "##EE00EE00EE00EE00": 7024,
      "))}})</w>": 7025,
      "d8192</w>": 7026,
      "with</w>": 7027,
      "!\",</w>": 7028,
      "0m</w>": 7029,
      "1110</w>": 7030,
      "hAAAAAAAA": 7031,
      "##0ab": 7032,
      "##063</w>": 7033,
      "##1E</w>": 7034,
      "##5C</w>": 7035,
      "##5E</w>": 7036,
      "##301": 7037,
      "##8c": 7038,
      "##8D</w>": 7039,
      "##969": 7040,
      "##7F</w>": 7041,
      "##701": 7042,
      "##402": 7043,
      "##F9</w>": 7044,
      "##FA</w>": 7045,
      "##A4</w>": 7046,
      "##c5</w>": 7047,
      "##c06": 7048,
      "##C9</w>": 7049,
      "##CF</w>": 7050,
      "##E6</w>": 7051,
      "##E3</w>": 7052,
      "##B6</w>": 7053,
      "##D5</w>": 7054,
      "##ss": 7055,
      "async</w>": 7056,
      "##110000</w>": 7057,
      "MODULE36</w>": 7058,
      "MODULE37</w>": 7059,
      "##0144</w>": 7060,
      "##0100110</w>": 7061,
      "1101</w>": 7062,
      "##01100000</w>": 7063,
      "b000000": 7064,
      "d264</w>": 7065,
      "d279</w>": 7066,
      "d287</w>": 7067,
      "d2215": 7068,
      "h04200</w>": 7069,
      "b01000000000000</w>": 7070,
      "b0100101</w>": 7071,
      "b01000000010</w>": 7072,
      "h24": 7073,
      "h20003": 7074,
      "h2002": 7075,
      "h40001": 7076,
      "h422": 7077,
      "h427": 7078,
      "##55911": 7079,
      "h74": 7080,
      "h748": 7081,
      "h85": 7082,
      "h8005": 7083,
      "h6D</w>": 7084,
      "h6A</w>": 7085,
      "h6F</w>": 7086,
      "h6666</w>": 7087,
      "0672</w>": 7088,
      "0670</w>": 7089,
      "0666</w>": 7090,
      "b001000000000</w>": 7091,
      "d619": 7092,
      "d5628": 7093,
      "b00110010</w>": 7094,
      "##6378": 7095,
      "d797": 7096,
      "##02993": 7097,
      "d841": 7098,
      "b00011001</w>": 7099,
      "##05b</w>": 7100,
      "##435": 7101,
      "hF1</w>": 7102,
      "hF7</w>": 7103,
      "b0001000000</w>": 7104,
      "b00010111</w>": 7105,
      "b1110110</w>": 7106,
      "##254</w>": 7107,
      "##064": 7108,
      "h9000</w>": 7109,
      "b00000000000000</w>": 7110,
      "b00000000000010</w>": 7111,
      "##2406": 7112,
      "##7484": 7113,
      "hC5</w>": 7114,
      "h016</w>": 7115,
      "hbf5": 7116,
      "##6363636</w>": 7117,
      "##65739": 7118,
      "b10000111111111111": 7119,
      "]==": 7120,
      "b0111110</w>": 7121,
      "##7244": 7122,
      "##7264</w>": 7123,
      "##3899": 7124,
      "]&(~</w>": 7125,
      "h4000007": 7126,
      "##950": 7127,
      "h200000A": 7128,
      "h800000B": 7129,
      "##010010001": 7130,
      "))))))</w>": 7131,
      "##b9c": 7132,
      "h080000": 7133,
      "b1101000</w>": 7134,
      "##....": 7135,
      "##CFCF": 7136,
      "##55555555555555555555555555555555</w>": 7137,
      "b01001010</w>": 7138,
      "##01010101010</w>": 7139,
      "##1703": 7140,
      "##44444444": 7141,
      "b1111111100000000</w>": 7142,
      "##65568</w>": 7143,
      "##2117": 7144,
      "h0000000000000080</w>": 7145,
      "d65536</w>": 7146,
      "d560781044": 7147,
      "h5555555555555555555555555555555555555555555555555555555555555555</w>": 7148,
      "h428a2f": 7149,
      ";;</w>": 7150,
      "hca": 7151,
      "||": 7152,
      "|~</w>": 7153,
      "}+</w>": 7154,
      "##1a": 7155,
      "##174": 7156,
      "##524</w>": 7157,
      "##3a": 7158,
      "##385": 7159,
      "##899": 7160,
      "##9D</w>": 7161,
      "##7A</w>": 7162,
      "##644": 7163,
      "##A3": 7164,
      "##c2</w>": 7165,
      "##C6</w>": 7166,
      "##C8</w>": 7167,
      "##C4</w>": 7168,
      "##C3</w>": 7169,
      "##EC</w>": 7170,
      "##B4</w>": 7171,
      "##D6</w>": 7172,
      "##!(|</w>": 7173,
      "##0000011</w>": 7174,
      "##11902": 7175,
      "##11513": 7176,
      "##11db7</w>": 7177,
      "MODULE43</w>": 7178,
      "##0128": 7179,
      "##01000000": 7180,
      "##0144479": 7181,
      "##01141": 7182,
      "##011568": 7183,
      "b11010000": 7184,
      "h106": 7185,
      "d268</w>": 7186,
      "d284</w>": 7187,
      "d270</w>": 7188,
      "d267</w>": 7189,
      "d276</w>": 7190,
      "d275</w>": 7191,
      "d281</w>": 7192,
      "d283</w>": 7193,
      "h048</w>": 7194,
      "##FF0</w>": 7195,
      "##000000000000001</w>": 7196,
      "h44": 7197,
      "b011001": 7198,
      "b0110100</w>": 7199,
      "b0110101</w>": 7200,
      "##551</w>": 7201,
      "##551101": 7202,
      "##55098": 7203,
      "h7F": 7204,
      "h809": 7205,
      "h6E</w>": 7206,
      "h6000</w>": 7207,
      "d4475": 7208,
      "1535</w>": 7209,
      "##ring</w>": 7210,
      "0696</w>": 7211,
      "0690</w>": 7212,
      "0691</w>": 7213,
      "0673</w>": 7214,
      "0674</w>": 7215,
      "0669</w>": 7216,
      "0687</w>": 7217,
      "0677</w>": 7218,
      "0658</w>": 7219,
      "h5E</w>": 7220,
      "b001011111": 7221,
      "##0011619": 7222,
      "##038": 7223,
      "##037</w>": 7224,
      "0703</w>": 7225,
      "d65": 7226,
      "d6782": 7227,
      "<={{</w>": 7228,
      "18Kb</w>": 7229,
      "b0000000010</w>": 7230,
      "##6352</w>": 7231,
      "d73063": 7232,
      "##447</w>": 7233,
      "d80807": 7234,
      "##054</w>": 7235,
      "##054343": 7236,
      "##775": 7237,
      "##7715": 7238,
      "##77239": 7239,
      "b000100000000</w>": 7240,
      "b1110010</w>": 7241,
      "h005</w>": 7242,
      "##25033": 7243,
      "##210151": 7244,
      "d157244": 7245,
      "##81063": 7246,
      "##83968</w>": 7247,
      "##06906": 7248,
      "##4243": 7249,
      "##75993": 7250,
      "b000010000000</w>": 7251,
      "##29088</w>": 7252,
      "##298343": 7253,
      "##33608": 7254,
      "##09878": 7255,
      "##09272": 7256,
      "##79585": 7257,
      "##24d": 7258,
      "##2461": 7259,
      "he9b": 7260,
      "##13003": 7261,
      "##1392": 7262,
      "##6403</w>": 7263,
      "##64638": 7264,
      "##0000100</w>": 7265,
      "##00001011": 7266,
      "##28028": 7267,
      "##285587": 7268,
      "##9372": 7269,
      "##932117": 7270,
      "##7811902": 7271,
      "##78011568": 7272,
      "##499372": 7273,
      "##69677": 7274,
      "h012</w>": 7275,
      "##27608": 7276,
      "##2365568</w>": 7277,
      "##2328028": 7278,
      "d13993": 7279,
      "hB5</w>": 7280,
      "##16288": 7281,
      "b0000010000</w>": 7282,
      "##8768</w>": 7283,
      "hA8</w>": 7284,
      "h115</w>": 7285,
      "##4840": 7286,
      "##4883968</w>": 7287,
      "hEE</w>": 7288,
      "##64337": 7289,
      "##3845": 7290,
      "##41703": 7291,
      "##617715": 7292,
      "##0897581": 7293,
      "b01010000</w>": 7294,
      "b0101001</w>": 7295,
      "##47213": 7296,
      "##52608": 7297,
      "##5206906": 7298,
      "h00000040</w>": 7299,
      "d1023</w>": 7300,
      "##005a</w>": 7301,
      "##9602993": 7302,
      "h3F800003</w>": 7303,
      "b10001010</w>": 7304,
      "h07B</w>": 7305,
      "##00416</w>": 7306,
      "##82028": 7307,
      "##9316378": 7308,
      "##9312365568</w>": 7309,
      "##063511": 7310,
      "##063228</w>": 7311,
      "d260011619": 7312,
      "b10001101</w>": 7313,
      "##EF00": 7314,
      "string</w>": 7315,
      "##99325033": 7316,
      "36Kb</w>": 7317,
      "##{{{{": 7318,
      "##6284883968</w>": 7319,
      "##6289312365568</w>": 7320,
      "##704704</w>": 7321,
      "d108210151": 7322,
      "##0038003800380038": 7323,
      "}})?</w>": 7324,
      "##080741703": 7325,
      "##2087485": 7326,
      "##0000000000000000000000000000000000000000000000000000000000000000000000000000000000000000000000000000000000000000000000000000000000000000000000000000000000000000000000000000000000000000000000000000000000000000000000000000000000000000000000000000000000000000": 7327,
      "##05109878": 7328,
      "##6850479": 7329,
      "##6221392": 7330,
      "##73934</w>": 7331,
      "##21870</w>": 7332,
      "##78276953": 7333,
      "##78276352</w>": 7334,
      "##6330379": 7335,
      "##074080741703": 7336,
      "##87765739": 7337,
      "##15469677": 7338,
      "]}):(</w>": 7339,
      "##40352</w>": 7340,
      "##20709272": 7341,
      "##8384896</w>": 7342,
      "##13575993": 7343,
      "##83435206906": 7344,
      "##609642": 7345,
      "##49618</w>": 7346,
      "##1617549": 7347,
      "##6819316378": 7348,
      "##50324</w>": 7349,
      "##8010429": 7350,
      "##7090233": 7351,
      "##65630285": 7352,
      "d8562461": 7353,
      "d41320709272": 7354,
      "##235582028": 7355,
      "##6146330379": 7356,
      "##963079</w>": 7357,
      "]&&~</w>": 7358,
      "d50913016146330379": 7359,
      "##1059602993": 7360,
      "##29344</w>": 7361,
      "##93578011568": 7362,
      "d368934907": 7363,
      "##692617715": 7364,
      "d7465630285": 7365,
      "d32466273565": 7366,
      "##9484207": 7367,
      "d1180593578011568": 7368,
      "d457479278276953": 7369,
      "d124074080741703": 7370,
      "##1316932117": 7371,
      "d1475741059602993": 7372,
      "##26423899": 7373,
      "d243497090233": 7374,
      "d6640855911": 7375,
      "90simplemap": 7376,
      "##019032</w>": 7377,
      "d17455098": 7378,
      "##83150522": 7379,
      "d2877692617715": 7380,
      "d88544609642": 7381,
      "d213982328028": 7382,
      "d346551101": 7383,
      "##446412</w>": 7384,
      "##25226289312365568</w>": 7385,
      "##42774840": 7386,
      "d671533608": 7387,
      "##9276850479": 7388,
      "d17347213": 7389,
      "d442725226289312365568</w>": 7390,
      "d952299325033": 7391,
      "##06048768</w>": 7392,
      "##289216</w>": 7393,
      "d17708886819316378": 7394,
      "d22150897581": 7395,
      "d61981063": 7396,
      "d56289276850479": 7397,
      "d79713003": 7398,
      "##240673934</w>": 7399,
      "d5607810446221392": 7400,
      "##0144479747</w>": 7401,
      "##01141063228</w>": 7402,
      "d44751617549": 7403,
      "d678283435206906": 7404,
      "d7306352608": 7405,
      "d8080715469677": 7406,
      "##05434329088</w>": 7407,
      "##7723900416</w>": 7408,
      "d157244499372": 7409,
      "##2983430144</w>": 7410,
      "##79585289216</w>": 7411,
      "##6463827608": 7412,
      "##285587240673934</w>": 7413,
      "##781190252</w>": 7414,
      "d139938010429": 7415,
      "##1628898</w>": 7416,
      "##6433733</w>": 7417,
      "##3845781190252</w>": 7418,
      "##06351104</w>": 7419,
      "d2600116196284883968</w>": 7420,
      "d10821015105434329088</w>": 7421,
      "##208748581</w>": 7422,
      "##0510987800</w>": 7423,
      "##8776573952</w>": 7424,
      "##1357599350324</w>": 7425,
      "d8562461285587240673934</w>": 7426,
      "d4132070927201141063228</w>": 7427,
      "##23558202880</w>": 7428,
      "d5091301614633037921870</w>": 7429,
      "d3689349071357599350324</w>": 7430,
      "d74656302857723900416</w>": 7431,
      "d3246627356526423899": 7432,
      "##94842071628898</w>": 7433,
      "d1180593578011568963079</w>": 7434,
      "d4574792782769536433733</w>": 7435,
      "d12407408074170340352</w>": 7436,
      "##131693211767</w>": 7437,
      "d1475741059602993446412</w>": 7438,
      "d24349709023342774840": 7439,
      "d664085591123558202880</w>": 7440,
      "d1745509883150522": 7441,
      "d2877692617715208748581</w>": 7442,
      "d885446096420144479747</w>": 7443,
      "d2139823280280510987800</w>": 7444,
      "d3465511012983430144</w>": 7445,
      "d6715336083845781190252</w>": 7446,
      "d1734721379585289216</w>": 7447,
      "d9522993250338384896</w>": 7448,
      "d1770888681931637849618</w>": 7449,
      "d221508975818776573952</w>": 7450,
      "d6198106394842071628898</w>": 7451,
      "d5628927685047929344</w>": 7452,
      "d797130036463827608": 7453,
      "d5607810446221392019032</w>": 7454,
      "d4475161754978276352</w>": 7455,
      "d6782834352069067264</w>": 7456,
      "d7306352608131693211767</w>": 7457,
      "d8080715469677704704</w>": 7458,
      "d15724449937206048768</w>": 7459,
      "d13993801042906351104</w>": 7460,
      "d3246627356526423899692</w>": 7461,
      "d2434970902334277484062</w>": 7462,
      "d17455098831505222144</w>": 7463,
      "d7971300364638276086403</w>": 7464,
      "-{</w>": 7465,
      "100000000000</w>": 7466,
      "?}:</w>": 7467,
      "}*</w>": 7468,
      "##8f": 7469,
      "##2E</w>": 7470,
      "##272</w>": 7471,
      "##2FF</w>": 7472,
      "##409": 7473,
      "##40e": 7474,
      "##640</w>": 7475,
      "##674": 7476,
      "##FB</w>": 7477,
      "##A7</w>": 7478,
      "##AC</w>": 7479,
      "##ab</w>": 7480,
      "##a0000000000000000000000000000000000000000000000000000000000000000": 7481,
      "##c6</w>": 7482,
      "##B0</w>": 7483,
      "##BF": 7484,
      "##B1</w>": 7485,
      "##BE</w>": 7486,
      "##hz</w>": 7487,
      "##khz</w>": 7488,
      "##0058</w>": 7489,
      "##000000011": 7490,
      "##000001111": 7491,
      "##00000000080000000</w>": 7492,
      "MODULE41</w>": 7493,
      "MODULE56</w>": 7494,
      "d149": 7495,
      "b100000000000</w>": 7496,
      "d271</w>": 7497,
      "d273</w>": 7498,
      "d262</w>": 7499,
      "d274</w>": 7500,
      "d277</w>": 7501,
      "h030</w>": 7502,
      "h035</w>": 7503,
      "b0100111</w>": 7504,
      "b010000000000000</w>": 7505,
      "h398": 7506,
      "h363636363636363636363636363636363": 7507,
      "##0000000000001": 7508,
      "h203": 7509,
      "h240": 7510,
      "h421": 7511,
      "h766": 7512,
      "h8A</w>": 7513,
      "h8001": 7514,
      "h807": 7515,
      "h800001": 7516,
      "d427</w>": 7517,
      "15khz</w>": 7518,
      ")]);</w>": 7519,
      "0660</w>": 7520,
      "0699</w>": 7521,
      "0689</w>": 7522,
      "0654</w>": 7523,
      "b00100000000000</w>": 7524,
      "b00101010</w>": 7525,
      "##032</w>": 7526,
      "0701</w>": 7527,
      "0721</w>": 7528,
      "0708</w>": 7529,
      "0741</w>": 7530,
      "0736</w>": 7531,
      "0732</w>": 7532,
      "0735</w>": 7533,
      "0706</w>": 7534,
      "d68": 7535,
      "d605": 7536,
      "d57": 7537,
      "b00110111</w>": 7538,
      "##AAAAAAAAA00</w>": 7539,
      "##63TO": 7540,
      "##088": 7541,
      "d893": 7542,
      "d878": 7543,
      "b1111000000000000</w>": 7544,
      "##221</w>": 7545,
      "b00010010</w>": 7546,
      "b111011": 7547,
      "b10100110</w>": 7548,
      "##04950": 7549,
      "##ea1": 7550,
      "##75d": 7551,
      "h9b": 7552,
      "~(|(</w>": 7553,
      "~(~(</w>": 7554,
      "##939": 7555,
      "hC4</w>": 7556,
      "h01A</w>": 7557,
      "b10010011</w>": 7558,
      "b10010100</w>": 7559,
      "##858": 7560,
      "##7306": 7561,
      "h114</w>": 7562,
      "d1971</w>": 7563,
      "d1711513": 7564,
      "b001110111": 7565,
      "##184": 7566,
      "##9999</w>": 7567,
      "##351": 7568,
      "##00111111": 7569,
      "h4000004": 7570,
      "h10000001": 7571,
      "h2000007": 7572,
      "##324243": 7573,
      "##636363636363636</w>": 7574,
      "b000000010000</w>": 7575,
      "b1010100</w>": 7576,
      "b10101000</w>": 7577,
      "##0011101</w>": 7578,
      "b000000100000</w>": 7579,
      "h00100000</w>": 7580,
      "h070605": 7581,
      "b000000001000</w>": 7582,
      "##31TO": 7583,
      "##x0CETCd1": 7584,
      "##x0COETCd1": 7585,
      "?????????????????????????????????????": 7586,
      "##6363636363636363636363636363636</w>": 7587,
      "h00000AAAAAAAAA00</w>": 7588,
      "d16377": 7589,
      "h000004a0000000000000000000000000000000000000000000000000000000000000000": 7590,
      "b00111111111": 7591,
      "##FFFEFFF": 7592,
      "0x0CONCATrgv1BITS63TO": 7593,
      "0x0CONCATrgv1BITS31TO": 7594,
      "##MUL0x0CETCd1": 7595,
      "##MUL0x0COETCd1": 7596,
      "##924924": 7597,
      "125000000</w>": 7598,
      "h00C0FFE": 7599,
      "h0000030000000000000000000000000000000000000000000000000080000000</w>": 7600,
      "0000010000001</w>": 7601,
      "h428a2f98</w>": 7602,
      "h3636363636363636363636363636363636363636363636363636363636363636</w>": 7603,
      "##04950MUL0x0COETCd1": 7604,
      "##324243MUL0x0CETCd1": 7605,
      "h000004a000000000000000000000000000000000000000000000000000000000000000000000000080000000</w>": 7606,
      "0x0CONCATrgv1BITS63TO324243MUL0x0CETCd1": 7607,
      "0x0CONCATrgv1BITS31TO04950MUL0x0COETCd1": 7608,
      "h00C0FFEE</w>": 7609,
      "'(</w>": 7610,
      ":(~</w>": 7611,
      "?{</w>": 7612,
      "?)</w>": 7613,
      "wor</w>": 7614,
      "}[</w>": 7615,
      "~|((</w>": 7616,
      "~|{</w>": 7617,
      "##1C</w>": 7618,
      "##563": 7619,
      "##80000000</w>": 7620,
      "##6A</w>": 7621,
      "##611": 7622,
      "##696</w>": 7623,
      "##e92": 7624,
      "##f4</w>": 7625,
      "##D2</w>": 7626,
      "##D7</w>": 7627,
      "##um": 7628,
      "##0056</w>": 7629,
      "##00bf": 7630,
      "##00000001</w>": 7631,
      "MODULE39</w>": 7632,
      "MODULE38</w>": 7633,
      "MODULE53</w>": 7634,
      "1200</w>": 7635,
      "b10000000000000000</w>": 7636,
      "1039</w>": 7637,
      "h190</w>": 7638,
      "d263</w>": 7639,
      "d261</w>": 7640,
      "d269</w>": 7641,
      "d266</w>": 7642,
      "d257</w>": 7643,
      "h022</w>": 7644,
      "h031</w>": 7645,
      "h303": 7646,
      "h302": 7647,
      "])^</w>": 7648,
      "d322</w>": 7649,
      "b0110010</w>": 7650,
      "h00000800</w>": 7651,
      "h7B</w>": 7652,
      "h7E</w>": 7653,
      "h88": 7654,
      "h87": 7655,
      "h84": 7656,
      "h8a": 7657,
      "h8E</w>": 7658,
      "h8000000000000000</w>": 7659,
      "d422</w>": 7660,
      "d408": 7661,
      "d416</w>": 7662,
      "d479</w>": 7663,
      ")]}</w>": 7664,
      "0695</w>": 7665,
      "0688</w>": 7666,
      "0679</w>": 7667,
      "0678</w>": 7668,
      "b00101": 7669,
      "##0007": 7670,
      "0723</w>": 7671,
      "0704</w>": 7672,
      "0767</w>": 7673,
      "0743</w>": 7674,
      "0707</w>": 7675,
      "0737</w>": 7676,
      "d63": 7677,
      "(((~</w>": 7678,
      "##0001001</w>": 7679,
      "##00010111": 7680,
      "##663": 7681,
      "b001100011": 7682,
      "h0000000000001000</w>": 7683,
      "hc000</w>": 7684,
      "hc27": 7685,
      "b0000000000011": 7686,
      "b00000000000100</w>": 7687,
      "d75": 7688,
      "b00011010</w>": 7689,
      "##0500": 7690,
      "##7772": 7691,
      "hF5</w>": 7692,
      "b00010011</w>": 7693,
      "b00010000000000</w>": 7694,
      "b1010001</w>": 7695,
      "b10100010</w>": 7696,
      "b10110111</w>": 7697,
      "##FFFC</w>": 7698,
      "##075": 7699,
      "h923": 7700,
      "b00001000000000</w>": 7701,
      "##335": 7702,
      "b000000000000001": 7703,
      "##64d": 7704,
      "h3f6": 7705,
      "##747": 7706,
      "b00111101</w>": 7707,
      "hCA</w>": 7708,
      "hCE</w>": 7709,
      "hC080</w>": 7710,
      "b000000000000000000000000</w>": 7711,
      "b01110011</w>": 7712,
      "b01110111</w>": 7713,
      "b1001101</w>": 7714,
      "b10011011</w>": 7715,
      "]=((</w>": 7716,
      "hA5</w>": 7717,
      "##152": 7718,
      "hE4</w>": 7719,
      "b01111010</w>": 7720,
      "##453": 7721,
      "hD5</w>": 7722,
      "##01011001</w>": 7723,
      "##e80000": 7724,
      "b00000001000000</w>": 7725,
      "b1010101010101010</w>": 7726,
      "##005c</w>": 7727,
      "##../": 7728,
      "##0B0B": 7729,
      "##0A11": 7730,
      "b10001111</w>": 7731,
      "b01001000</w>": 7732,
      "##010101010101": 7733,
      "]))};</w>": 7734,
      "]}})|</w>": 7735,
      "??????????????:</w>": 7736,
      "h0000040000001": 7737,
      "b0010110101": 7738,
      "##AAAAAAAAAAAAAA</w>": 7739,
      "##000C000C000C000C": 7740,
      "b01111101</w>": 7741,
      "!!": 7742,
      ".\");</w>": 7743,
      ".\",</w>": 7744,
      "0111": 7745,
      "0000000000000</w>": 7746,
      "[-</w>": 7747,
      "tra": 7748,
      "{~(</w>": 7749,
      "|((</w>": 7750,
      "|(!</w>": 7751,
      "}],</w>": 7752,
      "##104": 7753,
      "##193": 7754,
      "##3F</w>": 7755,
      "##7b": 7756,
      "##729": 7757,
      "##2C</w>": 7758,
      "##6B</w>": 7759,
      "##675": 7760,
      "##A9": 7761,
      "##A2</w>": 7762,
      "##bf</w>": 7763,
      "##c19": 7764,
      "##d7": 7765,
      "##da": 7766,
      "##f3</w>": 7767,
      "##fa</w>": 7768,
      "##CB</w>": 7769,
      "##E01": 7770,
      "##tu": 7771,
      "##DE</w>": 7772,
      "##^((</w>": 7773,
      "##00E": 7774,
      "##0061</w>": 7775,
      "##000001000</w>": 7776,
      "##1179": 7777,
      "MODULE6": 7778,
      "MODULE40</w>": 7779,
      "MODULE47</w>": 7780,
      "MODULE48</w>": 7781,
      "MODULE44</w>": 7782,
      "MODULE46</w>": 7783,
      "MODULE42</w>": 7784,
      "MODULE55</w>": 7785,
      "##0100011</w>": 7786,
      "b1000000000000</w>": 7787,
      "b10000000000000</w>": 7788,
      "b1100101</w>": 7789,
      "d266": 7790,
      "d222": 7791,
      "d288</w>": 7792,
      "h024</w>": 7793,
      "h021</w>": 7794,
      "h050</w>": 7795,
      "b0100000000000</w>": 7796,
      "h3ec": 7797,
      "h30303": 7798,
      "h400001": 7799,
      "d312</w>": 7800,
      "04h</w>": 7801,
      "h713": 7802,
      "h76f": 7803,
      "h78a": 7804,
      "h81c": 7805,
      "d440</w>": 7806,
      "d408</w>": 7807,
      "d432</w>": 7808,
      "d450</w>": 7809,
      "0680</w>": 7810,
      "0692</w>": 7811,
      "0684</w>": 7812,
      "0681</w>": 7813,
      "0698</w>": 7814,
      "0697</w>": 7815,
      "0683</w>": 7816,
      "0693</w>": 7817,
      "0682</w>": 7818,
      "0686</w>": 7819,
      "b001000000000000</w>": 7820,
      "b00101111</w>": 7821,
      "b0010100001": 7822,
      "##0005": 7823,
      "##0002": 7824,
      "##035</w>": 7825,
      "0700</w>": 7826,
      "0711</w>": 7827,
      "0720</w>": 7828,
      "0724</w>": 7829,
      "0712</w>": 7830,
      "0722</w>": 7831,
      "0728</w>": 7832,
      "0716</w>": 7833,
      "0719</w>": 7834,
      "0744</w>": 7835,
      "0715</w>": 7836,
      "0714</w>": 7837,
      "0713</w>": 7838,
      "0717</w>": 7839,
      "0745</w>": 7840,
      "0742</w>": 7841,
      "0709</w>": 7842,
      "d639</w>": 7843,
      "##665": 7844,
      "d500</w>": 7845,
      "b00110110</w>": 7846,
      "b001101011": 7847,
      "hc21": 7848,
      ")|(~</w>": 7849,
      "hbec": 7850,
      "b00011111": 7851,
      "b1111100</w>": 7852,
      ")&(!</w>": 7853,
      "##770</w>": 7854,
      "##778": 7855,
      "b000100000000000</w>": 7856,
      "b00010110111": 7857,
      "b1110100</w>": 7858,
      "h3FB": 7859,
      "b101011": 7860,
      "b1010110</w>": 7861,
      "b10100111</w>": 7862,
      "b1011010</w>": 7863,
      "b10110100</w>": 7864,
      "##25b</w>": 7865,
      "##2138</w>": 7866,
      "##817": 7867,
      "##0711": 7868,
      "h91": 7869,
      "h9bd": 7870,
      "##33c": 7871,
      "##640": 7872,
      "h3f1b": 7873,
      "##000010000000</w>": 7874,
      "##74877": 7875,
      "hCB</w>": 7876,
      "h015</w>": 7877,
      "hbf6": 7878,
      "hbf59": 7879,
      "h0003": 7880,
      "h0003</w>": 7881,
      "h00080000</w>": 7882,
      "hB0</w>": 7883,
      "b00000100000000</w>": 7884,
      "]=~(</w>": 7885,
      "hAE</w>": 7886,
      "h118</w>": 7887,
      "hfffff</w>": 7888,
      "hffffffffffffffffffff": 7889,
      "##99fc": 7890,
      "##4506": 7891,
      "({{(</w>": 7892,
      "h1000007": 7893,
      "h8000001": 7894,
      "b0101011</w>": 7895,
      "h03c</w>": 7896,
      "h03d</w>": 7897,
      "b10101011</w>": 7898,
      "b00000010000000</w>": 7899,
      "##46E": 7900,
      "b1101011</w>": 7901,
      "b10001011</w>": 7902,
      "\")));</w>": 7903,
      "##cd218": 7904,
      "hbef9": 7905,
      "h06B</w>": 7906,
      "b00000000100000</w>": 7907,
      "b0100100000</w>": 7908,
      "b00000000010000</w>": 7909,
      "##01111111</w>": 7910,
      "b00000000001000</w>": 7911,
      "h4c11db7</w>": 7912,
      "h40000003": 7913,
      "##5dba": 7914,
      "h34b": 7915,
      "##2C76</w>": 7916,
      "hFFFFEB</w>": 7917,
      "hc24b8": 7918,
      "hfe000000</w>": 7919,
      "h3956c": 7920,
      "18431</w>": 7921,
      "):((</w>": 7922,
      "he9b5dba": 7923,
      "h713744": 7924,
      "hffffffffffffffffffffffffffffffff</w>": 7925,
      "1d</w>": 7926,
      "42": 7927,
      "643": 7928,
      "640000</w>": 7929,
      "]?": 7930,
      "var</w>": 7931,
      "{\"</w>": 7932,
      "##067</w>": 7933,
      "##174</w>": 7934,
      "##332</w>": 7935,
      "##323": 7936,
      "##825": 7937,
      "##706": 7938,
      "##206": 7939,
      "##4F</w>": 7940,
      "##480</w>": 7941,
      "##a4c": 7942,
      "##b4</w>": 7943,
      "##b43": 7944,
      "##d6": 7945,
      "##f9</w>": 7946,
      "##CA</w>": 7947,
      "##E1</w>": 7948,
      "##ps</w>": 7949,
      "##DA</w>": 7950,
      "##\":</w>": 7951,
      "##st": 7952,
      "##0000010000": 7953,
      "MODULE52</w>": 7954,
      "MODULE51</w>": 7955,
      "MODULE54</w>": 7956,
      "1185</w>": 7957,
      "1093</w>": 7958,
      "##0110011": 7959,
      "b1100010001": 7960,
      "h124</w>": 7961,
      "h106</w>": 7962,
      "h151</w>": 7963,
      "h142929": 7964,
      "d2000</w>": 7965,
      "d260</w>": 7966,
      "d265</w>": 7967,
      "d259</w>": 7968,
      "d258</w>": 7969,
      "h026</w>": 7970,
      "h036</w>": 7971,
      "h038</w>": 7972,
      "b01000110</w>": 7973,
      "b0101100</w>": 7974,
      "b01000100</w>": 7975,
      "##0000000000000111": 7976,
      "h2431": 7977,
      "h274877": 7978,
      "))+": 7979,
      "##0000000000000000000000000000000000000000": 7980,
      "d336</w>": 7981,
      "d352</w>": 7982,
      "##0010011": 7983,
      "##00100010</w>": 7984,
      "h7A</w>": 7985,
      "h7FF</w>": 7986,
      "h8D</w>": 7987,
      "h8008": 7988,
      "h86f": 7989,
      "h682": 7990,
      "d492</w>": 7991,
      "d433</w>": 7992,
      "0694</w>": 7993,
      "0685</w>": 7994,
      "h5338": 7995,
      "b00100110</w>": 7996,
      "b00100011</w>": 7997,
      "b0010000000000</w>": 7998,
      "##0011011": 7999,
      "##039": 8000,
      "##03e9": 8001,
      "0710</w>": 8002,
      "0740</w>": 8003,
      "0768</w>": 8004,
      "0726</w>": 8005,
      "0727</w>": 8006,
      "0761</w>": 8007,
      "0730</w>": 8008,
      "0733</w>": 8009,
      "0718</w>": 8010,
      "0702</w>": 8011,
      "0705</w>": 8012,
      "0739</w>": 8013,
      "0738</w>": 8014,
      "d52": 8015,
      "##632</w>": 8016,
      "0802</w>": 8017,
      "##083": 8018,
      "##0208</w>": 8019,
      "hb5c": 8020,
      "b111101011": 8021,
      "b1111000011110000</w>": 8022,
      "##05d</w>": 8023,
      "##430</w>": 8024,
      ")&(~</w>": 8025,
      "##777</w>": 8026,
      "b00010110</w>": 8027,
      "h002B": 8028,
      "b101001": 8029,
      "b1011100</w>": 8030,
      "##2194": 8031,
      "##81a": 8032,
      "##835b": 8033,
      "h92722": 8034,
      "b000010000000000</w>": 8035,
      "he49": 8036,
      "b0000110101": 8037,
      "##69906": 8038,
      "hCD</w>": 8039,
      "h00040000</w>": 8040,
      "hB4</w>": 8041,
      "b0111010</w>": 8042,
      "h111</w>": 8043,
      "b1100001</w>": 8044,
      "##456": 8045,
      "hDC</w>": 8046,
      "##be47": 8047,
      "##9899": 8048,
      "b1101110</w>": 8049,
      "b01010001</w>": 8050,
      "h0000000C</w>": 8051,
      ")))}}</w>": 8052,
      "##ba0001": 8053,
      "101001</w>": 8054,
      "b0000001000000</w>": 8055,
      "b000000100000000</w>": 8056,
      "##FFFFFFFFFFFFFFFFFFFFFFFF": 8057,
      "b1101010</w>": 8058,
      "b0000000000000000000000000000000000000000000000000000000000000000</w>": 8059,
      "##0fbc": 8060,
      "b10111011</w>": 8061,
      "##((((((((": 8062,
      "##3713": 8063,
      "]||": 8064,
      "##218DF</w>": 8065,
      "b01011100</w>": 8066,
      "##C001C001C001C001": 8067,
      "h6F6D": 8068,
      "##67178": 8069,
      "b10011101</w>": 8070,
      "1011000000000000</w>": 8071,
      "((((((((</w>": 8072,
      "b0000000011100000</w>": 8073,
      "h243185": 8074,
      "hb5c0fbc": 8075,
      ")-(</w>": 8076,
      "+{</w>": 8077,
      ":~</w>": 8078,
      ";;": 8079,
      "d553": 8080,
      "{(!</w>": 8081,
      "##101": 8082,
      "##1c5": 8083,
      "##8A": 8084,
      "##7a": 8085,
      "##7B</w>": 8086,
      "##7b</w>": 8087,
      "##233": 8088,
      "##471</w>": 8089,
      "##621": 8090,
      "##F7": 8091,
      "##FD</w>": 8092,
      "##FB": 8093,
      "##a0ab": 8094,
      "##b69": 8095,
      "##b0a": 8096,
      "##c4</w>": 8097,
      "##c08</w>": 8098,
      "##df</w>": 8099,
      "##e3</w>": 8100,
      "##f111": 8101,
      "##D5": 8102,
      "##D3</w>": 8103,
      "##%(</w>": 8104,
      "##0073": 8105,
      "##0087": 8106,
      "##119</w>": 8107,
      "MODULE62</w>": 8108,
      "MODULE49</w>": 8109,
      "MODULE50</w>": 8110,
      "MODULE57</w>": 8111,
      "##ca63": 8112,
      "##ca1c": 8113,
      "##013": 8114,
      "##010000000</w>": 8115,
      "##010000000000000000000000</w>": 8116,
      "1120</w>": 8117,
      "1136</w>": 8118,
      "b100000000000000</w>": 8119,
      "1040</w>": 8120,
      "1047</w>": 8121,
      "1055</w>": 8122,
      "1050</w>": 8123,
      "b1100100</w>": 8124,
      "b1100010</w>": 8125,
      "b110001011": 8126,
      "h180</w>": 8127,
      "h128</w>": 8128,
      "h165": 8129,
      "d255": 8130,
      "d2112</w>": 8131,
      "h046</w>": 8132,
      "h042</w>": 8133,
      "h021": 8134,
      "]}}:</w>": 8135,
      "h3ed": 8136,
      "])*(</w>": 8137,
      "h40E": 8138,
      "h4ed8": 8139,
      "d347</w>": 8140,
      "d328</w>": 8141,
      "d304</w>": 8142,
      "h000006</w>": 8143,
      "h7E": 8144,
      "h8000000": 8145,
      "h80003": 8146,
      "h84c": 8147,
      "h80de": 8148,
      "h6A": 8149,
      "d424</w>": 8150,
      "d496</w>": 8151,
      "d464</w>": 8152,
      "d472</w>": 8153,
      "d499</w>": 8154,
      "d494</w>": 8155,
      "d493</w>": 8156,
      "d434</w>": 8157,
      "d456</w>": 8158,
      "h5b9c": 8159,
      "b00100000000000000</w>": 8160,
      "b00101001</w>": 8161,
      "##0011100</w>": 8162,
      "##0301": 8163,
      "##0344": 8164,
      "0760</w>": 8165,
      "0771</w>": 8166,
      "0725</w>": 8167,
      "0762</w>": 8168,
      "0755</w>": 8169,
      "0731</w>": 8170,
      "0734</w>": 8171,
      "0752</w>": 8172,
      "0754</w>": 8173,
      "((&(~</w>": 8174,
      "##00010011": 8175,
      "##664": 8176,
      "d509</w>": 8177,
      "18432</w>": 8178,
      "hc6e": 8179,
      "hc76": 8180,
      "hc67178": 8181,
      "b0000000000100</w>": 8182,
      "b0000000001100000</w>": 8183,
      "d79": 8184,
      "d799</w>": 8185,
      "##0838": 8186,
      "##0001101</w>": 8187,
      "##442": 8188,
      "hbed": 8189,
      "hb003": 8190,
      "b111100101011": 8191,
      "hf40e": 8192,
      "##776</w>": 8193,
      "hF6</w>": 8194,
      "b1110101</w>": 8195,
      "h008": 8196,
      "h00F</w>": 8197,
      "##111111111": 8198,
      "b1010111</w>": 8199,
      "b10100011</w>": 8200,
      "##2165": 8201,
      "##2135": 8202,
      "d1516</w>": 8203,
      "##831c": 8204,
      "##079": 8205,
      "hd19": 8206,
      "hd807": 8207,
      "hd69906": 8208,
      "##01110111": 8209,
      "h99": 8210,
      "h90be": 8211,
      "h983e": 8212,
      "ha2bf": 8213,
      "ha4506": 8214,
      "ha81a": 8215,
      "ha831c": 8216,
      "~(^</w>": 8217,
      "b00001011</w>": 8218,
      "b000000000000010</w>": 8219,
      "b000000000000100</w>": 8220,
      "##1373": 8221,
      "h3f4": 8222,
      "h3f800000</w>": 8223,
      "##74ee</w>": 8224,
      "##787": 8225,
      "b0011110011": 8226,
      "b0011110111": 8227,
      "hC3": 8228,
      "hC6</w>": 8229,
      "hC3</w>": 8230,
      "hC1</w>": 8231,
      "h01F": 8232,
      "h013</w>": 8233,
      "##231": 8234,
      "b10010110</w>": 8235,
      "b10010111</w>": 8236,
      "##732": 8237,
      "b000001000000000</w>": 8238,
      "##8743": 8239,
      "]=='</w>": 8240,
      "hA4</w>": 8241,
      "hAF</w>": 8242,
      "b00111011</w>": 8243,
      "b001110010000": 8244,
      "b001110100111": 8245,
      "b11000001011": 8246,
      "b1100000001011": 8247,
      "b1100000011001": 8248,
      "b0111100</w>": 8249,
      "b01111001</w>": 8250,
      "##0C70</w>": 8251,
      "##1824</w>": 8252,
      "##995": 8253,
      "##3585</w>": 8254,
      "##3886": 8255,
      "h400005": 8256,
      "?????????????</w>": 8257,
      "h1000002": 8258,
      "h1000005": 8259,
      "h2000009": 8260,
      "##be5d": 8261,
      "##989": 8262,
      "##988d": 8263,
      "b1101100</w>": 8264,
      "b11011010</w>": 8265,
      "b11011010011": 8266,
      "&&((</w>": 8267,
      "hFFFDD": 8268,
      "##1281": 8269,
      "b01010011</w>": 8270,
      "b01010110</w>": 8271,
      "b01010111</w>": 8272,
      "b000000010000000</w>": 8273,
      "b0000000101110000</w>": 8274,
      "##0a73": 8275,
      "b1101001</w>": 8276,
      "b1101011110111": 8277,
      "h12835b": 8278,
      "b0101111</w>": 8279,
      "b0101110</w>": 8280,
[...]
